#version: 0.2
Ġ d
o n
e r
Ġ c
Ġ s
Ġ p
Ġ a
r e
t o
i n
e n
t a
t i
l a
Ġd i
r i
e l
r a
l i
Ġ e
t e
l e
Ġ m
u n
a n
Ġ i
r o
Ġ n
z i
s i
Ġ in
h e
Ġd el
â Ģ
i a
o r
Ġ f
Ġ un
e s
Ġ v
c a
Ġp er
on e
Ġ la
Ġc on
o s
q u
l o
o m
Ġ g
Ġa l
Ġ t
Ġi l
Ġc he
a r
c o
m en
c i
âĢ Ļ
a l
Ġ qu
d i
e t
d o
m a
Ã ¨
zi one
Ġ ri
Ã ł
Ġ o
s o
n o
z a
er e
Ġ Ã¨
Ġ l
g i
Ġs u
Ġ S
Ġ b
Ġp ro
Ġs i
o l
v i
Ġd e
Ġ C
m p
s a
v a
t u
Ġc om
Ġ le
Ġd a
m o
Ġa n
on i
on o
g li
b i
c h
t er
c e
Ġ P
t to
Ġs e
c he
Ġun a
a s
p p
Ġdel la
d a
t Ãł
Ġn el
Ġn on
Ġ M
Ġp re
i o
t ra
v o
Ġ re
Ġc a
n i
Ġ h
i s
men te
Ġm a
Ġ I
t ti
Ġ A
er a
Ġ L
n a
Ġp i
s e
v e
f i
Ġs o
d e
m i
Ġp o
Ġ (
Ġ 1
in a
on a
u o
Ġ D
ra n
s p
c ia
g gi
Ġf a
b b
t ro
z za
an o
Ġ 2
er i
Ġd al
Ġqu es
t en
Ġs ta
Ġv i
Ġs p
Ġt ra
Ġ âĢ
t ta
Ġt u
v er
Ġ te
Ġ G
Ġ T
men to
Ã ¹
zi oni
Ġ B
u i
in i
Ġc i
p o
Ġs ono
Ġde i
u s
t re
Ġp ar
Ġe s
Ġpi Ã¹
ta n
g a
en ti
Ġh a
in e
u l
Ġ F
Ġg i
c c
Ġ R
Ġd o
to ri
en te
f f
a li
Ġdel l
t ri
Ġ N
Ġp a
Ġ lo
en za
s si
c on
Ġan che
in o
Ġcom e
Ġdel le
Ġal la
Ġm i
Ġc os
Ġ E
an i
Ġ ra
m b
h i
Ġm o
g o
p a
r u
Ġ u
Ġp os
Ġsu l
Ġm e
g g
0 0
m e
an do
ch i
Ġn e
Ã ²
an no
Ġp u
âĢ Ŀ
d u
Ġa d
Ġf or
er o
ri o
p i
v en
et to
tu ra
s ti
ta re
Ġp ri
zi a
Ġ li
ĠâĢ ľ
l u
s ta
c u
Ġal l
g u
bi li
Ġcom p
a re
Ġ V
Ġqu el
Ġes s
u to
bi le
Ġi mp
s so
z z
ri a
Ġa v
ggi o
Ġs c
ta li
a le
Ġc o
si one
Ġques to
d ere
Ġg li
en e
Ġin ter
Ġpro p
et ti
c co
Ġf i
Ġg ra
gli o
fi ca
Ġ -
zi ona
Ġa pp
t te
Ġd u
Ġnel la
ĠL a
Ġ ti
ti co
Ġess ere
ĠI n
Ġ U
Ġn o
ia mo
un i
0 1
Ġa r
Ã ©
Ġv a
es so
men ti
Ġa i
Ġe d
g na
ta to
g ni
p er
Ġc or
Ġm ol
Ġse mp
Ġs a
f or
Ġc hi
n e
Ġc ui
mp o
Ġ O
. .
Ġt er
ĠM a
in g
Ã ¬
la re
Q u
Ġ 3
an ti
Ġn uo
Ġri s
Ġn os
Ġc ol
) .
Ġg io
zi o
ĠI l
Ġper s
ti ca
g ra
Ġv ol
el e
gli a
Ġ ta
Ġc re
u m
g no
Ġal le
Ġgi or
Ġ to
Ġpre s
ci o
d ia
r on
ĠâĢ ĵ
Ġt ro
an a
Ġa t
Ġla vo
to re
Ġpar te
p e
Ġb a
z e
bb e
es si
u ro
f fi
Ġh anno
re n
Ġ2 01
Ġsu o
Ġdi s
b o
Ġ H
) ,
ch Ã©
c or
et ta
si d
es e
Ġb i
Ġso lo
t ru
c ca
bb li
v ol
Ġn a
Ġdal la
Ġsemp re
es ti
Ġde gli
b a
i l
s s
Ġtu tti
s te
er ca
an to
Ġ "
u ti
Ġdi sp
Ġ 4
Ġv er
ĠP a
Ġpu Ã²
Ġp as
la n
a m
Ġv o
ti va
pp o
en do
Ġpri ma
Ġs er
Ġsta to
en ta
t el
u r
g e
Ġm on
L a
Ġv en
Ġqu al
Ġques ta
Ġan ni
c qu
e d
an te
Ġa cc
I l
u ra
ĠP er
Ġmol to
Ġdu e
Ġpos si
or ta
Ġlo ro
Ġ 5
Ġ or
Ġa bb
Ġri sp
r in
Ġs ia
es s
Ġg en
en a
re s
Ġte mpo
ti vo
Ġs te
es sa
Ġin di
Ġm en
Ġun o
et Ãł
p era
m ma
g ia
zz o
d er
for ma
Ġ Qu
Ġin f
Ġg ran
an e
ul ti
co ra
Ġtu tto
in di
Ġv ia
m m
t tu
di o
Ġm an
t in
Ġ1 9
os a
bili tÃł
ĠA n
Ġfor ma
t t
i e
Ġsp e
Ġdi re
ĠC on
tan te
Ġe sp
Ġcon s
li zza
qu e
v ia
el lo
ĠC om
c ch
ff er
Ġp un
Ġh o
ta le
Ġb as
ĠC a
Ġpers ona
Ġfa re
Ġu ti
Ġsul la
b le
si a
Ġdal l
ĠS e
Ġf ar
Ġo gni
es ta
Ġs enza
Ġs tra
Ġdi ver
ĠA l
u ta
Ġc ar
el li
Ġsu a
Ġqu ali
ri e
ĠD i
Ġpu bbli
o si
Ġ ro
Ġ W
Ġser vi
t ter
Ġcon f
ĠL e
I n
t tura
el la
s c
ar Ãł
Ġp en
Ġne i
Ġa u
Ġpo i
Ġri c
Ġse con
a tti
h ia
Ġ en
Ġper chÃ©
Ġal tri
Ġmo do
a d
r Ãł
om en
ĠS i
Ġv e
g n
Ġ w
Ġqu anto
l tre
Ġan cora
Ġdo v
ta mente
ra re
Ġe uro
mp i
Ġdo po
âĢĿ .
al mente
p ra
Ġ Â
ziona le
Ġpro do
Ġ J
Ġli b
Ġfa tto
Ġal c
s t
Ġqu ando
a t
Ġs arÃł
s se
Ġc en
ti vi
Ġtra tta
in is
gg ia
c cia
m et
Ġ era
Ġs en
Ġvi ta
Ġs ca
es a
Ġso tto
Ġnel l
Ġre gi
c lu
i co
Ġc er
cia le
m ina
o lo
s to
Ġp ia
Ġgi Ãł
Ġpro ble
Ġprop rio
Ġquel lo
c en
g ui
zi e
ggi un
or to
Ġca so
Ġ 6
Ġ os
z o
Ġques ti
ĠR e
li ca
an za
ran no
un que
os o
Ġpos s
p ri
Â »
in ter
v ano
or d
om e
Ġv is
Ġs ol
Ġra pp
Ġnel le
ĠM i
ra zione
va re
Ġa tti
Ġqu indi
Ġcos Ã¬
Ġa cqu
Ġcomp le
Ġlavo ro
c k
m bi
Ġmi glio
Ġ K
an ta
Ġf o
Ġs co
Ġi tali
Ġf on
Ġmon do
Ġm is
Ġb u
l mente
Ġcon tro
Ġpo li
Ġs in
r si
Ġs tori
tu a
Ġpar ti
p re
Ġdo ve
con om
v ere
vi tÃł
Ġs os
es to
Ġpro g
Ġte c
li tÃł
u re
Ġin i
Ġpro f
l la
Ġ tan
or t
Ġg a
Ġci r
Ġle gg
ran te
a mo
Ġsi ste
Ġs tru
un e
tali a
m an
Ġ 7
g ono
as si
Ġ el
Ġf ra
Ġ2 00
m er
Ġc hia
ti ve
z zi
si oni
ĠD e
ĠG i
Ġm ar
Ġt en
t r
Ġs al
! !
s sa
Ġquel la
ca to
ĠÂ «
ti ci
Ġe se
Ġe ff
Ġsp a
d enti
Ġso pra
P er
ta ti
f eri
Ġl un
Ġb en
Ġsi cu
Ġ z
el o
Ġc al
el le
Ġcom uni
Ġs tu
ali zza
Ġcos a
ti tu
ra to
Ġne c
A N
en ze
lo re
Ġpo tre
Ġnos tro
et te
Ġposs ono
Ġn um
Ġt re
Ġca pi
.. .
l ine
lo gi
om o
Ġgran de
ti che
Ġb ene
ĠM ar
ĠN a
c chi
Ġar ri
Ġ on
ta zione
Ġd es
Ġf ino
ch ia
Ġca sa
Ġpri mo
Ġp or
Ġc an
Ġf in
âĢĿ ,
Ġpas sa
Ġc ri
Ġ1 0
Ġ 8
ti on
t tÃł
ri g
ca re
os tra
gu ar
Ġs ti
Ġg o
Ġal lo
Ġri p
Ġcon tra
os ta
Ġvol ta
Ġpossi bile
Ġde ci
Ġtu tte
g ani
c re
Ġdal le
Ġsta ta
Ġa ff
Ġpro du
Ġsc ri
om a
va to
e si
Ġimp or
Ġnuo va
t ina
Ġcon si
uo i
mb re
Ġm ani
Ġsiste ma
c om
zi en
Ġg u
Ġri chi
Ġo re
Ġpar tico
Ġpers one
e di
Ġcon di
Ġgior ni
Ã Ī
Ġa ve
Ġtra s
ĠP i
Ġat tra
ĠR i
ven to
Ġf u
ci p
Ġo ltre
t ere
Ġpi cco
ggi or
da re
Ġci ttÃł
i t
ci ta
et ro
Ġmi li
Ġal tre
Ġgior no
Ġo ggi
omen to
Ġf ine
Ġcon tin
m ar
Ġfi l
on ta
Ġe si
Ġme di
Ġnos tra
Ġsecon do
mp io
Ġnuo vo
Ġda ti
co l
ĠN on
la zione
Ġsu per
ĠL o
Ġto r
Ġste sso
c ina
el l
Ġda i
bi to
u t
Ġo ra
Ġso ci
Ġvi ene
i ca
Ġma ggio
S e
Ġs vi
Ġin forma
ver so
Ġa uto
Ġdi ven
un a
re bbe
ve ce
un o
gi one
p en
Ġp rin
Ġf un
Ġl u
ĠP ro
Ġvi si
Ġuti lizza
h o
Ġav ere
g hi
v in
lo ri
Ġbi so
Ġbas e
Ġc as
la no
Ġe conom
ĠM o
Ġdisp osi
to r
Ġcon os
os to
a to
d ente
Ġa sso
Ġo pera
Ġpro gra
Ġsvi lu
g re
u zione
Ġ ,
la to
la bo
Ġm in
âĢ ¦
Ġd om
Ġdi ce
el i
an d
co lo
t ten
Ġa ss
tri b
c ce
Ġc la
Ġa ssi
ĠP o
Ġris ul
i mp
la ri
Ġma i
Ġsemp li
O N
s ten
Ġcon ten
Ġqu ale
Ġsi to
Ġpun to
re zza
Ġm omento
Ġf e
Ġsta ti
Ġric erca
Ġprodo tti
E R
ter ia
Ġ2 0
Ġba mb
Ġfo to
Ġ r
di ta
ma to
l l
s mo
Ġsu cc
tan do
u si
Ġin vece
ziona li
Ġrisp etto
Ġproble ma
s cia
ĠC i
c cio
Ġli v
Ġs are
Ġt uo
ĠS u
Ġde ve
tan za
Ġno i
Ġmen tre
u sa
Ġ 9
ar d
ĠD a
sid ente
c ri
s tra
er Ãł
cia li
Ġmen o
gani zza
l lo
Ġa gli
Ġ1 8
ona le
Ġgi us
c ci
m is
Ġm io
ĠS o
Ġsta n
Ġgi u
Ġti to
Ġabb iamo
Ġc ura
Ġo ff
ĠV i
Ġspe ci
Ġini zia
Ġnum ero
g en
c ere
i re
v al
Ġp orta
si e
tan ti
00 0
es o
ĠS a
Ġre n
Ġre alizza
tori o
Ġa sp
ri ca
Ġse gui
Ġna tura
b er
li a
Ġm et
Ġgior na
ffi ci
g ere
Ġdel lo
Ġp e
sa re
ĠD o
es se
u se
ci tÃł
Ġpre n
cc u
gu e
Ġqual che
Ġpre vi
Ġsc el
Ġti po
Ġc li
tu re
Ġdo cu
Ġprop ri
Ġinf atti
Ġ er
Ġo pp
f ini
Ġcor po
Ġgen era
Ġnec essa
e i
p u
Ġca ra
Ġgio v
Ġf re
ar ti
vo le
Ġdu rante
sid era
Ġalc uni
qu i
Ġfa mi
ĠG a
inis tra
Ġsoci etÃł
Ġcon ta
ttu tto
f a
Ġv eri
ver o
Ġrapp res
Ġese mpio
Ġservi zio
s er
Ġdi ri
es co
Ġri guar
Ġan d
bb ero
po li
Ġattra verso
Ġn or
mp a
ĠU n
c ano
u te
Ġ ele
men o
Ġri cor
ĠC hi
Ġso li
ssi mo
Ġcontin u
t on
Ġqu a
Ġre la
Ġfa ci
ta no
Ġ1 2
eri e
Ġtu tta
Ġstori a
v enti
Ġal tro
ĠC o
ĠF a
Ġprog etto
L e
T A
b re
or re
gli e
fi ci
Ġe di
Ġe vi
Ġg esti
ran ti
ĠF ran
mb ia
Ġdisp oni
g h
r re
Ġp ra
ĠP re
o k
¿ ½
ï ¿½
Ġan ti
Ġsopra ttutto
f o
ĠR o
Ġmo d
m on
Ġe cc
or ti
os e
tta mente
ul tura
e b
Ġ ulti
Ġper Ã²
Ġg ru
ter o
ĠT ra
Ġcol le
Ġpro te
tu i
ĠL i
Ġ1 5
sp on
ssi one
Ġsuo i
Ġprogra mma
Ġc u
an ni
Ġv al
al l
ina le
Ġa ver
Ġun i
Ġv in
Ġsu e
ter na
a pp
Ġ ÃĪ
Ġin con
di ca
us ci
ĠR oma
Ġinter na
Ġcen tro
Ġtec ni
Ġsempli ce
Ġd on
Ġl ine
Ġci Ã²
mb ra
Ġgra zie
Ġcir ca
d ono
v vero
Ġm erca
Ġpo si
Ġlo ca
Ġsa ranno
d ini
h a
l en
Ġt he
ci pa
Ġan no
ĠI talia
Ġ1 4
Ġpos to
er ra
al tro
ĠB a
sie me
Ġin te
Ġques te
Ġgo ver
an da
Ġo tten
Ġpo co
uo le
ĠN o
Ġatti vitÃł
c ente
g ine
ar si
Ġqu i
io re
is ce
Ġfor ni
gli ere
Ġso ciale
gni fica
Ġat ten
Ġqual c
T I
c ono
Ġa m
Ġa ggiun
es te
Ġcon se
men ta
Ġl uo
Ġsp esso
Ġapp ro
Ġver so
zien da
2 01
c ra
Ġ .
Ġ 0
la r
Ġle ga
Ġter ri
Ġservi zi
Ġfon da
Ġpotre bbe
Ġliv ello
M a
c ro
Ġf uo
ca r
Ġg ui
Ġsu i
Ġma teria
ĠU ni
Ġtan to
a cqu
d di
f er
l li
Ġin s
Ġsi tua
Ġlavo ra
Ġfil m
ver si
Ġacqu is
Ġ Z
Ġs con
Ġt ele
Ġgio co
d en
u so
Ġ k
gi o
ĠT u
Ġli mi
gu a
Ġmol ti
Ġter m
e a
Ġre go
Ġsul le
Ġcol labo
Ġvol te
Ġinforma zioni
" .
c er
s ce
Ġs iamo
an zia
Ġcon te
et er
Ġra ggiun
Ġpartico lare
N on
Ġsi gnifica
tico lo
ra ta
Ġla scia
Ġo p
ĠC as
Ġme glio
d enza
Ġa mm
Ġm assi
va mente
Ġan n
Ġsul l
ie ga
a zione
m ana
Ġ rin
ri co
li o
Ġper met
Ġpres enta
Ġsen so
2 0
Ġs etti
Ġdi gi
Ġm ia
Ġf er
Ġtro va
Ġprof essi
Â °
ca zione
ven tu
Ġsc or
Ġva ri
Ġcor re
sia si
ta te
Ġdi ffer
Ġv os
Ġpre sso
Ġ1 6
ul la
Ġprodo tto
Ġtec no
Ġa g
bi etti
Ġlegg e
E S
S i
a cc
v ono
Ġdi m
Ġf as
Ġde fini
ĠM on
Ġne gli
qu ad
ĠF i
Ġpa ro
sti ca
Ġin sieme
âĢ ľ
da to
Ġfa vo
etto re
Ġcla ssi
Ġs vol
es t
Ġper f
Ġcos e
Ġgio ca
Ġor ganizza
e de
Ġa mbi
or te
tto re
Ġgra do
Ġqual siasi
cch ia
er ci
Ġs enti
ri re
es p
lo gia
sti tu
Ġproble mi
Ġcara tter
w w
Ġt ri
m ane
Ġs an
Ġm as
sa to
Ġca mbia
Ġquel li
Ġgran di
Ġbamb ini
Ġsare bbe
ccu pa
U n
a i
d re
Ġb o
Ġcom unque
ĠA r
Ġpa ra
Ġprop ria
Ġtro vare
cch io
L I
s ci
Ġs erie
Ġa mi
Ġi de
Ġpro c
Ġcom pa
fi co
zia le
Ġcor so
Ġnos tri
Â» .
Ġmerca to
A R
A n
ta ta
ch io
Ġca mpo
eri enza
Ġtu a
Ġnuo vi
cor so
Ġi o
Ġquel le
Ġquali tÃł
Ġel et
Ġqua si
1 9
Ġm ese
Ġg ia
Ġse mbra
Ġca usa
Ġpo ter
Ġmo di
Ġme si
Ġpres ente
Ġuti li
Ġave va
E N
b e
t ino
Ġv elo
Ġqu o
Ġo f
Ġo tti
Ġpre ci
Ġpre ce
Ġra cc
sc ri
Ġnor ma
e ta
Ġc ultura
ar di
Ġsu bito
Ġ1 7
Ġpossi bilitÃł
Ġpubbli co
ord ina
Ġprin cip
C on
d Ã¬
Ġf ron
ĠS an
Ġpre no
Ġpo po
Ġci tta
Ġcos titu
Ġpersona le
Ġstru ttura
Ġz ona
1 0
Ġc erca
Ġs f
un cia
os si
Ġri vol
ĠS p
ĠS al
Ġre al
ĠL u
Ġdiver si
Ġon line
Ġimpor tante
o pera
er va
Ġin ten
Ġri feri
ĠB i
Ġsecon da
Ġeff et
Ġmin uti
g he
Ġd en
Ġa bi
Ġi s
or do
ch Ã¨
fi che
Ġvia ggio
Ġconf ron
Ġau tori
Ġvis ta
Ġbiso gno
b bi
g ina
n et
Ġdi f
Ġcon sidera
Ġb an
ĠN el
Ġapp lica
Ġdiver se
Ġen tra
Ġsicu rezza
sten za
I N
O R
t y
Ġa per
Ġper io
Ġri ce
io ri
ĠT o
po si
cco l
Ġva lore
Ġconf er
Ġeuro pe
A l
a u
c in
Ġs or
Ġs quad
Ġs ettore
al tra
Ġl in
ĠP ar
ga re
Ġsa p
Ġgiov ani
Ġfuo ri
i de
m oni
w s
Ġp eso
ra ti
Ġn ess
Ġte mp
Ġ3 0
inter no
Ġpoli tica
Ġgru ppo
Ġreal tÃł
Ġal meno
pp a
Ġfin anzia
Ġsvilu ppo
Ġdice mbre
5 0
c endo
i r
un ta
no va
tan to
Ġpubbli ca
Ġtratta mento
â Ĥ
Ġf is
Ġv era
om i
Ġo tto
Ġo rig
Ġques t
Ġstra da
Ġgui da
âĤ ¬
ta l
ti zia
ri gi
ra mente
Ġm ano
ter Ãł
Ġpre zzo
zza zione
us tri
ssi ma
ĠU na
Ġvis to
d ine
d ino
f ia
Ġpre sidente
Ġes clu
Ġ19 9
g er
Ġs ci
Ġv ero
Ġri con
Ġda re
ĠN e
Ġra ga
me dia
Ġgra sso
Ġste ssa
a v
f t
Ġa ffi
Ġa pri
ta r
os te
va ti
de o
Ġd etto
Ġe sa
Ġi m
Ġan i
Ġse i
ĠM e
Ġsp iega
tel li
3 0
Ġd eter
Ġg e
Ġri f
ĠC ar
tto ri
ver sa
sti co
p h
Ġc uo
Ġs tre
al le
pp e
Ġnuo ve
Ġven gono
ttu re
ĠMi lano
Ġmani f
Ġa da
Ġi mma
Ġcon trib
men tare
Ġca pa
us to
tri ce
Ġcre a
Ġeff etti
Ġscel ta
Ġqualc osa
S A
Ġp ron
Ġn as
Ġaff ron
I talia
v esti
y o
Ġ ul
en o
Ġe x
Ġcon clu
Ġpro vin
Ġda to
as s
zz e
Ġlun go
c ino
n er
t ono
Ġa li
Ġm essa
Ġl ui
ĠB o
Ġha i
Ġcomp re
Ġar ti
at tro
ggior na
Ġmili oni
Ġluo go
m ia
Ġs ele
ta rio
un to
Ġper dere
ui re
Ġtro ppo
Ġlib ro
Ġtito lo
L A
u me
on te
on da
te zza
Ġpro ce
ĠR a
ĠE uro
Ġimp e
ĠIn ter
Ġsegui to
la ta
Ġm usi
ma i
mi te
Ġpu r
Ġgra tui
Ġve dere
spon sa
g le
o ra
Ġ X
en i
Ġdi chia
ra le
Ġm ini
an n
Ġt ran
Ġpo ten
Ġmo da
Ġva lori
ĠH o
Ġvo i
Ġmiglio ri
c enza
Ġn ome
Ġf os
Ġb re
Ġca p
ĠB er
Ġga ranti
Ġnecessa rio
A r
u omo
va ta
Ġ2 4
ĠT e
ssi mi
Ġw eb
Ġinte gra
c enti
ma re
Ġu ffi
Ġme dia
gg etti
Ġimp re
cca sione
Ġforma zione
Ġtan ti
Ġasso cia
Ġsucc essi
Ġpra tica
Ġf ran
al la
Ġri du
ĠP u
Ġtra sp
ĠG io
Ġpres enti
Ġpres enza
Ġitali ano
2 00
c ando
f fica
Ġb lo
ol tre
Ġpre pa
Ġ2 5
Ġte ma
cu ra
Ġav vi
Ġna zionale
tt ere
Ġdire ttamente
Ġos pi
Ġcondi zioni
Ġdisposi zione
tor no
ĠChi esa
Ġterri torio
bietti vo
g ini
an g
os so
Ġse gna
Ġ1 3
Ġfi si
lan do
Ġsol uzione
Ġmiglio re
I A
ti di
si mo
or k
Ġv uole
ch er
Ġre sponsa
Ġpo te
Ġvi deo
fica zione
Ġpun ti
Ġimpor tanti
Ġrappres enta
L E
d ustri
v anti
Ġp uoi
Ġdi pen
Ġm eri
Ġda vvero
mi ca
ona to
zza re
Ġfron te
Ġperio do
N el
Ġf ini
Ġb ra
Ġfor te
ven i
Ġindi ca
Ġindi vi
Ġspa zio
Ġstu dio
Ġr uo
Ġfami glia
acqu a
Ġvos tro
Ġtemp era
b ri
l us
Ġc io
Ġs ce
ar t
Ġb ar
ĠC os
Ġcom mer
Ġda ta
bi lmente
Ġca mpi
Ġpi ano
ĠH a
ĠQu esto
Ġotten ere
Ġotto bre
C ome
Ġd unque
er ia
Ġa tte
an ze
Ġo ffer
so la
ĠC h
Ġda gli
pp ia
Ġtra mite
ga to
gg e
Ġpri mi
Ġta le
Ġalc une
Ġcer to
Ġrapp orto
Ġtor na
Ġasso lu
Ġsucc esso
Ġgover no
m ano
o o
Ġ &
Ġdi men
om ini
Ġri usci
Ġsu pp
vi mento
ĠC or
Ġpre ve
Ġte sta
ĠF or
Ġcos tr
gna to
Ġter ra
Ġbi an
Ġfun ziona
Ġins eri
d ro
p le
r ono
ri sti
Ġcom une
ten ti
fica re
Ġor mai
Ġpropri etÃł
Ġopp ure
Ġline a
a uto
p ia
Ġc in
re a
Ġin oltre
Ġf anno
Ġqu attro
Ġpre sta
Ġma ggior
Ġpo chi
Ġfor se
Ġprodu zione
Ġer ano
k i
Ġ us
Ġs era
Ġp la
Ġn ulla
zi ali
men tale
Ġri le
Ġpro m
Ġcom pi
ĠI I
Ġtra di
du re
Ġco in
Ġter re
Ġat tu
tru zione
Ġman ten
Ġsen si
Ġsin go
zien de
mar t
Ġoff re
d endo
on di
Ġa ffer
Ġper dita
Ġla n
Ġqu anti
is ta
uo la
bb iamo
gg etto
Ġav uto
Ġdov rebbe
Ġallo ra
Ġriguar da
O S
b u
t h
Ġs fi
lo ro
ma ta
mo re
pp i
Ġpu li
Ġfi le
Ġgio chi
Ġparte cipa
Ġregi onale
Ġdes tina
Ġdigi tale
Ġrif le
1 2
a ri
l le
m u
t oni
Ġs ette
Ġa cco
Ġm ostra
ca le
Ġan dare
Ġ2 2
ten do
ĠG u
Ġfor za
Ġti pi
Ġmol te
Ġbu ona
Ġsin da
Ġrichi esta
Ġdiri tto
Ġparo le
Ġproc esso
Ġsquad ra
Ġcuo re
Ġul ter
D o
Ġd ol
Ġc ine
Ġa ggiorna
ti c
Ġn u
Ġca si
ten te
ĠF o
Ġpa ri
pri re
Ġparti re
Ġsos ten
Ġfaci le
Ġdim ostra
Ġricon os
U ni
Ġ âĤ¬
ta g
ta ri
Ġdi a
Ġsi ano
sp i
Ġgen ere
Ġregi stra
cre to
Ġconse gu
) ;
c us
m mi
r oni
Ġ Y
om b
ĠA d
Ġpo tra
zza to
ĠT or
Ġci vi
Ġ4 0
Ġcen tra
Ġacqu a
Ġpicco lo
Ġgenera le
T O
c che
Ġd etta
Ġdi ffici
ri s
Ġe ventu
di ce
Ġde mo
ten zione
Ġsp or
ĠG ra
Ġ201 1
Ġmon dia
ĠCom e
col tÃł
Ġlu ce
Ġgesti one
Ġinterna zionale
Ġtecno logi
Ġp ol
Ġa ziende
ri to
Ġin vesti
co la
Ġre cu
ĠD io
Ġes ter
Ġpa esi
Ġcomp orta
Ġcre are
Ġcons u
Ġvisi ta
Ġcontinu a
Ġsitua zione
Ġcollabo razione
U na
r lo
Â Ń
Ġa cca
Ġdi vi
Ġper chÃ¨
os tante
co li
Ġo v
Ġb io
ĠT i
mb o
Ġu r
Ġav rebbe
Ġcre di
Ġfu tu
mis sione
Ġpren dere
Ġrappres en
Ġam eri
Ġsap ere
3 2
c t
s u
Ġ Ð
Ġc el
Ġf anta
Ġcom ma
Ġ1 1
Ġsta gione
Ġsp i
Ġte mpi
ĠT he
ui to
ga ri
Ġmaggio re
Ġdiri tti
Ġulti mi
R E
d ina
i d
Ġ [
Ġe ffica
Ġin vi
Ġv ed
se gna
Ġ1 00
Ġsta te
ĠB u
Ġav ven
Ġmis ura
Ġmani era
Ġdeter mina
c es
d iamo
Ġa s
Ġdi ff
or se
ĠS il
Ġpro va
oni sti
Ġma la
Ġra ccol
Ġpos sa
ba to
Ġcar ta
Ġamm inistra
Ġani ma
l y
u zioni
os ti
Ġpa ese
Ġnec essi
ddi s
Ġterm ine
Ġriferi mento
c anza
d es
u ri
ar ticolo
co lare
Ġsu gg
Ġle tter
ĠâĢ ĺ
Ġprop rie
uni tÃł
Ġva ria
Ġvo glia
Ġste ssi
ulti mo
Ġstan no
Ġmassi mo
Ġscor so
v era
Ġc e
Ġa tto
Ġa zioni
Ġi mm
Ġv anta
Ġri so
Ġo bbli
gi ca
ĠS er
da ti
Ġme zzo
Ġinter essa
Ġris chio
Ġlavo ri
Ġcons ul
Ġitali ana
Ġgiu gno
Ġgiorna ta
Ġgiorna li
Ġk m
Ġsetti mana
Ġindivi du
R O
a zienda
g ano
u p
in do
Ġin clu
Ġal terna
Ġpa re
Ġpa gina
ru tta
Ġai uta
Ġpres en
Ġ201 7
ĠPa rigi
via mente
Ġmar zo
Ġscri tto
Ġutilizza re
Ġfoto gra
Ġdon na
Ġposi zione
Ġquo tidi
Ġcitta dini
Ġmanif esta
Ġcoin vol
C i
Ġs mart
Ġm us
Ġf inale
om ma
ĠS pa
Ġma le
Ġpi u
Ġ2 3
ĠG li
ga zione
tori a
ĠE n
Ġcomp ren
Ġabb as
ulti ma
Ġquesti one
Ġesclu si
R A
Ġ '
Ġ Q
on d
Ġdi sa
men tazione
ma ti
ĠS tato
Ġpro v
ĠP ri
Ġca po
Ġvi cino
Ġu omini
Ġabb ia
ĠCom une
Ġpia tta
Ġdisponi bile
lar mente
Ġami ci
ph one
C I
g enza
k e
s on
Ġa sse
en so
Ġdi ffi
Ġm inis
Ġal ta
Ġde dica
Ġde vono
ĠC he
Ġan zi
vo li
ĠT a
Ġpar la
ven do
Ġnos tre
onta na
Ġeffet tua
Ġapri le
i ci
u tare
Ġc h
Ġm orte
an is
di ci
ĠS ono
vi o
ĠC en
Ġma re
ona li
Ġsta bili
Ġsp etta
ĠT er
ĠIn f
Ġ201 8
Ġver sione
Ġitali ani
Ġbu on
Ġrisul tati
Ġgius to
Ġloca li
esp erienza
a der
p ro
s cita
Ġ ru
an na
lo b
om pa
Ġri la
Ġma cch
ul l
Ġra pi
Ġme to
Ġ5 0
ĠAn che
Ġcontro llo
pu bbli
Ġdisponi bili
Ġdon ne
Ġfavo re
Ġmusi ca
Ġmala tti
Z I
Ġa mp
ri tÃł
li ci
Ġe mer
Ġm ulti
Ġi stitu
Ġqu ad
no ltre
Ġsi mi
ĠC ri
Ġre te
Ġma tt
fi cio
Ġte sti
ĠV al
Ġapp ena
Ġno ve
Ġ201 6
Ġspe cia
Ġdocu menti
versi tÃł
Ġcaratter is
" ,
T E
c ini
e ti
w are
on y
Ġa de
Ġa zienda
Ġn i
Ġv ostra
Ġcon to
ci c
ĠS ci
Ġde di
ĠA pp
Ġso ciali
cia re
Ġ2 8
ĠB ar
Ġpar lare
Ġfi r
Ġ201 5
Ġ201 9
enta le
Ġcomuni tÃł
Ġdes cri
Ġpicco li
ide a
Ġfos se
indo ws
D i
c esco
m ere
la ti
te go
an de
Ġi denti
Ġf ina
ar ta
Ġri tro
ĠS tati
Ġpro ba
Ġme ta
ĠV e
zz ando
Ġar tico
Ġva rie
Ġto tale
Ġba tter
Ġstra te
Ġpia ce
conom ia
Ġlegg ere
Ġcondi vi
Ġruo lo
Ġfutu ro
m in
m ani
w i
Ġc ro
Ġp elle
ti a
Ġun ico
di tÃł
ĠS ta
sa ti
oni ca
oni sta
Ġre cente
Ġpa ga
Ġinter ess
Ġpen si
Ġconte mpo
Ġracc on
Ġim media
Ġdiffi coltÃł
3 4
E T
e o
r us
t s
Ġ ero
on na
Ġm al
Ġf al
Ġcon c
Ġse gre
zza ta
Ġno te
Ġcre scita
lan d
ĠCon si
Ġos ser
ĠGi u
Ġgius tizia
. )
M A
l d
m io
r ere
an ca
ma g
so le
Ġb elli
Ġpro tag
ĠC re
va te
as so
Ġnel lo
na io
ran do
bb ia
Ġsta mpa
Ġinter venti
fica to
Ġta l
Ġrisp on
ico lo
Ġsco per
Ġfon do
Ġga ra
!! !
Ġpor tare
Ġbiso gna
Ġfe bb
Ġopp ort
ĠPre sidente
Ġvelo ce
ĠInter net
Ġdemo cra
Ġsmart phone
M i
g enze
t ini
Â «
Ġa do
Ġper corso
lo ra
ma il
Ġri ca
Ġri man
ĠC ol
is to
ĠI tali
Ġso la
Ġso ddis
ten za
con do
Ġcor ri
ĠW indows
omen ica
Ġsicu ramente
Ġcapi re
ĠNa poli
Ġpassa to
Ġdeci so
Ġlu glio
Ġevi tare
Ġnecessi tÃł
1 1
d os
e e
e vi
p l
p ar
ti ene
ra io
ra tori
Ġe mo
om ina
Ġri ten
Ġsu pera
Ġpro mo
Ġsi ti
tu ale
Ġse de
ĠM ol
Ġfa tti
Ġcos to
sta lla
Ġco lore
ess ere
Ġgen i
Ġgen naio
Ġen er
Ġconsi gli
Ġbamb ino
ĠFran cesco
Ġimma gini
Ġmondia le
Ġletter a
1 5
1 6
T u
c os
k er
m esso
Ġ usci
re ssi
ta zioni
ra s
an che
Ġf ur
es sione
Ġv anno
lo go
Ġal to
men t
Ġb elle
Ġma gari
Ġte st
ĠF ed
ali si
Ġu tenti
Ġcomp et
Ġsc uola
Ġco lori
tel lo
Ġacc esso
ĠJ o
Ġgu ar
ĠDo po
Ġcolle ga
Ġlavora tori
Ġlin gua
Ġcapa citÃł
Ġcio Ã¨
b ra
l lare
er ti
Ġa tta
Ġb ri
tu r
Ġse gu
Ġre sta
Ġfa tta
Ġfa ccia
tta n
ini zio
Ġgi ro
Ġno tte
Ġris orse
ggia re
cen tra
ĠRe gione
Ġsco prire
Ġcri si
Ġsti le
Ġrisul tato
cipa le
Ġraggiun gere
Ġcaratter i
Ġpreve de
7 0
D a
l ina
Ġd eri
ra i
Ġm u
un ale
si tÃł
Ġv ali
Ġb e
ter a
Ġse zione
Ġte ss
Ġu omo
Ġpri me
Ġno ta
Qu esto
Ġuti le
mina re
Ġstori co
Ġdiven tare
Ġconten uti
Ġasp etti
Ġmet tere
Ġprevi sto
Ġfre qu
Ġpermet te
Ġfas e
Ġprece dente
Ġprovin cia
L L
e conomia
g ente
u mi
Ì Ģ
Ð ¾
in s
in to
in te
Ġi scri
zi on
Ġin nova
Ġcon n
ar te
et tare
Ġri fi
Ġb us
da ta
Ġpre zzi
Ġre ga
is cono
mi co
Ġfa cendo
Ġ2 6
Ġsp ese
tta re
ĠR us
Ġpa zi
are n
Ġimp a
Ġris to
ren di
Ġ201 4
bo li
sid er
tel le
Ġstra ordina
Ġpen sare
Ġen tro
Ġlib ri
Ġsol uzioni
Ġsos titu
Ġcli enti
Ġveri tÃł
Ġmoda litÃł
Ġsette mbre
Ġcel lu
t rÃł
v ar
zi almente
Ġin gre
vi si
ĠC al
sa mente
Ġca mbi
Ġca tego
Ġpo trÃł
Ġvi vere
Ġtu te
Ġmo der
Ġess en
Ġsc ena
Ġpas so
Ġesp erienza
Ġcer ti
Ġpia zza
Ġmis ure
Ġsuper fici
Ġeconom ico
Ġmet ri
Ġgioca tori
Ġprincip ali
Ġness uno
Ġraga zzi
Ġsele ziona
Ġbre ve
Ġquanti tÃł
C H
d do
d ll
l er
Ġa re
ra no
Ġi d
Ġin ca
ca ti
ma mente
gi co
ĠS te
Ġb ella
Ġpro fi
Ġpro ssimo
vi d
sa te
Ġre s
ĠA le
ĠD u
cia zione
tro ppo
du zione
du pl
Ġcons enti
Ġw ww
met ri
Ġcal cio
Ġcontra tto
Ġmili ardi
Ġconos ci
Ġdom anda
Ġcla sse
Ġsan gue
ĠGio v
A M
I L
e dere
f e
i si
k a
m os
n on
r ti
r one
r no
t ing
re bbero
Ġm uo
Ġin ci
Ġg ente
Ġri ma
Ġri ve
Ġb ru
Ġle tto
era zione
eri ca
ĠT os
ru r
Ġav anti
ren ze
tiva mente
Ġacc ompa
Ġrisp osta
der Ãł
Ġpersona li
ĠAl l
Â» ,
ord ine
Ġcomple to
Ġprin cipale
Ġren dere
Ġgiov ane
Ġsemplice mente
menta ri
Ġelet tri
Ġpiatta forma
C A
I I
O M
b ol
c ana
m mo
r ina
en omen
Ġin via
or g
Ġt enta
ar do
Ġri es
Ġpro vo
Ġre si
ĠI s
Ġso le
ĠG ran
tri moni
ĠN i
Ġra ff
Ġme mo
du to
ĠV er
esso re
Ġlavo rare
Ġbi lan
Ġver rÃł
ĠQu ando
Ġcons erva
Ġmod ello
Ġfonda mentale
Ġtecno logia
Ġsce gliere
Ġfebb raio
L o
R e
Ġdi e
Ġe qui
un t
Ġn Ã©
Ġin cre
Ġcon sa
Ġri mane
Ġo ccasione
da le
Ġpre o
Ġre sid
cia to
ga ta
Ġcos tante
are a
Ġinter vento
Ġta r
bo ok
atti vitÃł
Ġsol di
Ġstru mento
Ġesi genze
Ġsvilu pp
Ġspeci e
Ġatten zione
Ġgia r
Ġassolu tamente
Ġdiffici le
Ġeventu ali
P ro
c ine
c ese
g ar
n no
o re
u ale
Ġs cu
Ġs cher
Ġdi menti
Ġe t
Ġf eli
es tre
ca li
gi oni
Ġcom o
Ġle i
Ġda vanti
ĠT ri
Ġcos truzione
Ġpos so
ĠV ia
Ġco per
Ġco loro
Ġno ti
Ġcol lo
glia to
Ġpossi amo
Ġindi ri
Ġel i
Ġsal ute
AN A
Ġgu erra
Ġtras forma
Ġmedi co
Ġeconom ica
ON E
Ġgiu di
Ġren de
Ġsegui re
Ġdocu mento
Ġedi zione
Ġval uta
Ġacquis tare
Ġtempera tura
Ġcin que
Ġriconos ci
Ġpotra nno
S ono
e vento
r la
s en
Ġs che
ra ggio
un ci
Ġf enomen
om et
Ġg as
Ġpre ssione
Ġre li
Ġca mm
era li
Ġso ggetti
Ġ2 1
ĠG er
Ġes tre
ssi me
con tro
Ġmo vimento
Ġu sare
gg ere
Ġfor mu
ven ire
Ġcomp on
Ġimp i
Ġar chi
Ġsa la
Ġdov uto
Ġsca r
Ġmiglio rare
Ġpor tato
Ġpassa re
Ġgu a
Ġer ro
Ġveri fica
ĠUni ti
opera zione
Ġaffron tare
Ġcentra le
Ġeffica ce
trimoni o
2 4
E uro
P a
c y
c ani
d y
d ing
i to
m era
s tro
w n
Ġd omenica
Ġs ale
Ġp es
Ġp is
en dere
Ġdi eta
te si
Ġm esso
om enti
Ġt era
Ġpro veni
Ġcom in
Ġle gi
tti ma
Ġvi ol
Ġes erci
Ġmi ei
Ġpos ti
ero p
Ġsc uole
Ġdis trib
il la
am ing
der si
ĠJ u
Ġalc un
Ġcomple tamente
Ġcri sta
use ppe
Ġloca le
Ġterm ini
Ġop ere
toni o
C om
I S
p ero
t una
v ra
Ġs lo
Ġp onte
re sso
ta ria
li b
Ġv as
Ġv uoi
Ġg lob
do tto
Ġde creto
pp ure
Ġnon chÃ©
Ġpre mi
Ġre lazione
ĠI N
Ġpi ena
Ġvi ve
Ġsp ia
Ġte mi
ĠN ord
Ġris erva
Ġpas se
Ġor dina
tivi tÃł
Ġsco la
Ġitali ane
Ġpoli tico
amo re
Ġsicu ro
Ġprote zione
Ġcu cina
Ġrego la
Ġdimen sioni
Ġraccol ta
Ġmalatti a
ĠConsi glio
/ /
2 5
7 5
O L
a ti
e x
i di
m or
m inistra
p ren
Ð µ
Ġ tante
er to
Ġs om
Ġdi etro
Ġe venti
te d
si gn
Ġf ed
ca ta
ca mente
di te
so li
Ġde vi
Ġle ader
da mento
ĠM an
Ġca ccia
ina re
ran za
ĠB olo
Ġpa gine
gu ra
uni ca
Ġsa bato
cca re
uti li
Ġvo le
ena tore
Ġ19 8
tt p
Ġspe ciale
Ġpersona lizza
Ġfar lo
Ġlib er
Ġregi one
Ġese gui
Ġz u
Ġcomuni cazione
Ġarri vare
Ġanti dupl
Ġincon tri
Ġeffet tu
Do po
Ġov viamente
Ġbatter ia
Ġcontempo ran
A d
A pp
N o
P S
d ano
l in
o biettivo
r y
Ġs chi
Ġm os
Ġi r
Ġin torno
Ġcon vin
qu a
ter i
Ġre p
Ġca mpa
era le
Ġ2 7
mb a
Ġmo tivo
Ġpos t
Ġchi rur
Ġbas ta
sc ono
Ġau ton
Ġsotto line
Ġcomple ssi
Ġprog etti
Ġconsi glio
Ġmedi cina
Ġtito li
Ġperf etta
Ġmas sa
Ġelet tr
Ġmodi fica
Ġconfron ti
ĠTo yo
Ġimpre se
Ġfran cese
Ġobbli ga
Ġmeto do
ĠToyo ta
A L
I T
e vo
g ne
r ci
u ter
Ġd anni
on ti
on do
Ġc ia
Ġs to
Ġa gg
en to
ta na
ra zioni
ia t
es tra
ca l
Ġcon centra
al to
Ġo ri
Ġo ccupa
Ġpro se
Ġde posi
ĠM as
ĠI o
era ta
mi che
cia l
Ġsp esa
du ta
Ġad esso
Ġfor me
ĠV o
gna ti
for me
Ġcol pi
Ġ19 6
Ġpen sato
Ġve de
Ġcomple ta
Ġstru menti
Ġ200 9
ĠGi useppe
Ġpotre bbero
ĠNa tale
Ġnatura le
Ġmateria le
Ġcerca re
Ġaper to
Ġbian co
Ġriso l
Ġconsa pe
G ra
G li
U S
f ondi
m ando
v iamo
z on
Ġ j
Ġ |
Ġs Ã©
ra li
Ġm ino
Ġi eri
ma tica
Ġo vvero
mp re
tu ri
ĠP ia
Ġse pa
ĠI noltre
ona re
ĠD is
ran zia
Ġtu e
Ġte am
ff a
Ġme mb
Ġne go
Ġvol ume
Ġdis tin
esti val
ĠQu esta
Ġinf er
Ġsol tanto
Ġsco po
Ġcapi to
tion al
Ġtras feri
Ġdisposi tivo
Ġconos cere
Ġrisul ta
ĠSu pra
Ġcli ente
Ġluo ghi
Ġsetti mane
Ġparo la
Ġeurope a
Ġmanifesta zione
Ġabbas tanza
Ġmatt ina
Ġcorri spon
. ,
? ?
g s
Ġ /
en sa
en tra
en ne
Ġm etÃł
Ġin dustri
Ġg ro
Ġnon ostante
Ġre sto
Ġca ta
ĠA ma
mi ci
Ġpo tere
Ġvi e
ver no
tan ze
Ġra gione
mb e
ĠO n
Ġdis tanza
cca to
Ġna vi
am bi
Ġcons ente
Ġho tel
Ġz one
Ġdiven ta
Ġprogra mmi
Ġdom ande
Ġassi cu
Ġassi cura
ber to
mon ia
Ġprofessi onale
Ġcap elli
Ġterre no
Ġrapi da
pubbli ca
Ġcaratteris tiche
Ġsuperfici e
: //
A S
H o
k o
p os
p lo
t ner
u d
w a
w ork
Ġ tali
Ġp io
Ġa more
in f
in t
Ġm er
Ġm ette
al er
gi tal
ĠS c
ĠM edi
Ġre cen
mi la
ĠD I
Ġfa m
ano ra
Ġes te
ĠF iat
Ġdo lore
Ġcos ti
Ġme cc
Ġco dice
Ġcor si
Ġter zo
Ġgio care
Ġtro vato
Ġdis cus
ĠPa ese
tel la
Ġspe ciali
Ġesp erti
Ġacqu isi
Ġcan c
Ġrip ro
Ġpartico larmente
Ġfil oso
Ġsuper iore
Ġstan d
Ġinizia tive
Ġfaci li
Ġtele f
Ġdiffer enza
ES E
Ġprece denti
Ġprom uo
Ġgeni tori
b us
e te
i che
l ini
s ando
Ġ ï¿½
er dÃ¬
Ġs ba
Ġa gi
ti s
Ġe labo
Ġcon cor
Ġri torno
va li
ter no
Ġre ali
Ġre ale
ĠA u
era vi
ve di
ona ti
Ġsp er
Ġtu risti
Ġte o
Ġte sto
ente mente
ria mo
Ġdu rata
Ġ201 3
Ġser ve
Ġven dita
Ġrisp ar
Ġforma to
Ġrapp orti
Ġparti ta
Ġpicco la
onta no
imp re
Ġconten uto
Ġele menti
Ġvelo citÃł
ĠEuro pa
Ġuffi ciale
Ġresponsa bilitÃł
Ġtorna re
Ġbelle zza
Ġgiar dino
G u
M ar
O r
R I
c oni
o ccasione
v vi
Ġ enti
Ġc ele
Ġs Ã¬
Ġe cce
an ia
Ġv enti
ar ci
vi sta
Ġsp len
ĠN uo
Ġli sta
Ġli qui
.. ..
Ġ3 5
Ġ201 2
Ġvo ce
Ġman u
Ġman gia
Ġbas sa
Ġpen sa
st ono
Ġ6 0
Ġpoli tiche
Ġstru tture
Ġeff etto
Ġspa zi
Ġstu dia
logi co
Ġmaggio ri
Ġnecessa ria
Ġappro fondi
Ġmassi ma
ĠEuro pe
oo gle
Ġpresta zioni
Ġsinda co
Ġcivi le
Ġnove mbre
% .
1 8
P o
R i
d ri
s ter
v ando
Ð ¸
Ñ Ĥ
er si
er anno
Ġc ur
Ġs et
Ġp an
in Ã²
si o
ca tori
Ġcon du
co le
Ġri pre
Ġo ggetto
ĠS ca
Ġan tici
na le
Ġvi cen
Ġtu ri
ĠG e
ĠT re
Ġes so
Ġfi gli
ĠO r
Ġcre sc
Ġtro vano
Ġdire zione
Ġsotto scri
Ġstu di
Ġrip orta
Ġesi ste
ĠMo dure
ĠSu d
Ġrealizza to
ĠFran cia
Ġgru ppi
Ġtecni che
Ġann uncia
ĠFi renze
Ġpreno ta
Ġden tro
Ġorig inale
Ġada tto
Ġridu rre
dustri a
Ġcine ma
Ġdedi cato
Euro pa
Ġcia sc
ĠModure tic
V I
b y
y a
Ġ :
Ġ =
Ġ x
Ġd ena
Ġs ali
Ġp si
ri care
Ġm ono
Ġm eravi
an ce
Ġla to
Ġcon cer
Ġg usto
men tali
Ġl Ã¬
ĠM is
Ġca lo
Ġte a
ĠG ia
Ġpar tner
ĠF erra
tori ale
Ġmo tivi
Ġess endo
tru ttura
Ġacc ordo
ĠAn dre
Ġesp eri
Ġparti to
man ia
Ġchia ro
Ġpassa ggio
Ġfun zione
imp or
Ġfami glie
unta mento
Ġvera mente
Ġsci enti
Ġcontrib uto
Ġmessa ggio
Ġsele zione
Ġgaranti re
Ġmeri to
Ġoffer te
Ġmacch ina
Ġproba bilmente
ĠVe glia
Ġpensi ero
Ġmemo ria
G i
a ria
b al
g enti
t one
y s
Ñ Ģ
on g
Ġs ani
re mo
la u
Ġm or
Ġin se
Ġin gle
Ġla r
Ġg ri
ar lo
ci pi
di zione
et tato
Ġri co
sa zione
tti va
ĠA ir
Ġpi ani
ini zia
ali tÃł
Ġpa ce
Ġne ga
Ġapp unto
Ġva canza
gna re
Ġparte cip
am bito
ĠAn tonio
Ġini zio
Ġel etto
Ġ200 0
Ġcan di
Ġsti mo
Ġdeci sione
Ġcondi zione
ĠSo ci
Ġdim in
Ġdif esa
Ġgratui to
Ġur b
Ġcredi to
Ġni ente
Ġpaga mento
ĠGiov anni
Ġsplen di
Ġdena ro
1 4
T ra
Ġ om
Ġp anora
re sta
in contro
la te
li co
Ġm m
an ne
Ġdel i
Ġf ru
Ġf res
Ġcon ven
ar to
Ġo cchi
Ġb el
Ġb or
Ġpro vato
Ġpro ssimi
Ġan a
gli or
as se
ĠM assi
Ġpre val
ĠA m
ĠG o
us cita
ĠF onda
ĠN ella
Ġu so
Ġme dio
me a
Ġcomp uter
ĠV ene
zz ano
Ġdu bbi
Ġar ticolo
ba tti
Ġpoi chÃ©
gn ia
st ere
Ġsotto p
Ġsiste mi
Ġconsi glia
Ġpartico lari
ĠPi etro
ĠPo i
Ġfe de
Ġasp etto
Ġmod elli
Ġtecni co
Ġclassi fica
19 34
Ġcultura le
ĠNe w
ft ware
Ġmanten ere
ĠTor ino
Ġrecu pera
ĠInf atti
Ġsoddis fa
Ġfur ono
Ġare e
Ġdie ci
Ġeffettu are
Ġcampa gna
Gra zie
1 3
C a
I F
g ro
h at
m one
o ol
s h
t ine
Ð °
Ġs for
Ġa cce
re i
in da
en da
en zia
ra te
li are
un ti
Ġt uoi
Ġde sider
ĠC am
Ġse mi
Ġpre feri
tti vo
ĠL omb
de si
mi tÃł
ĠD el
cia mo
eri cor
Ġvi sione
Ġvi lla
ĠG en
ĠB re
ĠB or
Ġci c
Ġcos ta
Ġad d
Ġad di
sti ci
Ġpri vati
Ġimp ossi
Ġsc om
Ġinter a
Ġinter esse
Ġgra vi
Ġno to
Ġvol onta
Ġcre do
ren ti
vol ta
Ġpas sione
Ġpossi bili
ĠAn dro
Ġlib era
titu zione
Ġcapi tale
Ġcri sti
it h
ut h
Ġassi stenza
Ġrealizza re
Ġasp etta
ĠCas tel
Ġag osto
ĠMon ti
Ġconfron to
Ġorig ina
Ġcostr uire
Ġpartecipa zione
Ġulter iori
Ġartico li
Ġcambi o
Ġscher mo
Ġgua da
Ġzu cch
) :
8 0
F i
T a
a per
e pi
o p
s hi
t ron
Ġd ra
Ġd anno
in dustria
Ġdi rig
Ġe vento
Ġn omi
Ġin tra
or ganizza
Ġt ren
Ġb al
Ġb ello
vi de
tu s
tto ria
pp io
Ġca rico
na li
Ġpi eno
Ġsta re
Ġvi r
Ġtu r
ĠG re
ĠT h
Ġes sa
Ġu mana
Ġpu re
Ġfor ze
Ġfor tuna
Ġco ppia
Ġinter pre
Ġapp are
Ġno vitÃł
uni co
Ġchi ed
ĠO ltre
Qu esta
ren te
Ġpas si
Ġven erdÃ¬
Ġacc or
Ġdire tta
Ġfar ma
Ġcar te
Ġlun ga
AN O
ĠMar ina
Ġarri va
Ġave vano
Ġutilizza to
Ġnumero si
ffici ente
Ġpren de
Ġscel te
Ġgenera zione
Ġtutta via
Ġincon tro
Ġinterna zionali
Ġtecni ca
Ġgover na
Ġforni re
acc ordo
Ġrice v
Ġsfi da
Ġacco unt
Ġspecia lizza
ĠRus sia
Ġries ce
Ġbilan cio
Ġpreo ccupa
Ġfenomen o
Ġconsape vole
ambi ente
ericor dia
E D
P re
i sola
n io
v eri
Ġd ina
Ġp al
in ess
ri ttura
li ce
un d
or ld
Ġv io
Ġv orre
Ġla bo
Ġcon ver
ma tico
gi e
ĠS tu
ol li
va zione
gli are
da te
Ġre spi
ni co
Ġtra ccia
ĠâĢ ¦
tta via
ver Ãł
ĠG oogle
ĠB al
ĠF er
Ġmo tore
Ġu sato
Ġcomp osto
ĠMa ria
ĠMa tte
Ġ3 1
Ġna zionali
il l
Ġver de
Ġor gani
forma zione
ĠCa la
ĠSe condo
esta te
Ġdiver ti
Ġdov rÃł
Ġten uto
Ġben i
mar si
Ġmedi ante
ho tel
cri zione
Ġmateria li
ĠTu tto
Ġconte sto
ventu s
bietti vi
Ġotti mi
Ġsf rutta
Ġtran qu
Ġblo g
Ġcampi onato
Ġas col
CH I
ĠAma zon
Ġstand ard
impre sa
inizia tiva
S O
f era
f rica
g an
o ro
p etto
v ante
Â ´
Ñ ģ
Ġs on
en se
Ġe vol
Ġm ina
or tare
Ġf esta
Ġper cor
Ġcon fi
Ġo ggetti
ĠS h
ĠS k
ĠS tra
Ġpro sp
Ġde sign
ĠC olo
sa ta
va mo
Ġle ggi
vo lo
is si
is simo
Ġpi edi
Ġ2 9
Ġsp ort
ĠR is
tri ci
Ġme zzi
sti che
ĠV a
Ġav rÃł
Ġco ok
Ġco ordina
Ġfi glio
Ġchi esto
Ġcre ato
ren do
tru zioni
Ġor dine
tt rina
Ġstra de
met tere
Ġpia cere
inter vento
ĠGi or
logi e
Ġ8 0
Ġrichi este
Ġave vo
Ġdisposi tivi
Ġconos cenza
ĠPo li
Ġfe mm
Ġsare bbero
Ġrealizza zione
Ġriguar do
Ġfer ro
Ġprofessi onisti
ww w
Ġide e
Ġospi ti
Ġsupp orto
auto re
Ġtecnologi e
Ġquad ro
Ġener ge
Ġusci re
Ġingre di
utili zzo
ĠAndro id
C O
a tta
b ia
c le
d oni
i mma
l ino
o li
p ort
Ġ ?
on us
Ġp om
Ġa ma
in n
ti to
la zzo
li zione
Ġm ente
Ġn omina
si vo
Ġin tro
or tato
Ġcon ce
Ġcon tiene
Ġqu arti
Ġde sidera
Ġle ttura
gli ono
ch a
tto sto
vo la
Ġpo che
ĠD E
ĠD al
Ġvi ce
ĠG ro
Ġes tra
Ġpa d
Ġpa io
Ġpa ura
ĠE di
ĠE mi
ani tÃł
mb or
Ġimp edi
Ġinter no
Ġfi du
Ġapp rezza
for te
ing ra
Ġ3 6
ed Ã¬
Ġinf lu
Ġesp ri
sia mo
Ġpubbli cato
ĠJ a
mina zione
lica zione
Ġave te
Ġmin erali
Ġliv elli
Ġinizia to
Ġnatura li
Ġsoli to
Ġgesti re
gh t
Ġtecni ci
Ġqualc uno
An che
Ġpreno tazione
Ġpopo lare
Ġinten de
posi zione
Ġdimen sione
Ġdol lari
ĠSer vi
Ġimmedia tamente
Ġopport unitÃł
ĠJo h
Ġcatego ria
Ġtute la
Ġpremi er
Ġpasse gg
S I
c ante
c anze
g us
i mento
m ini
p rin
s ero
Ġ yo
Ġd Ãł
on ia
Ġs ho
la ple
Ġdi v
Ġdi se
Ġm omenti
un g
Ġf l
Ġcon cre
os s
Ġg re
Ġal ti
ci lia
Ġqu ei
Ġo biettivo
ere mo
Ġsu d
ol le
Ġcom mis
Ġcom unale
ter ra
ter anno
ĠP as
as h
Ġpre so
Ġso ff
Ġso ggetto
Ġso vra
ran d
Ġfa ttura
ga ti
Ġdo ver
ĠN et
Ġpa gare
Ġmi cro
ĠE d
ĠE x
go lo
Ġu mano
ĠV in
Ġgra ssi
ĠIn terna
Ġchi edere
Ġter za
Qu ando
Ġris chi
Ġbi gli
ĠPa olo
Ġinf ine
Ġbas so
Ġdiver so
Ġro man
Ġau mento
Ġten ere
Ġdes tra
Ġvisi tare
Ġcas e
Ġcas inÃ²
Ġsvilu ppa
ER I
Ġ9 0
Ġspeci fico
Ġecc essi
Ġincon tra
Ġann unci
Ġgioca tore
Ġex tra
Ġproce dure
Ġmini mo
Ġcommer ciali
Ġaffer ma
Ġconsegu enza
Ġrecu pero
Ġminis tro
ĠCen tro
Ġrispon dere
Ġreli gi
ĠGer mania
laple x
4 0
8 8
A h
C AR
R L
S a
e w
s or
er s
Ġc m
re o
en d
la mento
te gno
un zione
Ġin da
Ġin stalla
es Ã¹
Ġg ol
di re
di to
ĠS P
ĠS ch
ĠS iamo
ĠS anta
tu tto
mo bili
ĠP aler
Ġpre sti
fi e
Ġfa ccio
zza ti
ul lo
Ġmi glior
Ġra cco
Ġpos ta
Ġsul lo
Ġad ulti
Ġav via
Ġai uto
Ġchi esa
Ġta ble
Ġcre azione
um u
cor d
ĠPa ri
ĠQu esti
Ġpubbli ci
hia ccio
Ġw ith
met ro
ĠK i
Ġsos tegno
Ġcir con
ĠMar co
guar do
Ġpicco le
Ġprin cipi
Ġdisposi zioni
Ġspeci fiche
Ġmet ter
Ġpe ggio
Ġfaci lmente
Ġulti me
Ġvin ci
ĠZ a
Ġrego le
Ġperf etto
Ġnorma le
Ġpopo lazione
Ġada tta
Ġnas ce
Ġpur troppo
Ġassocia zioni
Ġpote te
Ġatte sa
Ġanima li
Ġalterna tiva
Ġpiu ttosto
ĠPri ma
Ġsimi li
Ġpromo zione
Ġrifi uti
Ġglob ale
Ġrecen sioni
Ġmangia re
ĠSoci etÃł
ĠFonda zione
Ġfidu cia
A G
L i
Z A
g ri
k et
m s
m meno
r ne
s ca
u e
u sione
v es
Ã ¡
Ġ +
on al
en de
Ġe tÃł
an t
an zi
an alisi
Ġdel e
es tero
Ġla va
Ġla tte
Ġcon soli
ar co
do tta
Ġo biettivi
Ġsu b
vi menti
bi o
che zza
pp one
ĠM c
po ca
ĠF estival
Ġpa to
Ġpa cche
Ġu mi
du ra
Ġimp rendi
Ġinter net
Ġar g
Ġna to
lan te
lan da
Ġvo gliono
Ġprima vera
Ġabb and
gn uno
Ġmiglio ra
Ġpoli tici
Ġparti te
Ġcir c
Ġel en
Ġmar chio
!! !!
Ġtor n
Ġspeci fica
Ġcara ttere
ĠGa ranzia
Ġconta tto
Ġricor do
Ġcontinu are
Ġscon fi
Ġtele visi
sci u
Ġcompa gnia
ĠLu ca
Ġapplica zioni
Ġprovin ciale
Ġtrasp orto
Ġsugg eri
Ġvanta ggio
Ġinteress ante
Ġdemocra zia
Ġpazi enti
Ġpom eri
ĠJoh n
ĠPaler mo
Ġtable t
2 1
3 6
7 00
M B
N O
V i
a ttu
c ome
e zione
f ra
f are
g y
m essa
u ma
Ġd et
on tan
Ġs ve
Ġs orta
Ġa ere
in ta
en er
ri ch
Ġe pi
le tti
Ġn ero
Ġal tra
Ġri go
Ġo cc
Ġl ontano
gi mento
ĠS pe
Ġsi ete
Ġde vo
Ġse colo
as cia
ĠA t
Ġpi ante
ona litÃł
ĠD ani
ten e
Ġtra ffi
ĠâĢ Ķ
ĠB e
tori e
ĠE li
Ġu mani
pi to
Ġprop osta
Ġapp assi
Ġno tizia
ĠMa c
Ġvol uto
ss and
Ġ5 00
ĠQu indi
Ġman ca
ĠCom missione
Ġquesti oni
Ġsin to
Ġprog ressi
Ġini zi
Ġ200 7
Ġpotre te
Ġsti amo
Ġcontra rio
ĠLo ren
Ġeconom ici
Ġeconom iche
Ġopera zioni
Ġass um
sten te
ĠSu per
Ġaggiun gere
car pe
Ġtele com
Ġlimi ti
Ġcambia re
Ġquo ta
Ġden uncia
Ġconsidera zione
Ġban ca
Ġaper ta
Ġness una
Ġdipen denti
Ġcomporta mento
Ġconsu ma
Ġatto rno
Ġquotidi ana
Ġfina litÃł
Ġosser va
Ġpis cina
erop orto
Ġdiscus sione
Ġmanu tenzione
Ġesperi enze
Ġaddi rittura
ĠMatte o
Ġtraffi co
A C
A sso
G I
N a
S u
U I
a tto
b ina
c tion
d el
d etto
e ff
f ri
g ene
p la
r li
s che
v el
in nova
en si
la zioni
Ġdi mag
Ġm oni
Ġin de
Ġin du
Ġv ale
Ġv esti
Ġper icolo
lo ad
men tato
Ġri pa
ĠS y
ĠS anto
ĠS olo
bi tro
ĠP e
ĠP et
Ġse gno
ĠM er
Ġca mera
era to
Ġpi et
Ġso ftware
cia lmente
Ġfa ce
Ġfa tica
ĠG esÃ¹
ĠT ur
ĠB ra
ul to
ĠF ontana
Ġpa dre
mb le
Ġne mmeno
ven uto
lu b
Ġquel l
Ġapp ar
Ġai utare
Ġchi ede
ĠO ggi
Ġba si
Ġ4 2
Ġvo glio
Ġven to
Ġste sse
Ġvia ggia
Ġman canza
Ġpun ta
Ġlib ero
Ġsca la
ĠK o
Ġcontro lla
Ġarri cchi
Ġcri tica
Ġscri ve
Ġmaggio ranza
gen zia
ccu p
Ġevi dente
Ġval go
app licazione
acqu isto
Ġsignifica to
Ġdefini tiva
Ġide ale
Ġotti ma
Ġotti mo
Ġprincip almente
Ġsquad re
Ġarti sti
Ġtempera ture
Ġattu almente
Ġpuli zia
Uni one
Ġester ni
Ġameri cani
Ġdedica ta
Ġrila scia
Ġprotag onista
Ġproveni enti
Ġslo t
lib rio
ministra zione
Ġcontemporan ea
Ġimpossi bile
organizza zione
ĠCala b
Ġfemm ini
3 5
P i
b ro
g endo
g ante
p rio
r Ã²
on tÃł
Ġa zione
Ġa bbi
ta s
ta gna
Ġdi so
Ġdi sta
ri era
el et
Ġm Ah
Ġi spi
Ġper i
Ġper cen
Ġper man
Ġla sci
Ġal lu
Ġt v
Ġil lu
Ġri entra
ere bbe
Ġb ordo
Ġpro ssima
Ġsi mbo
va cy
Ġma gi
ĠD ia
ran to
Ġsp eri
Ġtra du
tta to
ĠT erra
ĠB ri
us ura
ĠF in
ssi oni
Ġmo to
Ġu gu
Ġfor ti
Ġprop one
ziona to
Ġsa telli
for t
Ġdis cip
ppo si
res sa
Ġdire ttore
Ġcons enso
ffer ta
ĠW est
In ter
Ġric os
at tenzione
Ġcer ta
mina to
inter a
Ġbu oni
Ġchia ve
ĠDe mo
Ġlun ghe
Ġz ero
cchi ere
Ġrichi ede
Ġporta ta
Ġcorpo reo
Ġrela tivi
Ġdiffer enti
Ġvos tri
Ġutili zzo
Ġrice vere
Ġge o
Ġfisi co
ĠCos tituzione
oo d
ĠQ ui
Ġistitu zioni
arta mento
Ġscoper ta
Ġfeli ce
Ġingle se
Ġcook ie
Ġingredi enti
1 7
4 4
9 9
B I
N A
f re
f osi
g el
g al
g et
m esse
s ho
u a
Ġd ar
Ġd ando
Ġs ess
Ġa ge
ta lmente
te o
Ġm use
Ġin n
âĢ ĵ
Ġo lio
Ġl Ãł
ĠS tre
Ġb onus
vi le
ĠC ro
ĠC ha
va rio
ce si
Ġse gue
ĠM al
ĠM use
Ġca tto
Ġca ff
ĠL ond
Ġso ggior
Ġsp ie
Ġsp osta
ĠB r
ĠB ran
Ġpar che
Ġes si
ĠF re
Ġdo bbiamo
Ġpa le
Ġmi la
ĠE cco
zz ar
Ġav anza
etti va
Ġti ro
Ġar re
Ġmol ta
ĠMa ri
ĠMa dia
Ġris chia
Ġ4 5
ĠPa esi
Ġacc etta
ĠAn n
Ġdire tto
Ġro sso
Ġve ge
Ġposs esso
Ġmis ericordia
Ġlun edÃ¬
Ġcal do
alizza re
Ġr us
Ġrela tive
Ġaggiun to
201 3
Ġlascia re
Ġdefini zione
Ġracc onta
Ġconfer ma
Ġlin k
Ġcapa ce
Ġpron to
Ar bitro
Ġridu zione
ang elo
Ġpote va
Ġsera ta
Ġtradi zionali
Uni versitÃł
Ġdetta gli
ĠGra zie
Ġvisita tori
Ġacca de
Ġspi rito
Ġvanta ggi
Ġpresen tato
Ġamp ia
Ġade gua
asso ciazione
ras tru
Ġtenta tivo
Ġarchi te
Ġliber tÃł
Ġinfer iore
Ġpartecip anti
Ġacce dere
% ).
2 2
4 8
B o
O n
P B
V E
n do
p on
s co
s tare
t ch
u tente
Ġe cco
an k
si as
Ġin ver
es erci
Ġv et
Ġper tanto
Ġper messo
Ġcon d
om ia
do va
Ġri ti
Ġri uni
Ġo li
Ġsu gli
ĠS to
ĠS am
ĠC A
ĠC an
va le
Ġcom ba
ch iamo
ĠM inis
Ġre so
Ġca mere
is s
is ti
is te
tti ve
Ġpi ane
Ġso gno
Ġci bo
Ġpar lando
Ġalla r
ani ma
Ġav versa
tali tÃł
Ġgra di
Ġgra ve
Ġdu ra
gna ta
ĠO gni
ĠMa d
Ġba gno
Ġven ire
ĠPer chÃ©
Ġvia ggi
Ġcons en
ĠCom o
ĠCom uni
Ġfar si
Ġdiver sa
Ġcen tri
Ġcer cando
Ġsol le
Ġpoli zia
Ġchia ma
logi ca
Ġdeci dere
Ġconsi gliere
Ġesi stono
Ġass ume
Ġgius ta
Ġscel to
Ġfre ddo
Ġevi den
ĠFran co
Ġecc esso
Ġuni tÃł
Ġaggiun ge
Ġfuo co
Ġraggiun to
Ġop zioni
Ġcambia to
Ġami co
ĠSp ort
Ġentra mbi
Ġsor pre
Ġcompre so
Ġdichia rato
Ġresponsa bile
Ġinseri re
ĠII I
Ġrifle ssione
Ġpotra i
Ġesclusi vamente
anis mo
Ġsimi le
ĠVal en
Ġtess uto
Ġimpi anti
Ġtera pia
Ġir ri
cole dÃ¬
Ġcresc ere
Ġtea tro
ool rich
Ġdesider io
2 6
B a
F O
M I
d or
d ando
g on
r le
s ano
u di
v elo
Ġ >
Ġs telle
Ġa vendo
in ci
la ter
ri etÃł
le t
Ġm one
un cio
Ġi po
Ġin com
Ġin dos
ia o
Ġper so
Ġg all
ĠC osa
ĠP C
ĠP ER
ĠP RO
Ġca ro
is co
ĠA i
era re
ve dÃ¬
ina ri
Ġsta r
Ġsp ing
ĠT ro
ĠT osi
ĠB as
ĠB us
Ġpar lato
ĠF ra
Ġmo bili
du ca
ven zione
Ġco pia
Ġgra du
fica ta
Ġapp osi
ĠU sa
ĠO laplex
Ġter zi
gra fico
gra fia
Ġvol ontÃł
Ġpres to
Ġba ttu
ĠH i
enta mento
ge gn
Ġven i
Ġacc essi
Ġacc umu
Ġindi etro
ĠW i
Ġau dio
Ġau mentare
Ġve icolo
Ġalc una
inter o
Ġchia mato
Ġnum er
... ]
Ġscri vere
Ġutilizza ti
Ġsempli ci
Ġoff rire
Ġfre e
Ġconta tti
ĠFa ce
ĠRo berto
Ġline e
Ġfonda mentali
Ġsitua zioni
ĠTu tti
ĠTu ttavia
Ġcollabo ra
Ġlascia to
Ġide a
Ġpreci pi
Ġprincip io
IN A
Ġness un
Ġstre aming
Ġconclu de
ĠHo tel
Ġfisi ca
Ġus cita
Ġ[ ...]
Ġspetta colo
Ġtesti moni
ĠItali ano
ĠAle ssand
Ġerro ri
wn load
Ġviol enza
ĠEurope a
Ġmeravi gli
ĠCastel lano
Ġpomeri ggio
ĠLoren zo
Ġmoni to
ĠLond ra
' s
C osa
U M
V A
a gue
m al
o d
o fferta
p ol
p ria
p osto
r vi
s la
Ġd ose
in stalla
en ce
en ziale
ta rie
ti amo
la ck
Ġdi batti
Ġm ul
Ġm ana
Ġm essi
Ġm etro
an f
Ġin si
Ġf ri
Ġv uo
Ġt h
Ġri m
Ġo gnuno
vi so
Ġde cora
ĠC orte
tu dine
Ġle gno
Ġan alisi
ĠP d
ĠP la
da li
ĠM en
Ġpre di
Ġpre venti
vo cato
Ġre ddi
Ġca ritÃł
ni ce
Ġpi ede
Ġso cial
Ġvi gi
Ġte des
ĠT ea
Ġpar tenza
Ġdo ppia
Ġmi lle
ĠV en
ĠV ol
Ġimp ro
Ġimp os
Ġinter essi
Ġprop oste
Ġfi lo
Ġfi gura
Ġti fosi
Ġva canze
Ġchi u
Ġ3 00
Ġgio i
gra fica
Ġta tua
Ġto talmente
Ġtro vi
ren za
Ġ201 0
Ġdis co
Ġabb ond
Ġgen er
ena to
ĠQu al
Ġcons er
lizza zione
Ġpersona ggi
Ġdiver tente
Ġcar cere
ĠDi gital
Ġen cic
st ino
ggia mento
Ġcer tamente
ĠRe gi
Ġposs ano
Ġvis s
Ġvis u
Ġcomple sso
Ġcontro llare
Ġprof ondi
Ġ7 0
Ġcal cia
Ġsti li
Ġprodu ttori
Ġnuova mente
Ġaltre ttan
lari tÃł
Ġr ingra
ĠSo uth
Ġprevi sti
Ġrela tiva
201 0
Ġvari etÃł
Ġclassi co
Ġsenti re
Ġproc essi
Ġutili zzando
Ġentra re
Ġspiega to
Ġprepa razione
ĠCos Ã¬
Ġriusci to
Ġmaggior mente
Ġnu tri
Ġconsegu enze
Ġinvesti menti
Ġstrate gia
Ġprotag onisti
Ġstraordina ria
Ġessen ziale
ĠAll enatore
Ġnoti zie
Ġeli minare
Ġformu la
Ġcompon ente
ĠJu ventus
ĠPia zza
Ġrapida mente
Ġpromuo vere
Mar catori
Ġvilla ggio
Ġdiso ccupa
Ġsoggior no
rastru tture
2 8
6 0
D I
N ella
P E
P I
P ri
d one
d esco
f r
m me
n ero
p s
v ang
Ġd anne
Ġs inistra
Ġp ul
Ġp ane
Ġa sciu
re te
Ġdi vario
zi oso
si le
Ġin na
or mente
ca zioni
Ġcon qu
qu o
ar dia
ci di
ci Ã²
Ġri cco
Ġsu bi
Ġsi len
vi e
Ġse qu
as ci
Ġpre fer
Ġre cord
Ġca val
ni tÃł
is tica
ve dere
ĠD on
sp ensa
Ġdal lo
Ġsta zione
Ġte desco
ĠG ull
ĠB en
ĠF il
Ġmi x
Ġcos tru
ĠE ss
ru cci
sti tui
Ġcomp eti
Ġav ver
Ġapp untamento
Ġno tare
Ġchi lo
Ġter res
gno lo
ĠH ar
Ġven ne
Ġ19 7
ĠAl la
Ġve cchio
ggia ta
Ġregi sta
Ġfra se
Ġsal va
Ġcan z
Ġrip ren
Ġrip arti
Ġrichi esto
Ġfun zioni
Ġutilizza ta
Ġdom ani
Ġstan za
Ġtito lare
Ġinizia re
Ġgiorna te
Ġconta tta
ĠRo ck
Ġecc ell
ĠLi ve
Ġterri tori
acc esso
Ġeurope i
Ġmini ma
Ġsuccessi vo
Ġavvi ene
Ġsingo lo
Ġpartecipa re
Ġsosten i
Ġester no
Ġinteress anti
Ġriman ere
ĠTos ini
Ġraff or
Ġgiudi zio
Ġelettr oni
Ġmecc ani
aper tura
Ġtelecom ando
4 5
C he
C hi
D R
O C
P U
S ense
b lio
d etta
h ttp
i denti
r mi
r ini
on go
Ġc usto
Ġp ista
Ġa rea
la vo
li amo
te ca
an co
Ġin c
ia mma
or no
or mi
or me
Ġf iori
Ġun ica
Ġv or
Ġper ico
om anda
Ġg am
di bile
Ġri e
Ġri chia
Ġri fer
Ġsu cce
Ġb ro
ol ini
sa le
tu to
Ġcom bina
as sa
Ġma trimonio
ĠI mp
tti mo
ĠA li
Ġso ffer
Ġvi ttoria
Ġtra ding
ĠG ri
ine a
Ġdo ppio
Ġpa trimonio
Ġlo tta
Ġcos tre
Ġu cci
gu razione
ĠLa zio
Ġchi mica
anti eri
um anitÃł
vol mente
Ġver ranno
ĠPa dova
Ġrisp oste
Ġesp osi
ĠW orld
Ġpen so
gn ini
ĠJ e
inis ce
ggia to
Ġregi stro
Ġos ta
Ġatti vo
Ġparti ti
vere te
Ġsos tanza
Ġtan ta
Ġcomuni cato
AN TI
Ġcontin ui
Ġsuper iori
ĠCi Ã²
Ġprevi sta
Ġdisponi bilitÃł
Ġvin to
Ġdigi tali
Ġdiffer enzia
Ġmas chi
Ġcambia mento
Ġpreci sione
Ġcostitu isce
Ġconsidera to
Ġban di
Ġaffi da
Ġcompre sa
Ġcine mato
Ġdimostra to
Ġpresen tare
Ġfir ma
Ġraccon to
Ġemo zioni
Ġcompet enze
Ġbri tan
Ġmu co
Ġbus iness
Ġristo ranti
ĠBolo gna
Ġmemb ri
Ġmer coledÃ¬
ĠTre vi
Ġannuncia to
Ġpsi co
atta cco
imma gine
ĠVin cen
2 3
2 7
2 9
A m
D is
I o
T i
T he
T TI
a de
b ona
b are
c la
c tor
d ge
s ante
u tato
v viamente
ð Ł
Ġ âĢĻ
Ġd ri
Ġc ane
Ġs cio
Ġp rio
Ġp all
Ġa b
Ġa ggi
Ġa ssa
Ġa mpio
re na
in segna
en t
ri mento
Ġin va
Ġf eri
Ġcon i
Ġg us
Ġg ene
Ġil le
ar ma
ar chi
ci one
al lu
et tera
et Sense
Ġri gi
Ġo ut
za re
Ġsu fficiente
ĠS co
Ġb y
Ġpro vare
vi v
tu sias
Ġcom menti
Ġda te
Ġse mb
as t
pp ort
ĠM il
Ġca ri
Ġca rica
Ġh ttp
ĠL in
ona mento
ran cione
Ġfa si
zza te
eri co
ĠG I
ĠG PS
ĠT V
ĠB ene
ĠR ai
ĠE le
mb olo
ru ppo
Ġme desi
du ti
zia to
Ġli cenza
Ġall ena
Ġcomp rare
zz era
Ġco sid
Ġgra tis
Ġar ro
Ġchi usura
ne i
ĠMa rio
Ġris truttura
Ġcol tiva
zio si
Ġat trib
Ġat mos
pe dale
vol uzione
ĠPa pa
ĠPa lazzo
Ġrisp etti
Ġindi spensa
osa mente
ie go
Ġpubbli che
Ġro sa
Ġric er
Ġaltri menti
Ġw ork
Ġdov rebbero
Ġsca ricare
mina ta
gui re
ĠRe pubblica
ĠMi cro
Ġprof u
Ġcir co
Ġ200 6
ĠDe ca
Ġben issimo
elle s
cchi e
Ġpor ti
Ġcan ali
Ġfin almente
Ġprodu rre
Ġrichi ed
Ġopera tivo
âĢ¦ .
Ġgiu ri
Ġrealizza ta
ĠDo ttrina
Ġprevi ste
Ġcli ma
Ġnecessa rie
pu li
esco vo
Ġnor me
Ġlega ti
Ġpresenta zione
Ġcorre ttamente
Ġag enti
ĠFi li
Ġorganizza zioni
stitu to
Ġcompa gni
Ġcultura li
Ġrivol uzione
Ġeurope o
Ġeffetti vamente
Ġimpe gno
ĠTe ch
bri zio
Ġcommer cio
Ġfunziona litÃł
Ġcompi to
Ġlan cia
Ġulter iore
ĠFo to
Ġspor tiva
Ġameri cano
Ġfanta sia
Ġavven ire
Ġimm er
Ġcondivi dere
Ġguar da
Ð¾ Ð
Ġsvilupp are
Ġcoper tura
Ġvaluta zione
Ġestre mamente
Ðµ Ð
shi p
Ġconsapevole zza
ĠSk y
Ġpassegg eri
Asso ciazione
innova zione
ĠCalab ria
Ġfemmini le
ĠBran den
D e
S S
a te
b ur
c li
c ler
d enze
f ano
s tre
w e
Ġ Ã©
Ġd ona
Ġs tero
Ġs guardo
Ġp uo
Ġp orto
re ssione
ta ni
li ano
li evo
le s
Ġm q
Ġi mb
Ġi sole
Ġv ul
Ġper for
Ġper dite
Ġcon gi
ci to
ci ano
âĢĻ ,
Ġqu arto
Ġo per
Ġo cci
Ġl um
ĠS vi
ĠS ony
ol ino
vi sione
ĠP orto
pp iamo
Ġpre mia
Ġre ti
ĠI L
Ġpo e
ĠD y
ĠD am
ĠD LL
ten sione
ĠT el
ĠT oso
po re
Ġpar co
ĠR es
ĠR os
ĠN ort
ĠN ell
Ġpa esa
Ġmi e
ĠE l
pa re
pa ti
du cazione
pi e
Ġimp er
Ġimp iega
Ġco raggio
Ġchi unque
ĠO s
Ġter rÃł
tica mente
glia te
Ġta glio
Ġta ppe
Ġsuo lo
Ġqual unque
ĠPer rucci
Ġesp lo
lizza re
Ġcar ne
Ġcar riera
ĠLe i
In f
ĠSi cilia
Ġdov ranno
Ġcen tina
inter esse
Ġatti vi
Ġacqu e
Ġmis sione
Ġstori e
pre ssione
Ġben essere
Ġstu denti
ĠPro f
imp e
ll er
Ġoff rono
Ġspeci fici
ĠSa la
Ġrela tivo
ĠLi b
Ġ15 0
Ġvin cere
Ġlega le
Ġlimi tato
Ġpermet tono
Ġfavo rire
Ġsvol gere
Ġambi to
Ġbo cca
Ġpreno tare
Ġcitta dino
Ġfis cale
Ġstre tto
Ġsuccessi vamente
Ġtrasp aren
Ġdipen de
lus tra
Ġamministra zione
des tra
Ġsugg er
Ġvoglia mo
Ġcompren dere
Ġeffettua to
Ġconc etto
Ġsola mente
ĠTos cana
Ġconserva zione
Ġerro re
Ġelettr onica
Ġnego zi
Ġpio ggia
Ġcanc ella
Ġstudia re
Ġvicen da
impor tanza
Ġcandi dati
ĠMassi roni
ĠVene to
Ġdubbi o
ĠMarina i
ĠPari si
Ġpercen tuale
Ġnumer ose
% ,
1 00
3 3
9 0
A lla
C o
C ON
E sp
O ra
b as
d in
e mer
e poca
g ando
i ormente
j os
l un
m anti
o ri
o rig
p eri
s Ã¬
u ol
v ini
er re
er lo
Ġs b
Ġp ena
Ġp alla
Ġdi tta
Ġe mor
ro la
Ġin segna
Ġdel ica
or n
or si
Ġf r
Ġf an
es tro
Ġla ure
Ġal ber
ar da
Ġri b
Ġri lan
so ft
Ġsi mpa
Ġsi mbolo
vi ene
ĠC ON
mo si
gli anza
ter iore
ĠP os
ĠP onte
as tia
pp on
is mo
Ġma dre
ĠA g
ĠA bbiamo
era i
era ti
ĠL is
ĠL ui
ona ta
Ġvi vo
Ġtra tti
ĠB el
ine com
ul sione
ĠR om
ĠR ossi
Ġdo centi
Ġmi glia
ĠE ra
Ġra gioni
Ġmo bile
Ġfor no
Ġpri vato
Ġess erci
Ġco lo
Ġco ttura
Ġgra no
ziona re
ziona ta
Ġapp o
ĠO ra
Ġcre ma
Ġtro verete
Ġat le
Ġat tre
Ġdis tru
Ġdis tur
bo le
Ġna ta
Ġna tali
il li
Ġvo ci
ur troppo
Ġ5 5
Ġinf iamma
ĠCon f
gn ano
Ġdov uta
at mos
Ġcen to
Ġtratta to
Ġsen sazione
Ġregi me
Ġpia tto
Ġfon ti
Ġfon te
Ġstori ca
man ce
Ġmar ket
tr y
ĠNa zionale
Ġarri vato
Ġcan ale
Ġpassa ti
Ġcontra sto
Ġaff in
Ġaff as
Ġdiven tato
ĠPro vin
ĠMo d
Ġopera tori
sten ti
ĠSo le
Ġinizia tiva
Ġele mento
Ġpra tiche
eb ony
Ġmerca ti
Ġotten uto
Ġlega te
ĠUni versi
Ġop ini
Ġtri m
Ġsembra no
Ġnorma tiva
Ġautori tÃł
Ġautori zzata
Ġconfer mato
Ġeurope e
au tori
Ġsor ri
tal y
Ġge omet
Ġconclu sione
Ġgratui ti
Ġpoten ziali
Ġresponsa bili
Ġfini to
lus coni
ĠHa jos
Ġoffer ta
Ġcostr uito
Ġsensi bili
Ġsingo li
Ġulter iormente
Ġpol vere
Ġinvesti mento
Ġquotidi ano
Ġmus colare
ĠSpa ce
Ġcompren de
Ġstabili to
Ġmacch ine
ĠCri sto
ĠSci mm
Ġfal li
Ġscoper to
ĠItali ana
Ġsegu enti
Ġvali do
Ġtess uti
Ġrega lo
Ġristo rante
Ġcellu lare
Ġconsenti re
Ġresid enti
Ġtar di
Ġindiri zzo
Ġcamm ino
ĠBolo gnini
Ġdeposi to
Ġfam oso
Ġpanora ma
Ta ranto
Ġdra mma
ĠStu dio
Ġroman zo
eff etto
ĠDemo lizione
Ġpiane ta
ĠFace book
ĠTea tro
Ġaltrettan to
Ġconi u
Ġcentina ia
inecom astia
4 2
C C
I noltre
O ggi
a a
a ut
e me
g in
k es
m erca
s cio
s App
u le
Ġ $
on s
Ġs el
Ġdi gni
Ġdi am
Ġdi cono
Ġdi plo
Ġe mail
Ġm esco
Ġi dro
ro re
ro idi
si va
Ġin cora
or bi
Ġv ino
Ġcon veni
lo ud
ar ra
ar sa
di mento
Ġri t
Ġri forma
so dio
Ġl us
gi che
ĠS I
Ġde c
Ġde cen
ĠC ra
ĠC ina
ĠC hia
ĠC OM
tu ali
Ġcom mento
Ġda tore
mo to
Ġan dato
ce p
ĠP A
ĠM el
Ġpre ghi
ĠA b
Ġpi e
Ġpi lo
Ġ1 01
ĠD etta
sp e
eri mento
ten a
Ġvi te
Ġvi va
Ġsp os
Ġtu tt
ĠB I
Ġci elo
us tra
Ġpar ere
ga te
ul li
Ġgi unta
ĠR en
ĠN ico
ĠN ei
Ġmi ra
Ġcos ci
mb ro
Ġmo tiva
Ġmo rale
Ġmo vimenti
Ġu mane
chi e
zia re
cu re
Ġcomp lica
ĠV alle
zz ur
Ġinter o
Ġinter venire
cco lo
ĠU r
Ġsa cri
ĠO ri
ĠO li
Ġvol to
Ġtro vo
Ġtro viamo
ana bol
Ġba tta
ffi cio
Ġdis cu
Ġdis corso
Ġbi cchiere
Ġvo to
Ġacc er
Ġindi pen
Ġpersona ggio
ĠSi gno
Ġve cchia
ĠÂ §
st ina
Ġtratta ti
cen to
Ġ200 1
Ġ200 4
mer ce
Ġcapi tali
Ġarri vo
Ġattra ver
Se condo
ER A
Ġ20 20
gen o
Ġdocu mentazione
Ġfre d
Ġveri ficare
Ġpra tico
Ġulti mo
Ġprogramma zione
201 4
Ġsvol to
Ġorganizza re
Ġtri en
be te
Ġpreci sa
Ġis truzioni
Ġconsidera re
Ġban che
Ġali mentare
Ġproce dura
Ġdichia ra
Ġvalori zzazione
ĠBer lusconi
Ġuffi cialmente
Ġindica zioni
Ġriusci re
ĠCor ona
Ġattu ale
Ġacco gli
Ġsosten ere
Ġcivi li
Ġdivi de
Ġinteressa ti
Ġgiornali sta
Ġanzi ani
ZI ONE
Ġmeta boli
Ġraccon tare
Ġsegre tario
ĠCol le
Ġguar dare
Ġpazi ente
ĠDu rante
Ġrima sto
Ġinvia re
Ġsche da
Ġmedicina li
Ġrisol vere
Ġrispar mia
ĠAndre a
Ġfru tto
Ġintera mente
Ġorigina li
Ġfarma ci
Ġvorre i
Ġmagi stra
Ġricer che
ĠScimm io
% )
0 5
3 7
B en
C iao
E cco
M o
M ol
N UM
O gni
O ltre
U PB
a do
a mp
a ff
b li
c an
c uni
c osa
d om
d entale
e zioni
e qui
i mpi
k in
n ia
n ella
t tra
Ã ¢
Ġ ere
Ġ ran
Ġ ...
Ġs ino
Ġs fo
Ġa ttori
in er
en tali
la ro
Ġdi co
ra torio
Ġe co
te c
ro m
Ġn ord
Ġin sta
Ġin gegn
or so
Ġf ol
es ca
es tri
es terno
Ġv etro
Ġla go
Ġcon for
Ġcon creto
Ġg enti
Ġal te
Ġt oni
co lari
ci li
al y
Ġri cca
Ġb rand
ĠC la
Ġan ch
Ġan data
ch ino
Ġse di
as to
Ġpre sa
Ġpre se
Ġpre mio
vo ca
Ġre a
ĠA cqu
ĠL A
na ta
Ġpo ver
ina to
ĠD ol
bb ene
ten i
Ġsta va
tta ta
tan ia
Ġgi rare
ĠR u
mb u
Ġu ffici
Ġu sati
Ġpri vata
cu ri
ria mente
Ġapp a
Ġcor sa
Ġsa pe
ĠMa de
Ġ3 2
Ġgio vedÃ¬
gra zione
glia ri
Ġta b
Ġta volo
Ġto ur
bo t
etta ta
Ġver si
am ministrazione
Ġvo lo
ur s
ĠCon s
lizza to
ĠCa ri
Ġfar Ãł
Ġcar ro
Ġpubbli cita
Ġsecon di
Ġcer te
Ġpia ci
ck er
Ġfra telli
Ġfra tello
Ġ200 8
Ġlun g
logi che
Ġbene fi
tion s
Ġconsi ste
Ġmili tari
Ġmedi ci
Ġauto re
Ġfun zion
Ġconos ce
Ġproblema tiche
Ġnatura lmente
ĠDo g
Ġricor da
Ġvin colo
Ġgover ni
Ġlega to
Ġlimi te
Ġrin uncia
Ġrin nova
Ġprofessi onista
Ġag ri
Ġpopo lo
Ġcostitu i
Ġabi tanti
ĠPar lamento
Ġorig ine
ĠMe dio
Ġcrea tivitÃł
Ġmessa ggi
Ġfos sero
Ġrappresenta no
Ġbar be
Ġcostr ui
Ġpresta zione
Ġtradi zione
Ġtradi zionale
Ġattu ali
Ġaffer mato
OS I
Ġaggiorna menti
ĠY ork
Ġdetta glio
ris ma
Ġcredi ti
Ġalterna tive
Ġch at
min io
Ġsupera re
ĠMol inari
Ġener gia
Ġlingua ggio
Ġatta cco
Ġconn essione
Ġconosci uto
II I
Ġdimenti care
Ġscar pe
Ġesegui re
Ġindustri ale
Ġsper anza
Or ganizza
ĠNuo va
Ġpreval entemente
hat sApp
ĠCam era
Ġricev uto
Ġferro via
ĠEmi lia
Ġinflu enza
Ġbigli etti
Ġocc orre
Ġsinto mi
mble a
Ġdibatti to
Ġprofondi tÃł
Ġperico l
impe gno
Ġemor roidi
' ,
. ).
A U
A bbiamo
C E
a tte
c el
d al
d ese
g one
i ra
i tato
i mm
l ti
p li
s omma
Ã ³
Ġ ono
Ġs eri
Ġs ente
Ġs tri
Ġs omma
ti li
ra ele
an z
an golo
Ġn et
zi ano
Ġin for
âĢ ³
Ġf ia
Ġv uol
Ġcon corso
os ci
os tici
Ġg are
Ġg hiaccio
ma te
Ġri ba
Ġri tar
Ġri uscita
no ta
gi ci
ĠS hi
Ġde f
ĠC le
ĠC risti
mp anti
Ġcom un
ĠP om
Ġse duta
ĠM u
ĠM os
Ġpre sid
Ġre centi
Ġma ter
ĠI taly
tti me
Ġso tti
de mia
Ġpo puli
eri re
Ġsta ff
Ġvi vono
Ġvi cin
Ġtra tto
ĠT ren
ĠB os
po le
us se
Ġes se
ff e
ĠN ero
con da
Ġmi lli
Ġra dica
Ġmo du
Ġne anche
cu zione
ĠV illa
ĠV angelo
Ġinter ro
Ġfi la
Ġfi gu
fica ti
ĠU RL
Ġsa per
Ġsa bbia
Ġsa ppiamo
ĠO ut
Ġ3 4
Ġta sse
Ġcre de
Ġalle sti
cca sioni
Ġdisp one
lan ti
Ġacc en
Ġ5 2
Ġor to
Ġindi cato
Ġvia ggiare
mm inistra
Ġman dato
Ġforma re
ĠCom ple
Ġpun te
Ġstra ni
ĠDi anabol
Ġric om
Ġve do
clu sione
Ġcer tezza
olo gia
Ġos si
ck up
ĠK a
Ġprof onda
Ġmar chi
Ġten de
Ġnum eri
Ġtre no
Ġarri vata
esi to
Ġmedi e
Ġsuper merca
Ġlu ci
ĠPro prio
Ġeconom ia
Ġopera zione
Ġdom in
Ġassi eme
Ġinizia le
lia ri
qui si
Ġand rÃł
Ġele vato
ĠFa brizio
ĠRo cca
Ġappro ccio
Ġsitua to
Ġrego larmente
Ġcorre tto
ES CAR
Ġdefini to
ĠMon te
Ġsvol ta
Ġambi enti
Ġambi ente
Ġrivol ta
ĠSal va
Ġfinanzia rio
Ġesa ttamente
Ġmanif es
Ġali menti
Ġali mentari
Ġsuccessi vi
Ġpratica mente
Ġcommer ciale
Ġsupp le
Ġpla stica
Ġlan ciato
Ġrifle ttere
Ġdol ce
Ġved iamo
ĠSil la
Ġsugg esti
Ġdedica ti
ET TA
Ġsegre to
evi ta
Ġcatego rie
Ġid ra
Ġresi stenza
Ġimpi anto
Ġperfetta mente
Ð¸ Ð
Ġcur va
Ġset tori
Ġripre sa
ĠGo verno
Ġsoddisfa zione
ener gia
ĠMac erata
Ġconsuma tori
Ġappar ten
Ġabbi ano
Ġdiscip lina
Ġlunghe zza
Ġcaff Ã¨
Ġparche ggio
ĠMinis tero
Ġconsen tono
installa zione
Ġencic lica
Ġcalcia tore
Pri ma
Ġinna mo
ĠGull Ã¨
ĠFil m
pport unitÃł
Ġatmos feri
NUM X
ESCAR A
2 000
3 8
3 00
4 6
5 00
C ANTI
D u
E x
F a
H a
I sole
M S
N I
V O
c one
c anti
c ella
e to
i m
l ing
l terra
m ino
n era
r do
r ona
s mi
t le
t trice
w er
w ell
Ġ !
Ġc ana
Ġc lub
Ġp lu
Ġp onti
Ġa ro
Ġa pre
Ġa ccol
in ti
en tro
ra eli
le sc
Ġm ura
an di
si on
Ġin g
Ġin au
Ġin evita
Ġf le
Ġf este
Ġv escovo
Ġper se
Ġg atti
Ġil lustra
ar ri
al ta
Ġri ven
Ġri pe
Ġo b
Ġo ccasioni
ĠS carpe
ĠS enato
Ġpro posi
Ġan ali
ĠP uoi
Ġse mina
da mente
Ġpre pu
Ġre almente
Ġre stitu
Ġca la
Ġca mp
is crizione
Ġma ch
tti ca
ĠA frica
ĠL una
ina mento
Ġfa tte
Ġsta i
Ġvi go
ĠâĢ Ŀ
ĠG eno
ĠG ruppo
ĠT OSI
Ġpar tendo
Ġes terna
ĠF al
ĠR E
ĠR as
Ġlo gica
con tra
con tri
ĠE u
Ġmo bilitÃł
Ġu sa
Ġfor um
Ġpri vacy
zia mo
lu zione
Ġall er
Ġcomp arsa
Ġess er
Ġimp osta
zz anti
ĠIn forma
Ġchi uso
glia ta
Ġcre ando
gno li
Ġto cco
bo x
ĠH ai
Ġ4 8
ĠPa via
Ġtempo ran
Ġ19 5
ĠCon tin
ĠCa ra
Ġconf li
Ġau menta
Ġen tusias
Ġdov ere
ĠÂ °
Ġtratta menti
ccia io
Ġsen tenza
esa me
Ġregi oni
Ġregi onali
lica ti
Ġcontro lli
Ġsin c
pre ew
Ġga mbe
Ġlegg era
Ġten uta
Ġstu pi
logi ci
Ġfin estra
Ġgo la
ĠPi ano
gre sso
Ġfe ci
teria le
ĠDa vi
gen i
Ġren der
ffici enza
Ġprevi sione
Ġfami liare
Ġriguar d
Ġforni to
201 1
Ġacquis to
Ġk g
Ġpresenta ta
Ġfas cia
Ġsvol ge
Ġambi ti
Ġsenti to
Ġtri b
Ġmodi fiche
Ġracc omanda
ĠSal er
Ġfinanzia ri
Ġ199 5
ger si
Ġnas cita
ass essore
Ġindivi d
Ġsce gli
Ġassolu to
ĠFor um
Ġfunziona mento
Ġcompi ere
ĠY o
Ġdiffici li
Ġspor tivo
Ġdetermina to
Ġdiff on
Ġdiff usione
Ġvaria bile
vera i
Ġmalatti e
wi tter
Ġnote vole
Ġopport uno
Ġingre sso
Ġprofi lo
vid anza
ĠGran de
erop orti
Ġdistrib uzione
Ġcrista lli
Ġchirur gico
Ġconcentra zione
Ġmino ri
Ġmemb ro
Ġfiloso fia
Ġtelef ono
Ġcele b
lau dio
ĠLomb ardia
Ġcic lo
Ġvolonta ri
Ġzucch ero
Ġlabo ratorio
Ġmina ccia
cha el
prin t
Ġyo u
Ġpacche tto
Ġmigliora mento
Ġcirc uito
Ġappassi onati
Ġpiet ra
ĠTur chia
sho p
Ġvuo to
ĠMen tre
Ġterres tre
Ġbritan nico
Ġperfor mance
atmos fera
Ġaffas cin
Ġpreghi era
Ġmetaboli smo
Ġrisparmia re
Ġpover tÃł
CANTI ERI
0 7
3 16
4 3
A Q
C re
E TA
G io
I sola
I ct
I stituto
M P
N ell
P ar
S o
T ER
V o
a eroporto
c ing
c ane
c ultura
c ted
e cc
e ventu
l on
l os
o ttima
o pportunitÃł
p el
p oni
p isce
s an
s al
t he
t rin
u ch
v an
v anta
Ã ®
Ġ #
er ba
Ġc ul
Ġs chia
Ġp elli
Ġa to
Ġa di
Ġa rancione
re lla
in ten
in formazione
en ziali
Ġdi p
Ġe va
te dÃ¬
an chi
Ġi per
Ġi sola
si ste
Ġin ti
âĢ ĺ
ca te
Ġla ter
Ġg es
Ġt ru
ci r
ci do
al d
do tti
ma tici
Ġri a
Ġri mbor
Ġo ro
Ġo ccup
gi tto
ĠS T
ĠC er
mp ere
Ġcom posizione
mo zione
ĠM DR
Ġpre ssi
Ġma mma
Ġma ppa
Ġso cio
de m
Ġpo le
Ġpo veri
ina ti
ĠD onna
Ġfa i
Ġfa bb
bb a
Ġtu rno
Ġte tra
ĠB ol
ĠB ella
ĠB ea
ui ti
tan ea
ĠF ri
ĠR and
ĠE sp
go ri
gg er
Ġne o
Ġpri vile
Ġcomp osta
Ġav ranno
Ġav esse
Ġinter ni
cco lato
ziona mento
ĠU ber
per to
ne y
ĠO ffi
ing le
Qu al
Ġta ssa
Ġta len
Ġba ga
Ġba by
ĠH e
ĠH er
sid eri
Ġ4 9
Ġser vono
Ġmon u
Ġven a
Ġacc ura
ess ero
ĠQu est
ĠCa sa
Ġstra to
uta zione
Ġcar tu
ĠDi f
ĠW hatsApp
Ġric etta
Ġsca mbi
ĠMi lan
Ġsco pri
Ġfon di
Ġbu ono
Ġsos tan
Ġga ran
Ġlegg ero
Ġ7 5
Ġchia ri
Ġchia mata
Ġten denza
Ġsicu ri
ĠMar ini
guar dia
Ġrip oso
Ġdeci sioni
Ġprodu ce
edi ficio
Ġtras for
ĠPi Ã¹
Ġauto matica
Ġcas ino
âĢ¦ âĢ¦
ON I
Ġricerca tori
Ġgius ti
ĠVi ce
Ġasp ettare
Ġprevi sioni
Ġtipo logie
Ġricor dare
Ġsoli tamente
Ġqua lora
Ġedi fici
ĠRoma gna
ĠNo i
Ġforni ti
Ġforni sce
201 9
cra ina
Ġrego lare
Ġpermet terÃł
Ġdigi tal
Ġorganizza to
AR E
Ġriferi to
Ġautori zzato
Ġconfer enza
Ġfinanzia ria
Ġstrada le
ĠNe ws
Ġimma gine
Ġul tra
Ġimpre sa
Ġinseri ti
Ġrile va
ĠFo ggia
Ġcomporta menti
Ġconsu mo
Ġrappresen tare
Ġrappresen tanza
Ġconsul tato
Ġprov vedi
Ġminis tero
Ġmeto di
Ġspecia lmente
Ġpiace vole
Ġbelli ssimo
Ġtal volta
ee k
Ġsupera to
Ġimpa rare
Ġstraordina rio
Ġcellu le
Ġid one
Ġconsenti to
Ġbru cia
Ġelettri co
Ġequi librio
gar no
Ġet c
Ġspia ggia
75 6
OL F
Ġvole te
Ġcapito lo
Ġtrasferi mento
Ġagi re
Ġsottoscri tto
Ġcalo rie
ĠFerra ra
impor tante
ĠAir print
Ġdirig ente
ĠGre cia
Ġvio lazione
Ġdiverti mento
Ġprosp ettiva
Ġfl ui
attu ale
Ġrigo ro
Ġviaggia tori
On u
Ġreddi to
Ġbro w
ĠVincen zo
Ġristruttura zione
emer genza
ppon ese
Ġmiglia ia
Ġaffin chÃ©
ĠUniversi ty
ĠDetta gli
6 8
8 6
B u
D uro
E n
E st
G NO
G GI
M e
P A
P P
a si
a ffi
b ini
d on
d ra
f in
g esti
j a
l tÃł
m es
m ine
o cchio
s tero
t Ã¹
u x
w ard
x i
y er
Ġd enti
Ġc ani
Ġc ru
Ġc len
Ġs cia
Ġp ru
Ġp Ã²
Ġp uni
Ġa ria
to la
ta rsi
ra ggi
li te
Ġi rre
si ma
si mi
Ġin ven
Ġin vol
or zio
Ġper ciÃ²
qu ali
qu ale
Ġal tezza
Ġt onalitÃł
di s
di co
di pen
di gital
do li
Ġri pri
Ġri tor
za turi
gi orno
Ġsu ddi
ĠS ar
ĠS ul
Ġb ron
Ġpro i
Ġpro met
ol l
ĠC ine
ĠC osta
ch erÃł
ter ran
ter olo
ĠP D
ĠP rin
ĠP res
da rietÃł
ĠM are
Ġpre f
Ġpre venzione
Ġre cip
Ġre pubbli
is tare
Ġma glia
Ġma il
ĠI TA
tti vi
ĠL as
Ġpo ch
Ġpo ker
Ġpo tuto
Ġvi cini
Ġsp et
tta mento
ĠG T
ĠG inecomastia
ĠB ro
ĠB lo
ĠB ank
ĠB lack
Ġpar ro
ĠF orte
Ġgi un
ĠR ed
Ġpa g
Ġpa pa
Ġpa vimento
ssi a
Ġra dio
Ġra ramente
Ġmo glie
go la
du te
Ġad er
ven uti
sta to
Ġcomp li
are se
Ġco si
Ġinter ne
Ġprop osto
Ġgra fico
tte mpo
Ġar t
ing ton
Ġ3 8
Ġris er
Ġris cal
Ġcol po
Ġcre dere
dia le
Ġba sa
Ġbi blio
esti ci
Ġdisp orre
Ġver ti
lan za
lan ce
lan dia
Ġvo li
Ġven ga
Ġven gano
Ġor dini
Ġrisp ettare
der ci
ĠQu ello
ĠQu este
tt oni
Ġesp on
via zione
ĠCa risma
Ġfar ina
Ġdiver tenti
Ġro v
Ġconf ezione
Ġric chi
ĠSi cu
ĠÂ ·
Ġlib eri
at h
ggia ti
Ġos sia
ĠMi ch
Ġfo resta
Ġbu one
Ġchia ra
ĠDe ut
ĠGi an
Ġmar cia
Ġsal vo
Ġese mp
Ġspa gnolo
Ġcomuni care
ĠMar ino
ĠNa tura
Ġpor te
Ġ8 5
Ġrip et
Ġdeci de
Ġimpor tanza
Ġgu ard
Ġtras missione
ĠPi ccolo
Ġmili tare
Ġcas sa
ĠMo bile
Ġmin uto
Ġass unto
ER E
ĠCi vi
cci ano
mis sioni
Ġoff ri
Ġren dono
Ġpe zzi
Ġtipo logia
arti sta
Ġele gante
Ġrela zioni
Ġ12 0
Ġprote ggere
Ġam anti
Ġappro pria
fer enza
Ġcollabo ratori
Ġpresenta no
Ġtrova te
Ġprofessi onali
Ġscor sa
Ġorganizza ta
esp on
Ġtri ste
Ġcambia menti
Ġpara metri
Ġgia pponese
Ġpoter i
Ġmodi ficare
Ġpopo lari
Ġden omina
Ġabi ta
Ġabi tu
Ġis raeli
Ġapplica zione
OR A
OR I
au mento
ĠPar co
Ġfinanzia mento
Ġ199 9
av an
Ġcontrib uti
Ġcapa ci
Ġpron ostici
Ġnas c
Ġproce dere
Ġgratui tamente
Ġtran si
Ġpoten te
Ġgaranti sce
Ġintegra zione
ĠPu glia
ĠPu bbli
Ġavvi cina
Ġforte mente
Ġassolu ta
Ġmanten imento
Ġsingo la
bu terolo
Ġeventu almente
Ġmondia li
Ġinvesti re
Ġfanta stico
Ġeffica ci
ĠSpa gna
Ġdisa bili
Ġeffettua ta
ZI O
Ġazienda le
Ġidenti tÃł
ĠSta mpanti
ET T
Ġrica rica
Ġderi va
Ġelettri ca
bol in
ĠIs raele
Ġsvilupp ato
Ġpersonalizza te
Ġprose gue
ĠOn line
ĠSc uola
Ġsba gliato
Ġvicen de
Ġturi smo
ĠGia ppone
Ġinse gn
enda rio
ĠLomb ardi
Ñģ ÑĤ
Ġpercor si
Ġfl uo
Ġconcre ti
ĠInterna tional
UI LA
Ġdimag rire
Ġlasci ando
Ġage vo
eserci zio
Ġcond anna
ĠMad onna
ĠFranco forte
Ġmetro poli
Ġgioi elli
Ġgener almente
Ġchilo metri
Ġgam ma
ĠJe an
Ġprio ritÃł
Ġcirco lazione
Ġvul nera
Ġdistur bi
Ġdigni tÃł
Ġfred da
ĠScimmio tte
Ġvigo re
AQ UILA
Duro bolin
Ġclen buterolo
zaturi ficio
Ġrecip ro
. "
0 2
9 5
A D
A genzia
C antieri
D es
M O
M EN
P u
P ESCARA
S Ã¬
T ito
U E
V EN
Z IA
a ve
d osso
e gli
g as
m ona
n el
p lici
t Ã²
t ele
u ali
u isce
v ing
w ood
z y
Ð º
Ġ za
on ne
on almente
er ano
er Ã²
Ġc eri
Ġc loud
Ġs anno
Ġp c
Ġp one
Ġp ort
in de
in forma
en tato
ta lo
ta mento
ta ssi
el en
te vi
te ch
te se
Ġm orti
Ġi gno
Ġin er
Ġin fi
Ġin cu
Ġin edi
Ġin tui
Ġin cer
Ġin telli
Ġf lus
Ġf rutta
Ġv ene
ca bile
os sa
om as
om ba
Ġt on
ar s
ar li
di er
ma zione
Ġri sie
so ri
gi ani
ĠS U
ĠS arÃł
ĠS inda
ĠS iste
Ġb os
Ġb lu
Ġpro to
Ġsi gno
Ġsi mu
Ġde bito
Ġde bu
Ġde bole
Ġde sideri
ĠC H
ĠC ia
ĠC ultura
ĠC laudio
Ġcom missione
Ġcom fort
Ġan tica
ce ano
ĠP ra
ĠP orta
ĠP anta
as petto
da zione
ĠM usi
io ren
tra n
ni ca
is ci
Ġma tura
ĠI P
ĠA v
ĠA ve
ĠA ss
ĠL ettera
Ġpo ca
ina ta
uo va
ran de
Ġvi cina
Ġte tto
ĠG ui
ĠT ali
ĠT ale
cc ando
cc ante
tri a
tri co
ĠN u
cu e
Ġall ontana
zz ante
Ġco lazione
Ġprop orre
Ġfi li
Ġgra fica
Ġgra vidanza
ĠLa ra
ĠLa vo
ĠIn te
Ġar te
Ġcor to
Ġcor rente
ne o
Ġter mina
ĠMa gi
Qu esti
Ġ3 7
Ġ3 9
Ġris al
gra m
glia mento
Ġta ri
Ġcre sci
gno si
pe dia
Ġ4 7
res se
Ġindi re
Ġindi care
ttu almente
Ġesp ressione
Ġpun tata
ĠCa tania
ĠAl le
ĠDi re
Ġric chezza
Ġve ico
Ġw ill
Ġdov uti
Ġdov esse
Ġlib r
Ġfatto ri
cen ze
Ġ6 00
Ġatti va
Ġmis tero
Ġsos p
Ġsos pen
Ġsos tanze
Ġfra ttempo
Ġ200 5
Ġmar tedÃ¬
Ġese mpi
Per chÃ©
Ġcal da
Ġfino ra
Ġrip ortato
Ġprodu ttore
Ġrichi edere
Ġmedi ca
col lo
col tura
ell ini
labo razione
tten te
Ġass enza
imp orto
Ġconten gono
ĠSu pp
ĠVi doli
Ġrealizza te
Ġgenera li
Ġconta ttare
Ġriguar dano
Ġedi li
Ġulti ma
Ġcolle ghi
Ġval utare
app ro
Ġloca litÃł
Ġacquis ti
Ġacquis tato
Ġscon to
Ġsignifica tivo
Ġcorre tta
Ġfavo ri
Ġperf ino
Ġambi entale
ai uto
Ġcerca to
Ġrivol u
Ġdif enso
Ġapplica re
Ġfinanzia rie
Ġpubblica ti
Ġ199 6
Ġsci enza
Ġraga zza
Ġesa mi
Ġim mobili
ĠCar lo
versa le
Ġcontrib uito
Ġpron ta
Ġmusi cale
Ġdichia razioni
Ġtran s
Ġbre vi
Ġcio ccolato
Ġriusci ti
ĠFor ce
Ġpla ne
Ġrile vante
Ġdestina zione
Ġaggiorna to
Ġaggiorna mento
Ġregistra to
omb ra
Ġconsu mi
Ġbio logico
ces sione
Ġriso luzione
Ġfotogra fia
Ġesclusi va
Ġcapo lavo
ĠCri mea
Ġcaratteris tica
Ġade gu
Ġfir mato
Ġfina li
ĠGiu lio
Ġveloce mente
ĠMol to
Ġfaccia mo
Ġderi vanti
Ġtute lare
Ġessen ziali
Ġrima sta
Ġrive la
Ġresid enza
Ġcompon enti
Ġcomin ciare
Ġeserci tare
Ġscola stico
Ġsottoline ato
Ġagg re
Ġnego zio
Ġassicura zioni
Ġconcor renza
Ġrispar mio
Ġecce zionale
Ġciasc uno
Ġconcer to
Ġmor bi
Ġsplendi do
ĠAm erica
Ġrecupera re
IF IL
Ġsfor zo
Ġcristi ana
Ġtranqu il
Ġtranqu illa
ĠPoli zia
Ġenerge tico
Ġcommis sa
ĠNet work
Ġracco gliere
Ġpato logia
Ġarg omenti
Ġelen co
Ġassum ere
gel es
Ġmuse i
ĠMuse o
ĠAlessand ro
Ġmana ger
Ġtatua ggio
Ġviss uto
vang eli
Ġpul sante
identi tÃł
Ġvor rebbe
Am erica
Ġwork shop
Ġocci dentale
Ġlum in
ĠSvi zzera
Ġpoe sia
Ġatle ti
Ġtrim estre
Ġpotenziali tÃł
impi anto
curi ty
Ġbarbe cue
Ġproposi to
Ġprepu zio
Ġmach ine
preew ald
Ġtetra ed
ĠDif esa
bini eri
ĠDeut sche
0 3
6 5
B i
C CHI
D E
G a
H ai
M OLF
O G
S ony
U R
a ma
b anca
c Ã²
d r
d s
d arsi
e y
f ero
g ino
j i
m almente
p orta
s chi
u alitÃł
y n
Ġ *
Ġd in
on gono
Ġc lini
Ġp anni
to p
in ca
ra ma
te s
Ġi so
Ġi gi
Ġi OS
zi osa
si vi
Ġf el
Ġv ere
Ġper ch
Ġcon ti
os pedale
Ġg lu
Ġal b
Ġal ter
ar ne
di bili
et tere
Ġri tra
Ġri sta
Ġo cchia
gi re
ĠS enza
ĠS are
Ġle ttere
mo ri
oni mo
ĠP in
ĠP ron
as ta
pp ie
ĠM t
ĠM ele
Ġpre si
Ġpre de
Ġpre venire
Ġpre ziosi
Ġre tro
Ġca pp
Ġh i
is tan
ĠA N
ĠA sso
ĠL un
ve glianza
mi er
mi gra
uo go
ĠD all
eri to
Ġvi ttime
Ġsp osa
Ġsp alle
Ġsp ontan
ĠB io
Ġes tate
ĠF e
Ġdo cente
ali a
ĠN or
Ġpa ttu
Ġcos tu
ĠE st
mb ur
go v
Ġme te
Ġme ga
me d
du rre
ĠV I
zz ina
Ġav rebbero
Ġsc ene
Ġsc endere
Ġco i
Ġco operazione
Ġapp artamento
ĠU mb
Ġai uti
Ġcor rere
ing e
Qu ali
Ġcol pa
Ġgio ia
Ġta sso
um ere
cor rere
Ġbi mbi
ss ero
ste m
erca ccia
Ġ4 1
Ġver tica
Ġpas s
Ġser ia
Ġmon tagna
Ġpossi ede
Ġinf o
Ġesp an
via re
ĠCa pp
ĠCa po
Ġpersona litÃł
Ġcar to
Ġro tta
ĠW e
Ġconf ini
Ġconf ine
Ġau ten
Ġw i
at ten
sse gna
Ġsen to
ĠRe al
Ġfo glie
Ġsco pi
pre sidente
Ġprog etta
Ġini zialmente
Ġcir colare
Ġcir cos
Ġlegg er
Ġfra gi
Ġchia ramente
ĠGi unta
Ġcal colo
Ġcomuni cazioni
Ġbene fici
ĠNa tional
Ġpassa ggi
Ġcontra stare
Ġscri ttore
esi stenza
ĠRi mbor
Ġdiven tando
Ġvisi bile
ghi lterra
Ġcas s
ĠCi r
ĠDa vid
Ġoff rendo
Ġmet tendo
Ġgenera zioni
Ġele zioni
Ġricor dato
ĠTra s
Ġcolle zione
Ġposi tivo
ĠBa ia
ĠNo te
Ġconse gna
Ġappro vato
ĠTu tte
Ġrin no
Ġvos tre
Ġfas ci
Ġorganizza zione
Ġambi entali
Ġcompa ti
Ġcompa gno
Ġgia llo
Ġpreci so
Ġcostitu zione
Ġinten sitÃł
Ġapplica ta
Ġentra te
Ġentra mbe
Ġperio di
Ġsap uto
Ġpubblica te
omi ci
ustri a
fia mma
Ġraga zzo
Ġarti fi
Ġimpe gni
ĠInter vento
Ġgratui ta
ora rio
Ġuffi cio
Ġfran cesi
ĠPu Ã²
Ġmeri ta
Ġus u
Ġdestina ti
Ġrifle ssioni
Ġmostra to
Ġmolte plici
Ġdia bete
Ġtecnologi co
Ġacca duto
Ġrappresen tanti
Ġspi ri
Ġfotogra fie
Ġprov ve
Ġeffettua te
lob al
Ġstrate gie
wi ki
Ġconc essi
Ġlettera tura
Tu tto
Ġaccesso ri
Ġatta cchi
Ġsegu endo
Ġcaratteri zzato
Ġaspetti amo
Ġtrasforma zione
Ġpes anti
Ġtera pe
Ġeserci zio
Ġpiena mente
No i
Ġdistin gu
Ġcata logo
Ġmecc anismo
ĠAu gus
Ġripre se
Ġantici pa
Ġlar go
Ġsplendi da
Ġconsiglia bile
Ð° Ð
inda gine
ĠBre tagna
Ġscom messe
Ġtur co
Ġpreoccupa zioni
Ġlabo ratori
Ġquarti ere
Ġeccessi vo
Ġimprendi tori
Ġdet en
Ġinde sidera
ĠAnn an
FO LI
Ġipo tesi
Ġcollabora tore
Ġcanz one
Ġcontinui tÃł
ĠMicro soft
Ġprofu mo
Ġcosci enza
Ġbatta glia
Ġvicin anze
Ġmilli metri
mministra zione
Du rante
Ġinau gu
ĠBol doni
Ġbrow ser
ĠCine ma
espon sa
Tito lo
MOLF ETTA
ĠRimbor sati
' .
0 4
6 6
6 00
C U
E d
J ES
M on
O TTI
P R
S p
S al
T er
U O
X NUMX
a bb
c elli
c ell
e la
f le
f ur
g omento
h anno
i po
l s
m ante
n ando
n ess
n oso
p t
p io
p lica
r di
r ino
s tri
s tante
v arsi
Â ®
Ã ¼
Ġ )
Ġd ormi
Ġc ere
Ġs ana
Ġa bili
in tro
en s
ti le
Ġdi cendo
ri che
le tto
Ġm uro
Ġm orto
an s
Ġi P
ro ga
Ġn era
si li
si ca
Ġin cro
or ge
ca pi
ca mera
Ġcon ve
Ġcon sider
os teni
om ico
ci pe
âĢĻ .
al b
Ġqu into
di ti
Ġri vi
Ġri us
Ġri cic
gi us
ĠS and
Ġb olo
Ġb eta
sa li
sa mento
va ri
Ġan tico
oni ma
bi ci
ter iori
ĠP z
Ġse ggi
che olo
as segna
ĠM B
Ġre sp
Ġre fer
ĠA ssi
ĠL os
na to
Ġpi an
ve cchia
fi cando
Ġso cc
Ġso ttra
de va
Ġpo esi
ona rio
ĠD A
ĠD ra
ran co
cia te
Ġsta gioni
Ġsp re
ĠG as
ĠT orre
ĠT witter
zioni sta
Ġci fra
Ġpar to
Ġes ten
ul ta
ĠF I
ĠF u
ĠF la
ĠF ar
ĠF onte
ĠR osso
ĠR esponsa
Ġdo tto
Ġdo tato
Ġdo ccia
Ġra ll
mb ascia
Ġu p
Ġpri vo
Ġli re
Ġli ste
Ġli evi
lu enza
Ġcomp ro
Ġimp orta
ria to
Ġco er
Ġco opera
Ġprop or
etti amo
Ġfi d
Ġfi bra
ĠU no
ĠU omo
Ġno ttu
Ġar ma
Ġva mpi
Ġsa cer
ĠO sti
ing resso
Qu ello
Ġpers onalmente
Ġvol er
Ġvol umi
Ġta gli
Ġta lmente
Ġta gliare
Ġto sse
Ġat tua
Ġlavo rato
Ġba ra
Ġdis tra
ĠH D
ĠH ome
Ġna ve
ba ck
il le
uti le
Ġdisp osto
ĠPa rola
Ġpas sando
enta no
ge ment
Ġmon te
Ġven uto
Ġacc anto
Ġ5 1
Ġ5 7
Ġabb ra
res to
der anno
Ġinf ini
Ġinf rastrutture
ĠAn cora
ĠAn ton
ĠCon te
ĠCom m
ĠCom itato
ĠCa mpi
Ġstra ti
ĠAl tri
Ġcar b
Ġcar re
Ġcar dia
ĠDi mag
Ġpubbli cazione
Ġro cce
Ġro manti
ĠLe ga
Ġen orme
Ġdov re
ĠÂ »
Ġtratta re
ggia te
met ter
Ġsca rica
Ġ6 2
ĠMi chael
ĠK er
Ġmis teri
Ġprof ondo
Ġ7 7
Ġ200 3
Ġchia mati
ĠDe velo
ĠGi anni
Ġlun ghi
omo do
Ġdeci samente
Ġaff a
Ġscri ttura
tina zionali
edi zione
mar co
Se mpre
Ġutilizza te
gre tario
Ġmin erale
eli ce
ĠPo tre
Ġrisul tano
Ġr ullo
stra tto
ĠSa int
Ġmet tono
ffici enti
fa ccia
Ġedi zioni
ĠPre mio
ĠPre nota
Ġcolle zioni
Ġprote ine
anda mento
Ġam mi
Ġconse gui
ĠZ e
Ġscon tato
Ġpermet tere
Ġfer mata
Ġscor si
ĠMon do
Ġclassi ci
esp ulsione
Ġpara di
Ġvelo ci
Ġcostitu ito
Ġstruttura li
Ġstruttura le
Ġdif etto
Ġdif endere
Ġgiovani le
Ġfis cali
Ġ199 4
Ġ199 8
ĠMe land
Ġspiega zione
versa rio
Ġcontrib uire
Ġpron uncia
Ġnas con
Ġconclu so
Ġcompre si
LA ZIO
Ġimpe gna
Ġimpe gnati
Ġpoten za
Ġvalori zzare
ĠBer lino
ĠTe am
ĠPu li
Ġtrasp orti
Ġdipen denza
Ġindica ti
Ġoffer ti
ĠCor po
Ġbian ca
Ġinseri to
Ġlan cio
Ġsfi de
Ġdestina to
Ġdol ci
Ġnu cle
Ġregistra zione
Ġov unque
Ġavven uto
Ġvaria zioni
Ġinteressa to
Ġindividu ale
Ġinclu dono
Ġaiuta rti
Ġcoinvol ti
Ġpiatta forme
Ġasse gnato
anis mi
Ġmulti plo
ĠApp le
Ġritro vare
Ġrecente mente
Ġsoddis fare
ratori e
ĠFed ercaccia
Ġcompet enza
Ġfrequ enza
Ġprecedente mente
ĠRus so
Ġimpa tto
ĠCal zaturificio
Ġmoder no
Ġmoder na
Ġmoder ne
Ġessen zialmente
ĠSte am
ĠSte fano
Ġmuo ve
Ġrima sti
Ġriconosci mento
Ġvas ta
Ġsom me
Ġmino re
Ġindustri ali
Ġnavi gazione
Ġassicu rare
monia le
Ho tel
Ġeste tico
Ġantici po
Ġciasc un
Ġsali re
Ġpsi colo
Ġscienti fica
Ġnega tivo
Ġeletto rale
Ġdimin uzione
Ġom bre
Ġsfrutta re
Ġconfi gurazione
ĠGro up
Ġimpedi re
Ġsovra pp
Ġpresti gi
Ġvinci tore
Ã¡ n
Ġbanca rio
Ġdista cco
Ġsatelli te
ĠSam marco
Ġavversa rio
Ġveni vano
Ġtedes ca
Ġabbond ante
Ġconser vare
Ġriparti re
Ġterritori ali
Ġrie mpi
Ġmaschi le
bare t
Ġallena mento
orig ine
ĠConf industria
Ġconveni ente
ĠNico la
Ġindipen dente
Ġnet work
Ġcana dese
arri vo
elen co
ĠSiste ma
FOLI GNO
JES INA
noso ft
assegna zione
Ġpoesi e
Ġsacer do
ĠMeland ri
% ),
0 9
5 7
B etSense
F ER
G LI
I s
P LE
R is
S ho
S carpe
T US
a pos
d get
g erÃł
g hiaccio
h t
h one
k on
o bbli
o lio
o ccupa
p or
r erÃł
t z
u tica
u tando
u terÃł
u fficio
v os
v est
y ber
Ä į
Ġ zo
Ġ oma
Ġ ðŁ
Ġd ono
Ġc anti
Ġs ar
Ġs ter
Ġs ten
Ġs esso
Ġp etro
Ġa uti
Ġa bilitÃł
Ġa sc
Ġa gen
Ġa cciaio
Ġa eroporti
re en
in qu
la io
ri ere
Ġe m
le tter
un te
Ġi t
si co
Ġin d
Ġin do
Ġin verno
Ġf inisce
Ġla ti
Ġcon tare
os hi
Ġg on
Ġg hi
Ġg esto
Ġt el
ar gomento
men do
men tando
al lo
al za
do tte
Ġri mar
Ġri dotto
Ġl enta
Ġsu ssi
ĠS A
Ġb er
Ġb is
Ġb ando
Ġb and
Ġpro ve
vi sor
Ġde formazione
ĠC ana
ĠC erto
sa zioni
va ria
Ġcom media
Ġle ague
Ġan cor
Ġan alizzare
bi co
ĠP or
ĠP ol
ĠM L
ĠM IN
ĠM AG
Ġpre ca
io ra
Ġre gia
Ġre stitui
Ġca use
Ġma te
Ġma gli
Ġma mm
ĠA cc
ĠA uto
ĠL ANA
Ġpi anta
fi cano
de simo
uo vere
ĠD r
ĠD es
ĠD om
ran zo
Ġfa tture
Ġfa coltÃł
Ġvi ttima
Ġsp on
Ġsp ero
Ġtra mon
ĠG mail
ĠT as
ĠB on
ĠB ru
po ri
Ġpar z
Ġpar lar
Ġpar tono
Ġes er
ĠF un
ĠF ANO
Ġgi unto
ff on
ali mentazione
tri moniale
ĠN elle
mb ini
go li
Ġpos se
Ġme desimo
du ce
Ġad destra
pi x
pi ca
Ġall un
gu endo
Ġav rai
Ġav rei
Ġinter vista
etti ve
Ġfi ume
Ġdu ro
ĠIn di
ĠIn vece
Ġcor ona
Ġsa cco
Ġsa una
ĠO vviamente
ĠMa x
ing ere
Ġcol pisce
Ġpers ino
Ġvol uta
glia ti
Ġta vola
Ġto ssi
Ġto uch
Ġpres cin
Ġba tti
Ġdis tanze
ĠH ess
cor si
cca rdo
ba la
ss ine
Ġ4 3
Ġ4 6
Ġver sioni
Ġpas ti
lan ta
enta ta
Ġven di
Ġacc el
Ġor g
Ġabb a
Ġtempo rale
indi ri
Ġman cato
Ġman care
Ġman dor
tin era
ĠAn na
Ġforma le
Ġforma ggio
tt ini
Ġspe cchio
Ġesp resso
lizza ti
ĠCom mer
Ġbas si
ĠCa pi
ĠSe curity
Ġquali fica
ĠW ord
Ġve di
gn os
Ġw eek
ĠJ ose
sse to
Ġ6 4
Ġ6 5
Ġsin te
Ġsin tesi
Ġstori ci
Ġsos ta
Ġprof umi
Ġga ranzia
Ġ7 6
Ġmar ca
tr oni
AN CON
Ġon de
Ġpor tando
Ġpor terÃł
Ġcri teri
Ġ8 8
Ġsti a
ĠPi er
ĠRi ccardo
Ġmili ardo
Ġcontin uo
Ġesi bi
ell enza
ell ino
Ġora ri
Ġfun zionale
Ġconos cenze
Ġdom ici
Ġass unzione
Ġconten ere
Ġgiu dici
Ġcura re
Ġrealizza ti
Ġpe c
Ġpe zzo
Ġnecessa ri
ĠGa la
Ġricor di
Ġcontinu ano
app untamento
Ġincon tr
Ġcentro ca
Ġotten uti
Ġconse gnato
menta ta
Ġlega ta
Ġfonda tore
Ġlimi ta
Ġann uale
Ġprofessi onalitÃł
Ġdiffer ente
EN ZA
Ġnorma li
Ġcostitu iscono
Ġsf u
ĠSal one
gina re
IN E
IN G
Ġsor ge
dino tti
av vocato
ĠMe dia
Ġspiega re
ĠCar ta
SA MB
Ġali mentazione
Ġdichia razione
Ġmini mi
Ġpoten ziale
Ġassocia zione
Ġsuccessi ve
Ġprepa rare
Ġavvi cin
Ġdipen dente
Ġfini re
Ġfini ta
Ġbra vo
Ġbra ni
ĠCh ri
Ġsupp orta
Ġbian con
Ġcoin ci
Ġaffer mare
Ġpuli zie
Ġdestina ta
Ġtipi ca
Do wnload
Ġregistra re
Ġcentra li
Ġtecnologi ca
Ġfutu ri
Ġameri cana
su la
Ġamministra tivo
Ġindividu ali
Ġindividu ato
Ġinclu si
Ġmanifesta zioni
ĠEn tra
CI ETA
Ġrila ss
Ġamp li
Ġamp ie
Ġistitu ti
ĠBar ba
arta menti
Ġproba bilitÃł
rere bbe
Ġbelli ssima
Ġado lesc
par to
ĠFed erazione
Ġcollega mento
tur gia
Ġsegu ente
Ġresta no
ttan do
Ġvali da
Ġiscri tto
Ġconn essi
Ġseleziona re
Ġseleziona ti
Ġprofi li
Ġres tare
Ġconosci uta
fe zione
Ġinci denti
Ġbru ciare
Ġaccompa gnato
Ġprovo ca
Ġraff re
ĠVer ona
Ġpreo ccup
Ġcostante mente
Ġscu ro
Ġscu sa
Ġfeli ci
sen ia
Ġformu le
Ġproveni ente
Ġlegi tti
Ġlegi sla
Ġspia gge
Ġauton omo
Ġauton oma
IT ANA
Ġcolpi to
?? ?
Ġfam osa
Ġacquisi to
ĠNuo vo
Ġliqui di
Ġcresc ente
VI TA
Ġurb anis
Ġfres co
ĠVene zia
Ġpreferi to
Ġspecializza ta
Ġpal co
ĠBal dinotti
Ġascol tare
Ġdesign er
Ġnomina to
ĠGro sseto
Ġpad roni
Ġespri mere
ĠPas quale
Ġbigli etto
Ġinstalla zione
Ġpacche tti
ĠMer k
Ġface va
Ġcontemporanea mente
pposi zione
Ġvege tali
iss Ãł
Ġindos sare
ĠFra me
Ġgradu almente
Ġtestimoni anza
Ġimpos tare
Ġdisoccupa zione
Ġasciu ga
ĠRock wood
Ġmeccani ca
insegna mento
allu ce
Ġhttp s
Ġrispetti vamente
Ġporti ere
ĠDam onti
ĠNort h
Ġpaesa ggi
Inf ine
ĠProvin cia
autori zzazione
Ġingegn eri
ĠCari tas
Ġritar do
Ġmater ie
Ġfigu re
Ġsupermerca ti
ĠSalva tore
Ġfle ssi
ĠDavi es
Ġtalen to
Ġgaran tendo
ĠPD F
Ġparro cchia
ĠMich ele
Des crizione
ANCON ITANA
! )
- -
3 000
8 1
8 00
C K
D al
E stratto
L AN
L LA
S D
S ta
S te
S ul
S pe
S ud
U RO
X T
a bi
a cco
b era
d f
d ar
e do
e ffica
e voluzione
g elo
h y
h am
i c
j e
k Ã©
k ing
l gs
n es
p arti
r ing
u de
u gh
v ino
x x
Ã ¶
Ñ ĥ
Ġ y
Ġd er
Ġc anto
Ġc roni
Ġc rona
Ġs m
Ġs tor
Ġs mal
Ġp anno
Ġp ann
Ġa ra
Ġa posto
Ġa zzur
re lli
en tare
ta ge
Ġdi o
Ġdi ci
ri m
el p
ra t
le tta
le ggio
Ġm l
si ve
Ġin to
Ġin ser
Ġf lo
Ġf estival
Ġf rom
Ġun isce
es el
ca tto
Ġper si
Ġla na
Ġcon sta
lo tto
Ġg r
al lar
et y
et ter
Ġri vista
Ġo ccu
Ġo dier
so di
so gna
ĠS tan
ĠS Ã¬
ĠS cri
ĠS chie
ĠS preewald
ol di
vi ta
Ġde va
ĠC u
ĠC is
mp e
Ġle ttori
gli ano
bi s
ce to
ĠP en
ĠP an
ĠP io
ĠP ie
ĠP urtroppo
tto rio
Ġse bbene
as e
da tura
ĠM A
ĠM ano
ĠM ale
ĠM essa
ĠM ontana
Ġpre li
tra le
Ġre tti
Ġre trib
Ġre azione
Ġca lore
ni s
is se
Ġma estro
ĠI ni
ĠI mma
tti vitÃł
ĠA ra
ĠA ggiun
ĠA CC
na re
Ġpi zzi
de te
Ġpo poli
uo ri
ĠD ona
ĠD ON
Ġfa te
ten ze
ten denza
Ġsta zioni
Ġvi tale
Ġvi genti
Ġsp eso
Ġsp endere
Ġsp inta
Ġtra sc
ĠG ol
ĠG RA
ĠT ran
ĠB lu
Ġpar lano
Ġpar ziale
ĠF esta
ĠR onal
Ġdo ttrina
ĠE s
pa ri
Ġu tente
Ġu sate
me di
chi esta
du e
sti to
Ġpri vate
Ġli ce
gu ine
ĠV uoi
ĠV arese
zz ini
Ġco ver
cco li
Ġfi glia
Ġgra vitÃł
Ġapp ren
Ġapp aren
Ġdu rezza
Ġti ene
ĠIn contri
uni verso
uni ty
Ġar gen
Ġva da
per ta
Ġcor te
Ġsa pori
Qu indi
Ġcol onna
gra mma
glia mo
Ġto p
Ġto cca
Ġpres u
pe dali
Ġba tte
Ġdis cre
cca demia
vol ut
ba y
ĠPa dre
Ġpas ta
Ġser ver
Ġven dere
Ġacc on
Ġacc usa
ĠPer s
ĠPer tanto
Ġ5 6
Ġrisp osto
ess or
Ġindi ce
Ġmen sile
Ġforma tivo
tt ina
tt ino
Ġesp ressi
lizza ta
ĠCom pa
cch ino
ĠCa mp
ĠCa baret
ĠSe i
ĠSe mpre
ĠAl berto
ĠDi vide
ĠLe ague
sc oni
Ġpen na
omen ico
Ġfatto re
inis tro
Ġos pedali
ck et
mbi ente
Ġbu dget
pre ss
Ġdove va
Ġ7 70
Ġten endo
Ġsal one
Ġsal vare
Ġsal vata
AN I
ĠMar c
Ġon eri
Ġcri tici
Ġ8 88
Ġgo dere
Ġcontra tti
Ġaff atto
Ġprodu zioni
Ġprodu ttive
Ġscri tta
Ġsistema re
com merce
Ġgu ari
Ġrichi esti
Ġtras fer
Ġtras mettere
ĠRi cor
ĠPro poli
eli minazione
Ġass unti
Ġassi stere
ĠPo kÃ©
Ġr ulli
Ġsare i
ĠDa vos
Ġ18 0
ĠVi r
Ġasp i
ber t
Ġpe da
Ġpe pe
fini to
Ġfami liari
ser vi
Ġsoli darietÃł
ĠPre zzo
ĠTra ma
Ġcu ri
dica mente
ĠBa si
Ġinte g
Ġforni te
Ġforni tura
Ġgui dare
ĠUni versitÃł
Ġins omma
Ġlavora no
Ġlavora tore
Ġscon ti
Ġsignifica tiva
Ġann uncio
Ġfer mo
Ġag rico
Ġfas ti
cchia ta
Ġsenti rsi
Ġsan zione
Ġsan gu
Ġsan gui
Ġmas ch
ĠAr ticolo
AR I
Ġelet tori
EN ED
Ġnorma tive
Ġfron ti
ĠSal vati
ĠSal vini
ĠBi anchi
Ġconsidera ta
Ġsor pren
ĠPar ma
Ġfinanzia menti
rigi os
Ġapri re
Ġesa g
Ġesa uri
Ġdeter min
Ġstre ss
ass enza
Ġcompre ssione
Ġarti stico
ann ini
Ġbre v
Ġintegra ta
Ġuffi ciali
200 3
Ġblo cco
Ġblo ccare
Ġospi ta
Ġsegna li
Ġindica te
Ġrile vanti
Ġdol laro
Ġdimostra re
Ġdia logo
Ġconsegu ente
Ġcontinua mente
ĠBu ffon
Ġdetermina zione
Ġanima le
Ġproprie tario
Ġimm uni
gica mente
Ġgiornali era
Ġaiuta no
Ġdisa gio
CI VITA
Ġasse gna
Ġch issÃł
ĠInf ine
ĠInf rastrutture
Ġru b
Ġemer genza
ĠCri stina
Ġtesti monia
Ġidenti ficare
ĠCre ziato
bbia mente
Ġdemocra tico
Tu tti
inte sa
Ġinnova tivo
Ġsostitu ire
Ġmoder ni
Ġseleziona to
Ġinca pa
ĠAle x
Ġmuo versi
Ġaccompa gna
Ġbilan cia
Ġcomo do
ĠTri b
ĠTri sconi
Ġsche de
Ġsala rio
Ġverifica rsi
Ġcomin cia
Ġlegi ttima
Ġcrista ll
Ġcrista llo
Ġvas ca
Ġriserva ta
Ġscola stici
Ġregola mento
Ġpersonalizza to
Ġchirur gia
Ġauton omia
Ġsottoline are
Ġagg ressi
Ġprose guire
ĠSc ulto
Ġagi sce
Ġcele bre
Ġapprofondi re
Po i
Ġpan cia
Ġcondu ce
Ġciasc una
ĠFerra rio
Ġsottop osto
Ġtren d
Ġvir tu
ĠTh omas
Ġson no
ĠGior gio
ĠJa ck
Ġdiv ul
ash ington
Ġeccessi va
Ġreligi oso
Ġdele ga
Ġtelevisi va
Ġperman ente
Ġallu minio
Ġsimbo li
Ġugu ale
Ġricos tr
Ġricos truzione
gal lo
Ġpale stra
VE CCHI
ĠValen tino
Ġfree lance
Ġmul tinazionali
Ġimpro vvi
ĠRegi onale
Ġvisu alizza
Ġsoffer enza
Ġcostre tto
Ġaffida bile
Ġpall one
Ġout let
Ġmedesi ma
Ġindispensa bili
Ġrichied ono
ĠTech nosoft
Ġcancella zione
ĠLis bona
Ġmarket ing
Ġopini oni
Ġsorri so
ule tte
Ġdiam etro
Ġrit mo
Ġpilo ta
ĠBI AN
Ġdiscu tere
ERA LI
Ġtrien nio
Ġinsta llare
ĠDol cini
Organizza tore
Ġcomun ali
Ġmodu lo
ĠComple to
Ġossi geno
Ġsupple mento
Ġatmosferi ca
Ġfabb rica
Ġbiblio teca
Ġmetropoli tana
Ġvulnera bilitÃł
Ġrisie de
ĠSinda co
Ġocchia li
Ġvertica le
ĠAugus ta
Ġbolo gna
Ġoma ggio
ĠMIN ERALI
indiri zzo
SAMB ENED
ĠSchie vano
ĠPokÃ© mon
CIVITA VECCHI
SAMBENED ETT
CIVITAVECCHI ESE
* *
4 1
5 5
5 50
A s
A uto
A ss
A ggiun
A llo
F or
G B
M ANA
N C
N ess
R F
R oma
S E
S ca
S olo
S ORA
U VEN
a k
a ra
a ch
a gg
b ul
d ette
e ducazione
f un
g anti
l oni
m w
m eli
n ing
o tto
p et
p ment
r t
s ono
t uni
u do
u dica
u cro
v ello
v anza
x it
y ch
Â §
Ġ â
er rore
Ġc ure
Ġs orti
Ġs ingle
Ġp p
Ġp enti
Ġp ranzo
Ġa mma
re tto
in sieme
in tenzione
en ia
ti o
la m
la teria
ri ano
ri chi
el s
ra l
Ġe tta
Ġe bbe
Ġe tiche
an ese
an ge
Ġin qu
Ġin acc
Ġin telle
âĢ ĭ
Ġf la
Ġf um
es posizione
Ġper ce
Ġla sc
Ġcon vo
os t
os ser
qu attro
Ġg lo
Ġal tamente
ar le
ar ono
men sione
men tano
al tezza
di zioni
do re
ma co
Ġri di
Ġri evo
Ġri dotta
Ġri lievo
no w
ere i
ere te
Ġl os
ĠS O
ĠS uo
ĠS car
Ġpro cura
Ġpro lun
Ġsi cili
vi rus
ĠC I
ĠC e
ĠC in
Ġle zione
ĠP I
ĠP hi
ĠP esca
Ġse gni
Ġse cca
Ġse coli
pp ing
ĠM in
ĠM ess
Ġpre gi
Ġpre zioso
Ġre sa
Ġre tta
Ġre parto
Ġca vo
Ġca ttura
Ġca duta
ni ta
Ġh ome
is tiche
Ġma ri
ĠI VA
ĠA B
ĠA S
ĠA gn
ĠA tene
Ġso pp
Ġ( âĢľ
Ġ( Â§
ina rie
Ġfa u
bb y
Ġ2 50
Ġvi rus
ver s
Ġte si
ĠG lobal
ĠT an
ĠB is
Ġci fre
us s
us sia
Ġpar chi
Ġpar liamo
tan bul
enti al
cc anf
ĠR in
Ġdo lori
Ġdo loro
ĠN O
ĠN ess
Ġpa lazzo
Ġlo mb
Ġlo tte
Ġmi ele
Ġcos mo
Ġra m
Ġra cchi
go le
go glio
pa tia
Ġu sata
Ġme zz
ando si
Ġne u
Ġne w
Ġne ve
Ġne ws
Ġne ppure
âĢĿ :
Ġad do
rio sitÃł
ven tura
sti ma
Ġpri mis
Ġli ve
Ġli pos
sta no
ĠV ati
Ġess eri
Ġimp o
Ġsc en
Ġsc anda
Ġsc reen
Ġco tone
cco lata
ziona rio
Ġapp artamenti
ĠIn somma
ĠU dine
Ġno tato
Ġar mi
Ġsa i
ĠO b
ĠO rsi
Qu anto
anti ca
Ġcol la
Ġvol um
Ġto sc
Ġpres cri
ron ia
Ġtro ppi
Ġlavo rando
Ġba gni
Ġdis se
Ġbi ci
il lu
Ġ4 4
Ġver nice
ur re
Ġacc res
Ġ5 9
Ġinf ezioni
ttu ali
Ġman gi
Ġman cata
ĠAn gi
Ġforma tivi
Ġdire tti
Ġho use
ĠCa p
ĠCa gliari
uta ti
Ġcar d
Ġro ttura
ĠW a
ĠW il
ĠW eb
ĠW ashington
Ġpen sate
Ġau gu
Ġve glia
gn erÃł
Ġw oolrich
ĠJ un
Ġlib ere
st inare
Ġsen o
Ġsca mbia
Ġpia stra
ĠRe te
ĠRe volut
pri ma
inter pre
ĠMi li
ĠK al
Ġitali a
Ġmis ce
Ġsin er
Ġprog ettato
assi stenza
Ġten sione
Ġten denze
Ġsal do
Ġsal tare
Ġsopra vvi
Ġsicu ra
Ġcapi tato
ĠNa zioni
Ġarri vano
Ġpor re
Ġcri mina
Ġgu erre
tere bbe
Ġesi stente
ĠNon ostante
ĠLo car
Ġtor ta
ut y
Ġora rio
Ġsoci eta
Ġauto mobili
Ġdiven tano
pen sa
Ġvisi tato
Ġbiso gni
tor ni
Ġopera re
Ġass or
imp iego
Ġconten i
ĠDa ta
ĠDa vide
ĠSo prin
Ġgiorna le
Ġpe cu
Ġricor so
Ġsoli do
Ġrela x
ĠCo re
ĠFa mi
ĠFa tte
orre i
Ġcu cchia
Ġval utato
Ġuni ci
Ġuni versitÃł
Ġposi tivi
Ġappro fi
Ġ0 8
Ġraggiun ge
Ġpermet ter
Ġsetti man
Ġtrova ti
Ġvari ante
Ġdefini re
Ġfavo rito
Ġperf e
Ġmas ter
Ġpara metro
LI ONE
Ġsembra va
Ġprece denza
Ġriferi menti
ty le
Ġlin gue
Ġfis sato
ger ia
Ġesa me
ĠCar te
Ġstre tta
Ġcontrib u
Ġpron ti
Ġaffron tato
Ġconclu sa
ĠBo u
ĠBo ccanf
Ġmusi ci
ann ino
ann uncio
Ġgaranti to
Ar tico
Ġtanti ssimi
Ġassocia to
Ġassocia ti
Ġfisi ci
Ġbra ccia
Ġbra ccio
Ġruo te
Ġsce glie
Ġbar ca
Ġatte ggiamento
ĠCor san
Ġpreve dono
Ġfunziona re
Ġcin qu
Ġcin ese
Ġcompi uto
Ġtradi zioni
Ġterre moto
Ġsingo le
Ġpartecipa to
Ġriconos cere
ĠY ama
Ġcivi ltÃł
Ġbio logici
Ġrappresen tato
ĠÐ ¼
Ġdetermina ta
Ġdiff uso
Ġobbli ghi
Ġinteressa ta
Ġconsul enza
Ġinclu so
Ġpare te
Ġcoinvol gere
Ġspetta coli
Ġfavore vole
Ġemer ge
Ġazienda li
Ġdescri zione
Ġritro va
Ġcondivi sione
Ġimmedia to
Ġbri l
Ġrega lare
Ġcerti ficazione
ĠDu e
AM S
Ġelettri ci
Ġinvia to
Ġries cono
ĠGran di
Re pubblica
Ġtar ta
Ġriconosci uto
Ġreli gione
Ġpes ante
Ġcomin ciato
Ġeserci zi
Ġslo gan
Ġriserva tezza
Ġfed eli
Ġesegui to
Ġcontemporan eo
Ġsottoline a
Ġmedicina le
Ġsto maco
Ġprose gui
Ġcorrispon de
Ġgro sso
ĠMedi cina
Ġeste tica
Ġripro duzione
Ġteo ria
Ġteo rie
Ġconcer ti
Ġscienti fiche
Ġconven zione
Ġana boli
asse mblea
ĠMassi mo
Ġadd etti
Ġguada gnare
Ġdina mica
Ġdina miche
Ġtraccia to
Ġsfrutta mento
Ġenerge tica
ĠServi zi
Ġpassegg ero
Ġsho w
Ġdise gni
Ġdise gno
Ġinda gine
Ġmetter si
Ġpato logie
Ġarg omento
Ġsconfi tta
ĠJohn son
Ġosserva zioni
ĠSy stem
Ġrilascia to
Ġugu ali
Ġsess uale
Ġcatto lici
Ġsposta rsi
ĠMari ani
Ġinver nali
ĠSto cco
Ġallar me
Ġavversa ri
Ġsorpre se
Ġbattu ta
Ġmonito raggio
Ġpredi sp
Ġtedes chi
Ġrifer isce
Ġab usi
ĠSco pri
ĠMil len
Ġindispensa bile
ĠOs car
din anza
Ġlaure a
Ġalber ghi
ĠRom ano
Ġnatali zio
Ġsel va
Ġdecen ni
ĠUr b
amp ia
Ġpiaci uto
Ġfunzion ano
Ġrinuncia re
ĠMedio banca
Ġferrovia ria
atte sa
ĠCristi ano
ĠMos ca
Ġsotti li
Ġpunte ggio
quisi ti
ĠSaler no
Ġindivid ui
eventu ale
poni bile
Ã® tre
Ġbaga glio
Ġscambi o
Ġautomatica mente
Ġripri stinare
Ġverti ce
Ġespon enti
inde x
Ġflus so
Ġdebu tto
ĠInte gra
Ġveico li
Ġadegu ato
Ġlegger mente
Ġusu fr
Ġspiri tuale
ipo tesi
Ġfid anza
FER MANA
Ġagen zie
ĠMAG LIONE
ĠTas k
Ġeser cita
ĠMale sia
ĠRonal do
ĠBIAN CHI
SAMBENEDETT ESE
UVEN TUS
ĠAgn elli
ĠVati cano
ĠLocar no
ĠSoprin tendenza
ĠBoccanf uso
ĠCorsan ini
ĠYama ha
. :
6 7
8 2
8 7
A i
A u
A v
B ul
C L
C er
C os
C al
D A
E G
H P
I mp
L LI
L LE
N i
R K
R S
R a
T AN
V er
a da
b or
c uo
c esa
f y
f atti
g es
g ing
k u
k y
k istan
m l
m el
n al
o cchiata
p as
p us
r l
r landa
s um
u is
v re
v ente
Ã Ń
Ġ he
Ġc l
Ġc era
Ġs esto
Ġs essione
Ġs enatore
Ġa mo
Ġa eroporto
Ġa mbu
re l
in co
in ga
in ing
in vol
ti re
ti ti
ti po
ti zie
ti zzare
la ni
Ġdi la
Ġdi ciamo
ri torio
li che
li ght
te ttura
le y
Ġi stitui
ro l
Ġn etta
Ġn arra
si bile
Ġin no
Ġin cor
Ġin centra
Ġin tito
âĢ ²
ia le
Ġf inis
Ġf ette
Ġf ossi
Ġf rus
ca mento
Ġper altro
Ġcon forte
lo w
lo cu
lo gy
om are
Ġg ino
ar re
co lla
co lato
al ti
Ġqu inta
Ġqu egli
et tando
Ġri ghe
Ġri ass
Ġri tiene
Ġri sali
Ġo ve
Ġl on
Ġl ente
Ġsu cco
ĠS ve
ĠS tore
ĠS ette
ĠS tazione
ĠS tar
Ġsi licati
vi to
vi di
vi smo
Ġde p
Ġde cre
Ġde pressione
ĠC li
ĠC io
ĠC ru
ĠC ur
ĠC ard
ĠC lin
ĠC lub
mp lice
Ġle zioni
Ġle sioni
Ġan te
Ġan tin
Ġan golo
oni co
ch ina
ĠP R
ĠP il
Ġse zioni
pp are
Ġnon chÃ¨
Ġpre m
Ġre in
Ġre per
Ġre gno
Ġca mi
Ġca vali
Ġma gni
Ġma cro
Ġma rito
ĠA R
ĠL I
Ġpi zza
fi l
Ġso f
Ġso p
Ġso gni
Ġpo tassi
Ġ1 000
ĠD alla
cia ta
Ġfa cce
ten se
Ġsta gi
Ġsta bilitÃł
Ġsta tus
Ġsta tuni
Ġvi b
Ġsp en
Ġsp ru
Ġsp into
Ġtra ma
ĠG U
ĠT U
ĠT hi
ĠT omma
ĠB P
ĠB et
ĠB eni
ĠB anca
ĠB etSense
ui te
po int
us so
tre tto
Ġes or
ĠF ron
ĠF ort
ĠF edi
ĠF IL
ĠF ondo
Ġgi rato
Ġgi rata
Ġgi rone
cc one
Ġdo tazione
Ġdo tate
tri ca
Ġpa p
Ġpa la
Ġmi lan
ĠE conom
ĠE ppure
ĠE bay
Ġmo le
Ġmo rire
ru zione
ru zzo
gg ero
me dio
ando le
du m
pi ta
Ġli mone
sta ta
sta gram
Ġcomp ressa
Ġav essi
Ġco de
Ġco ppie
Ġinter c
ziona litÃł
ĠU e
ĠU craina
Ġno t
Ġar resta
Ġva cc
esso rato
Ġcor pi
Ġchi usa
ĠO re
ĠO ver
ĠMa uro
ĠMa uri
Ġ3 3
Ġ3 50
gra fiche
Ġvol ere
ele mento
Ġta sti
Ġta ppa
Ġcre sce
Ġto l
Ġto tali
Ġto ccare
ron Ãł
Ġtro verai
Ġba ckup
ĠH P
ese mpio
vol to
Ġna pole
Ġdisp oste
Ġver dura
ĠPa ra
am eri
Ġvo ti
Ġvo cale
ur b
Ġven duti
ed iamo
Ġacc re
Ġrisp etta
Ġindi menti
gia ti
ĠQu a
ĠQu ali
ĠQu anto
Ġman cano
ĠAn geles
ie ta
Ġspe dizione
Ġdire i
ĠCon tra
Ġesp lici
Ġpun tate
ĠCa tto
ĠSe conda
Ġfar la
Ġstra na
ĠAl cuni
Ġro tazione
Ġro bot
ĠLe one
ĠLe cco
ĠLe gge
Ġpen ale
Ġpen sando
Ġric ette
ĠSi ena
gn or
pra ttutto
ĠJ UVENTUS
at tre
ccia re
Ġera vamo
Ġsotto val
Ġcer cano
Ġpia tti
ĠRe gno
Ġatti mo
ĠK enne
Ġfo re
Ġbu co
Ġstori che
Ġ7 2
ĠGi Ãł
Ġten uti
Ġsal to
ssa mento
Ġben venuto
Ġben sÃ¬
Ġcal endario
Ġstu dente
Ġtre ni
Ġgrande zza
Ġfin anza
Ġpassa ta
Ġpassa te
Ġcri tiche
Ġ8 7
Ġsti pu
Ġconsi gliato
Ġsistema zione
Ġcondi zionata
it y
mar ca
onta ni
col tori
Ġtor nei
Ġtor neo
Ġora le
Se cure
ĠMo ra
ĠMo vimento
gre ssi
Ġdice va
and ante
Ġfe ce
Ġstati stica
mis mo
ĠSo ciale
ĠVi cenza
val ente
Ġporta no
ĠSa bato
lia ritÃł
Ġpe ccato
ĠDo ve
Ġdocu menta
Ġdocu mentari
pu glia
Ġfre tta
Ġqua ran
Ġrela tivamente
ĠCo vid
Ġgesti to
ĠFran ces
tero idi
ĠTra p
Ġcolle ttivo
Ġprote gg
ĠLi bri
Ġuni versi
Ġuni forme
Ġatten to
Ġatten ta
Ġatten tamente
Ġam ano
cra zia
Ġlega me
Ġterri toriale
ĠUni te
Ġsitua ta
Ġlavora tiva
Ġscon osci
cer ti
Ġsignifica ti
Ġsignifica tivi
Ġpermet tendo
Ġsenso re
20 20
Ġfer mato
Ġcorre zione
Ġdiffer enze
Ġbo tti
ĠAr ti
Ġpara dos
19 9
EN TE
Ġpreno tazioni
Ġsf ondo
Ġrivol to
ĠSp in
ĠSp esso
ĠLu glio
ĠLu ciano
Ġinten so
Ġaper tura
Ġconfer mare
ĠPar te
Ġpubblica ta
Ġfis so
Ġorig ini
Ġguida ta
Ġ199 7
Ġraga zze
Ġaffi dato
Ġge lato
ĠCar b
alle gato
Ġada tte
Ġcrea ti
Ġpron tamente
Ġcompre sso
ĠRa ffa
Ġtran ne
Ġpoten ti
Ġcap ol
ĠBer etta
Ġsuccessi va
Ġblo cca
Ġprepa rato
Ġtema tiche
Ġospi te
Ġsegna le
Ġsegna lare
Ġpote vano
Ġmeri di
Ġbra vi
Ġindica tivamente
Ġcampi oni
Ġtipi camente
Ġsinda cati
tic s
cche tti
Ġeventu ale
Ġameri cane
ĠÐ ¿
Ġavven tura
Ġdetermina re
Ġdiff usi
ĠSil via
Ġraccol to
Ġproprie tari
Ġconsul tare
Ġfotogra fo
Ġmus coli
ĠTer me
ĠTer esa
Ġru more
Ġrila scio
ZI ONI
Ġspecia litÃł
Ġstrate gica
Ġconc etti
Ġnote volmente
Ġrispon de
Ġado ttata
Ġriman gono
Ġpromo zioni
ĠFed erico
Ġcollega te
Ġcollega menti
Ġiscri tti
Ġinnova zione
Ġrifi uta
aren za
Ġscena rio
Ġprofi tto
ĠVer de
Ġincre mento
Ġincre mentare
Ġfenomen i
Ġgas tron
pren dere
Ġfed el
Ad visor
Ġmos sa
Ġobbliga zioni
Ġori zz
Ġori enta
ĠMas ter
Ġj a
mpre se
Ġcliente la
wa y
Ġpio gge
inf anzia
ĠMedi terran
Ġspeciali sta
Ġliqui do
Ġnecessaria mente
Ri cor
dri d
Ġturi stica
ĠMis s
Ġingle si
Ġfres ca
Ġcic li
Ġaspetta tive
epi sodio
op zione
Ġtren ta
Ġfarma co
Ġspecializza to
Ġvio la
Ġconver sione
Ġevol uzione
Ġmina cce
Ġimpedi sce
Ġracco glie
Ġavvia re
gri coltura
Ġlava ggio
Ġsuggeri menti
Ġepi sodio
Ġepi sodi
ĠDani ele
Ġquotidiana mente
Ġindu bbiamente
ĠPet ronÃł
Ġpiet re
Pi Ã¹
Ġperman enti
Ġallu ce
Ġdiscip line
Ġinn umere
ĠCha mpi
Bo ok
Ġriti ro
Ġcomba ttere
later ali
later ale
Ġcaro te
ĠBus iness
duca tion
Ġprecipi tazioni
Ġmana gement
Ġrim uovere
Ġpreventi vo
Ġvigi lanza
ĠVen dita
Ġchiu de
Ġsilen zio
Ġcanz oni
Ġraffor zare
ongo b
Ġcombina zione
Ġdri ver
Ġscio gliere
Ġassa i
Ġille ga
ĠBene detto
Ġstero ide
ĠDy bala
ĠRes ort
Ġimper mea
Ġtrasparen te
Ġsugger isce
Ġfr ui
ĠBel gio
illi am
ĠChia ra
ustra lia
Ġgenti le
Ġagri coltori
ĠPom pel
Ġpopuli sta
Ġstrani eri
Ex po
Ġriven di
box ing
Ġpelli cola
Ġrimbor so
ĠOffi ce
Ġcartu cce
Ġprovvedi menti
Ġspet tro
ĠSicu rezza
avan guardia
Ġceri monia
Ġtranquilla mente
Ġtetraed ri
ĠBaia rdi
Ġindesidera ti
Ġdormi re
intro duzione
ĠiP hone
ĠKer Äį
Ġlenta mente
Ġtramon to
Ġprescin dere
allar me
ĠCis l
ĠMontana ri
ĠDON NA
ĠBasi lica
Ġfasti dio
ĠTrib unale
ĠAngi olini
Ġtarta ru
Ġusufr uire
ĠClin ton
ĠFIL M
Ġmilan ese
ĠKenne dy
Ġinnumere voli
ĠPompel mo
" ).
. ),
4 9
7 4
8 9
? !
A I
A ssi
A ccademia
C h
D O
E mi
F in
F orse
G ia
G rande
N V
N e
N elle
Q ui
R U
S co
S iamo
S ulla
T e
U D
U N
U no
a la
a genzia
a pposi
b n
b el
b ono
b rio
c m
c une
c elle
c uno
c toria
c fr
c troni
d ash
e uro
f u
f ino
f essi
f etta
f res
g ol
i tali
j an
o f
o t
o la
p etta
p assi
p Advisor
r ra
u li
v estre
w ing
x t
z er
z ziamo
Ñ Į
Ġ %
Ġ q
Ġ 00
Ġ !!!
Ġd ero
on es
on endo
on cini
er um
Ġs ano
Ġs fa
Ġs orte
Ġs vanta
Ġs inistro
Ġp h
Ġp ali
Ġp etto
Ġp esi
Ġa f
Ġa mare
Ġa fri
in cre
in den
in vio
in verno
la s
la y
Ġdi to
Ġdi rlo
Ġdi segna
ri ti
li evi
Ġe ducazione
le ss
le gge
un no
Ġi tinera
ro si
ro cco
Ġn er
Ġn ar
Ġin utili
ia li
or ri
Ġf lu
es tensione
Ġv ini
ca go
Ġper m
Ġper che
Ġla ma
Ġcon dotto
Ġcon dotta
Ġcon viv
os se
os pi
os are
lo ga
lo chi
lo ok
Ġg el
Ġg omma
ar y
co re
co in
ci da
ci ando
al lora
al tron
Ġqu ante
do io
Ġri metter
Ġo cchio
so re
no logy
Ġl enti
gi l
ĠS E
ĠS el
ĠS ol
ĠS ale
ĠS ele
ĠS tate
ĠS mart
Ġb ol
Ġb uro
Ġb olle
Ġpro pa
Ġpro ssime
Ġsi tter
ol to
vi du
Ġde bi
Ġde gus
Ġde viazione
ĠC O
ĠC OR
ĠC ity
ĠC gil
sa mo
Ġcom ando
Ġle tture
gli ese
bi ke
ce a
ĠP elle
ĠP arti
Ġse te
Ġse dute
as tica
ĠM ana
ĠM ulti
Ġpre ven
tra verso
vo rio
Ġre le
Ġre pubblica
Ġca tene
ni ci
is tico
is titu
Ġma gia
Ġma tch
Ġma Ã®tre
ĠI F
ĠA V
ĠA sia
ĠA pix
ĠA AMS
era tore
ĠL and
na tura
Ġso gna
de gna
de vole
mi li
ina li
ĠD ri
ĠD OC
ĠD omenico
Ġfa me
tro po
Ġvi so
Ġvi tto
tta te
Ġtu more
ĠG in
ĠG aming
ĠT ar
ĠT oni
ĠT ru
ĠT ed
ĠT acc
ĠB atti
ui ld
Ġci tato
us colo
Ġes ce
Ġes tiva
Ġes tivo
ga mento
ga mon
ul t
cc ome
ĠR app
ĠR isto
ĠR OM
ĠR erum
Ġdo wnload
ĠN A
ĠN um
Ġpa lo
Ġpa tto
Ġpa rigi
Ġpa gato
Ġpa tria
ino la
Ġcos te
ĠE D
ĠE ssa
Ġra gi
Ġra zzi
Ġmo re
pa razione
Ġme zza
Ġme teo
du ci
Ġad den
Ġfor mano
pi Ã¹
zia mento
sta zione
cu la
cu ro
Ġcomp or
ĠV edi
Ġimp one
Ġimp ie
Ġimp lica
Ġsc ende
Ġco pri
Ġco gliere
Ġco dici
Ġinter val
Ġinter iore
Ġfi anco
fica zioni
Ġ- .
Ġapp li
Ġapp osta
Ġapp ari
Ġdu p
Ġdu re
ĠIn stagram
ĠU li
ĠU mi
Ġar ra
esso ri
per iamo
Ġcor teo
Ġcor nice
ĠMa tti
ĠMa ggi
ĠMa drid
ing s
gra fo
Ġta glia
Ġlavo razione
pe a
bo ur
etta bile
ese cuzione
Ġna zione
Ġna so
ste in
Ġver go
Ġver dure
ĠPa la
ĠPa ul
am es
tel o
Ġven t
Ġven dite
Ġ5 3
Ġ5 30
ess ante
Ġgen eri
ena mento
res samente
forma zioni
Ġinf l
ane simo
Ġtutto ra
Ġman uale
ĠCon tro
Ġesp ressa
Ġesp ressamente
via to
ĠCom unale
Ġfar vi
ĠAl tro
Ġcar c
ĠDi mensione
Ġpubbli care
Ġro ves
Ġservi re
Ġservi ta
Ġpen et
Ġve da
gn ando
Ġw ord
Ġdov ute
Ġprodo tta
ĠJ Ã¡n
Ġsen z
Ġsca l
Ġsca denza
mina ti
Ġpia zze
Ġos se
ĠRe a
inter ro
inter essa
Ġvis te
ĠMi che
Ġatti rare
Ġcomple tare
rsi oni
tua to
Ġprof essione
Ġga tto
Ġga me
Ġga mba
Ġten er
tr ino
tr Ã²
Ġsal di
Ġspa ven
Ġlun garno
Ġcal l
Ġcal cola
titu dine
Ġbene ficio
ĠMar k
Ġarri vati
Ġarri verÃł
Ġcan tante
Ġcan cro
Ġ8 6
Ġsti ma
Ġaff ari
esi tÃł
Ġconsi stenza
Ġgu ardi
ĠRi ch
Ġfu ture
ĠLo gi
Ġinforma zione
Ġdiven ne
Ġdiven tata
Ġvisi bilitÃł
ĠMo re
Ġconos cono
Ġdom estici
tten imento
Ġass ur
Ġass orbi
Ġassi stito
ĠPo ker
Ġfoto camera
ĠCi rÃ²
ĠCi vile
Ġ18 5
ĠVi ta
ĠVi ene
ĠVi ctoria
gen ziale
ber g
Ġpren dersi
Ġcli cca
Ġele vata
ĠChi cago
Ġcontinu ato
ĠCo rea
ĠFa i
Ġedi ficio
gh er
Ġanti chi
fo to
Ġmod erata
Ġprote zioni
ĠLi turgia
Ġuni ti
Ġuni versale
Ġposi zioni
Ġinte sa
ĠNo var
Ġforni tori
Ġatten ti
Ġaggiun gono
Ġconse cu
Ġ0 7
Ġlega mi
Ġterri bile
ĠUni to
Ġscon tro
Ġlimi tro
Ġmolti plica
Non ostante
ĠCas tello
Ġvari ano
Ġvari are
Ġcorre tte
Ġag ron
Ġdefini tivamente
ĠMon cler
quad ra
Ġclassi ca
Ġclassi fiche
Ġbo x
Ġpara ll
Ġami che
Ġelet tro
Ġutili zzano
Ġaveva mo
Ġcitta dinanza
Ġrivol ti
ĠSp or
ĠSp inola
ĠBi bbia
ghe se
ghe zza
Ġabi ti
Ġis tan
Ġconfron tare
Ġautori zza
bbi e
Ġrice ve
ĠTo ur
ccol Ã²
Ġsor veglianza
Ġtemp esti
unta menti
Ġfis sa
av vio
tar lo
Ġmanif esto
Ġcrea tiva
ĠBo ok
Ġimpe gnato
ĠX X
ĠX VI
Ar te
ĠTe mpo
Ġintegra to
Ġassocia te
200 5
200 6
Ġindica ta
ĠCos ma
Ġcampi one
Ġoffer to
Ġus ando
Ġrile vanza
Ġsensi bilitÃł
Ġlan ciare
th er
Ġpuli re
Ġpuli to
Ġtipi che
Ġaggiorna ti
Ġsosten uto
Ġdimostra zioni
Ġdia gnosi
Ġdia gnos
Ġspor tive
Ġpol lici
Ġved ono
ĠBu dini
ces puglia
ĠSil vio
Ġamministra zioni
Ġimm ersi
ĠSer ver
Ġquotidi ani
ĠEn rico
ĠPri mo
Ġspetta colare
Ġrapi do
Ġquad ri
Ġmatt ino
ĠSci enza
Ġdescri tto
Ġproba bile
Ġcondivi so
Ġpaga menti
Ġimmedia ta
Ġmal ware
land s
ĠGiu gno
mag es
ĠCre do
Ġriten uto
ĠMol ti
Tu ttavia
Ġbri dge
Ġfaccia ta
Ġcaratteri zza
Ġbe v
Ġinnova tive
var ci
Ġcerti ficato
Ġres tri
mmo bile
Ġresi stere
ĠIs tanbul
ĠNi kon
ĠNi ccolÃ²
Ġfeli citÃł
Ġcomo damente
Ġcoper to
Ġtrasforma re
Ġvaluta zioni
Ġsche ma
Ġcamm inare
Ġpes ca
Ġpis cine
Ġglob alizza
Ġordina rio
Ġscola stica
Ġsom ministrazione
Ġfed erale
Ġschi era
Ġmos tre
AL MA
Ġagg ra
ĠIo T
Ġcompleta mento
Ġrisol to
Ġsepa razione
Ġcorrispon denza
entra ta
Ġcata lano
Ġassicu rato
wa ys
Ġecce zione
Ġapprofondi mento
Ġapprofondi menti
ĠSca rica
ĠOr lando
Ġriporta ta
Ġpartner ship
ĠAndre ini
Ġlar ga
Ġrico perto
Ġfru tti
Ġsottop osti
ĠGen erale
ĠBor sa
Ġadd om
Ġzucch eri
aper to
Ġdirig enti
Ġvir tÃ¹
Ġaccor di
ĠStu di
Ġrespi ratorie
issi mi
Ġcoordina zione
Ġquarti eri
Ġpad rone
ĠServi zio
Ġconcre ta
ĠEx press
Ġincontra to
Ġcircon da
Li b
Ġimprendi tore
Ġabband onare
Ġtelevisi vo
Ġaere e
Ġdenuncia to
Na poli
Ġottima le
Ġtradu rre
Ġgeo ide
Ġrus so
eserci to
Ġsolle ci
Ġgall eria
Ġsping e
Ġveni va
Ġaccessi bile
Ġtestimoni anze
Ġmeravigli oso
Ġmonito rare
Ġtatua ggi
vang el
quo t
Ġcaval ca
Ġripren dere
Ġraffor za
Ġelettroni ci
PU B
ĠGri llo
Ġferi te
Ġgus ti
Ġsemb rerebbe
ĠLin k
ĠFili pp
Ġcompagni e
ĠNort on
Ġpaesa ggio
ĠOs mani
Ġalber go
ĠLui gi
Ġdiplo ma
ĠSigno re
Ġmagistra ti
Ġconfor mitÃł
aly tics
Ġappa rire
Ġtab ella
Ġcarro zz
Ġlung omet
Ġlung omare
Ġpericol osa
Ġono re
Ġinfor marsi
Ġprofonda mente
Ġaro mi
ĠGeno va
Ġentusias mo
Ġriguard ante
Ġges tore
cir ca
ĠBea ch
Ġmonu menti
Ġpuni zione
ĠPrin cipe
ĠITA LI
Ġinsegn anti
ĠNu tri
Ġcorto met
Ġcostu me
mbur go
Ġfragi litÃł
osteni bile
Ġnottu r
Ġpsicolo gia
obbli go
oshi da
Ġposse dere
Ġcentroca mpo
Ġbiancon eri
ĠPie mon
Ġmasch era
ych elles
Ġvolum et
Ġconforte vole
Ġpotassi o
Ġstatuni tense
ĠMauri zio
Ġindimenti cabile
ĠCatto lica
ĠMediterran eo
ctroni c
vestre lli
altron de
ĠTacc ini
ĠJÃ¡n oshida
ĠNovar um
Ġdiagnos tica
) )
0 8
3 9
5 6
6 1
8 5
9 00
A A
A ve
A frica
A mbro
A mministrazione
B io
D ire
D alla
E LL
F er
F OR
I X
L u
P resso
R in
T T
T V
V ER
Z Z
a ggiorna
a gricoltura
b en
c ti
c loro
d ella
e m
e co
e mail
e fficienza
f li
f iore
g anza
i le
i es
i mb
i mmobile
l ui
m iamo
n ano
p to
p hia
r d
r s
s ma
t Bo
u va
u ccio
u cci
v or
v etta
w an
x y
x elles
y e
z ina
z ano
Å Ĥ
Ð ²
Ġ <
Ġ eri
Ġ omo
Ġd osa
er io
er oll
Ġc anta
Ġs li
Ġs menti
Ġs tore
Ġs anto
Ġs tr
Ġs quali
Ġs varia
Ġa er
Ġa cu
in tra
in cia
in go
in telli
ta ggio
ta tiva
ta tivo
ti litÃł
Ġdi da
Ġdi rÃł
Ġdi rti
ri duzione
ra do
li to
li ps
Ġe poca
te mi
le si
Ġm esti
Ġm orta
Ġm utazione
an sione
an dare
ro s
ro ri
ro ssi
ro vvi
Ġn n
zi de
zi ando
si gato
Ġin as
Ġin centi
Ġin gius
Ġin utile
Ġf razione
Ġf olli
Ġun dici
es cono
ca o
ca tore
ca st
ca rsi
Ġper de
Ġper tin
Ġper ple
Ġper mea
Ġla tto
Ġcon vi
Ġcon tanti
Ġcon cessione
os titu
Ġg g
Ġt ono
Ġt inte
Ġt hat
Ġche ck
men si
al di
al ter
di ana
ma le
Ġri to
Ġri per
Ġri sale
Ġri entro
Ġo tta
ere bbero
Ġl ontana
Ġl ontan
gi an
gi bile
Ġsu r
Ġsu oni
Ġsu pre
Ġsu sci
ĠS m
ĠS era
ĠS pi
ĠS AN
Ġb ere
Ġb ura
Ġb ea
Ġb est
Ġb mw
Ġb inarie
Ġpro venire
vi c
vi do
vi sto
Ġde fici
Ġde cine
Ġde bba
ĠC M
ĠC el
ĠC erca
mp ia
Ġle tt
Ġle ttore
Ġan ten
Ġan alizza
Ġan tiche
oni che
ter Ã²
ĠP al
ĠP eso
che tta
as on
da ie
da frica
ĠM y
ĠM one
ĠM ani
ĠM ura
ĠM AR
ĠM annino
Ġre c
Ġca vi
ni e
is sione
ĠI V
tti co
ĠA M
ĠA bb
ĠA gen
ĠA be
ĠA viv
ĠL ascia
na pa
fi li
mi gi
mi ttente
Ġpo eta
uo lo
ĠD etro
ĠD alle
ĠD IA
ĠD omini
ran di
ran ce
sp ica
Ġfa ranno
Ġfa mosi
zza tura
Ġvi vendo
Ġsp in
Ġsp un
Ġsp unti
Ġtra tte
Ġtra duzione
tta ti
ver lo
ver anno
Ġte laio
ĠG al
ĠG all
ĠG eo
ĠT am
ĠB li
ĠB res
ĠB ull
Ġci lin
po ker
enti eri
Ġgi ra
cc ano
cc essi
ĠR ome
Ġdo tata
Ġdo dici
ĠN un
ĠN iss
Ġpa usa
Ġpa tch
Ġlo go
ĠE in
ĠE PUB
Ġra zza
Ġra ddo
Ġra ssegna
mb er
mb ri
mb assi
go lare
Ġpos teriore
gg etta
âĢĿ )
ero si
gu ria
Ġcomp ra
Ġcomp arto
ĠV an
ĠV is
zz etta
Ġav veni
Ġco ra
Ġco up
Ġinter locu
glio ppo
fica te
Ġapp re
Ġapp ello
Ġapp eti
Ġapp untamenti
ĠLa b
ĠLa go
ĠIn stitu
ĠU V
Ġar cheolo
per s
Ġcor ro
Ġchi use
Ġchi edo
ĠO ne
Ġter mico
Ġris co
Ġris arci
Ġcol onne
Ġgio cato
zio tti
gra fie
Ġvol ti
Ġvol entieri
Ġto ll
Ġto gliere
Ġpres tare
Ġba sato
Ġba sata
Ġdis tante
ĠH y
ĠH ol
ĠH as
Ġbi g
Ġbi cic
ba te
ba bile
ss on
ss ere
Ġdisp osti
Ġver b
Ġver sare
ĠPa so
ĠPa tri
Ġvo ta
Ġser io
La vo
Ġven nero
ura ta
orta zioni
Ġrisp e
der li
indi ce
ĠAn ti
Ġforma ti
Ġforma tiva
Ġforma tive
ie te
ĠCon ta
lizza te
via ta
Ġfar mi
Ġfar ine
uta ta
Ġcar dio
Ġro mpi
Ġro ssa
ĠW illiam
Ġconf eri
ĠLe on
ĠLe ggi
ĠLe cce
In terno
Ġpen isola
Ġric re
Ġric che
ĠSi mone
st s
at le
at ch
ggia menti
ccia to
Ġvita mine
Ġsca tto
Ġsca rico
Ġsca ttato
Ġregi sti
Ġcer chi
olo gica
Ġ6 7
Ġ6 8
Ġos cura
Ġos pedale
ĠRe la
pri le
ĠMi glio
Ġatti vare
Ġacqu i
Ġcomple te
ck boxing
Ġbu t
Ġsos tiene
Ġprof essor
Ġlegg enda
Ġ7 1
Ġ7 8
Ġ7 9
Ġfra ti
Ġ200 2
mer si
Ġten denti
Ġlun a
Ġben zina
Ġcal di
Ġpotre sti
Ġpotre mmo
Ġnum erica
Ġcapi tano
ĠMar che
ĠMar tini
Ġarri vi
Ġdes tino
Ġpor tali
Ġcan tina
Ġfin estre
Ġ8 2
Ġ8 3
Ġ8 9
Ġ8 00
guar dare
Ġsti mato
Ġrip ortare
Ġcontra ddis
Ġscri tte
Ġpartico lar
Ġtras messo
ĠPi ero
ĠPi ppo
Ġattra rre
ĠRi ca
Ġmili one
Ġfil tra
Ġesi stenti
Ġsuper fi
ĠLo tus
Se i
Ġauto bus
ĠPro gramma
lori de
and one
ĠPo po
imp rendi
Ġsempli citÃł
Ġconten to
Ġconten ute
Ġfe gato
Ġricerca tore
Ġproblema tica
ĠCi ttÃł
Ġsare te
ĠSu dafrica
Ġ9 00
ard en
stra da
Ġstan do
Ġgiu ris
Ġtito laritÃł
ĠVi ttorio
Ġinizia ta
gen da
Ġporta le
ĠSa cco
Ġren dendo
ĠDo gs
Ġcli ccando
fini zione
Ġcorpo ra
Ġconta gio
Ġand ranno
Ġricor re
Ġsoli tudine
bre se
Ġedi tori
Ġevi denza
ĠFran k
gh ero
Ġpra tici
Ġmod erati
mon d
Ġcolle gato
Ġcu po
Ġcu riositÃł
Ġuni che
Ġvin ce
Ġvin coli
app ello
Ġposi tiva
ha i
ĠNo rel
Ġspesso re
201 7
cra tico
Ġ0 6
Ġlega li
acqu isi
Ġacquis tando
den tali
Ġlimi tata
Ġmolti ssime
ea mente
Ġop zione
Ġrin tra
Ġrin fres
Ġfer mare
Â° .
Ġdefini tivo
âĢľ .
Ġsvol ti
Ġsvol gerÃł
Ġperf etti
Ġgioca tto
Ġsenti menti
dre a
Ġbo dy
ĠAr chi
Ġide ali
An cora
An tonio
Ġgia ppone
Ġquo te
Ġpreci samente
scri zione
Ġcostitu zionale
Ġsf al
Ġinten zione
ĠBi anca
ĠBi sigato
ghe tto
Ġabi tazioni
Ġdif etti
IN O
Ġaper ti
Ġperio dicamente
Ġrice verÃł
ĠTo di
Ġconfer mando
Al le
Ġsor gente
Ġfuori escono
ide ale
Ġpubblica mente
Ġmano vra
Ġsci enzia
av versario
Ġim migra
Ġani me
ĠMe glio
Ġrif u
Ġcuo cere
Ġstre ttamente
Ġnas cere
Ġaffron ta
Ġcompre se
Ġcap isce
ĠBer ga
Ar ticolo
Ġintegra re
Ġtanti ssime
ĠPu tin
200 1
Ġavvi o
Ġsegna la
Ġfisi camente
cher anno
Ġrappresenta zione
Ġbra no
Ġstudio si
Ġcommer ci
Ġtorna to
Ġtesta to
Ġbian chi
Ġprom ossa
Ġterre ni
OS T
Ġpuli ta
lle la
Ġacco gliere
Ġtipi co
Ġsinda ci
Ġsinda cato
Ġsinda cali
Ġpari tÃł
ĠâĤ¬ .
tag ne
Ġdiffici lmente
Ġspor tivi
Ġtecnologi che
Ġrappresen tante
Ġcel ia
Ġfanta stica
Ġeffica cia
Ġved remo
ĠBu on
ĠSil vestrelli
Ġraccol ti
Ġamministra tori
Ġobbli go
Ġgiornali sti
Ġinclu dere
Ġcoinvol to
Ġcoinvol gimento
Ġmus colo
Ġesclusi vo
ĠQ uo
Ġdisa bilitÃł
Ġprov viso
Ġprov vedere
son almente
Ġminis teriale
Ġeffettua ti
ĠCen ter
Ġmusica li
Ġistitu zionale
ĠSci enze
Ġidenti ficato
Ġmeta fo
Ġcro sta
tia zide
Ġsegre ti
land ese
Ġosser vare
Ġtal enti
Ġscoper te
Ġgara ge
Ġriten uta
Ġfur gone
ĠFed er
Ġcompet ente
Ġcollega ti
Ġcaratteri zzata
ins erimento
inte grazione
Ġconn esse
Ġstraordina ri
Ġcellu lite
ĠCal cio
Ġscena ri
ĠSte f
Ġprovo care
Ġincre dibili
Ġcoper tina
Ġcollo camento
Ġgiudi zia
Ġriconosci uta
Ġestre ma
Ġcompon gono
Pa ra
ĠJu ve
Com menti
Ġvas to
pren do
Ġleader ship
Ġconvin to
Ġconvin zione
Ġrep ort
Ġori entamento
Ġdeposi ti
Ġinfer iori
Ġgro ssa
Ġnavi gare
inf luenza
Ġfam ose
Ġelabo rato
Ġelabo rati
Ġturisti che
Ġliqui da
.... ..
Ġstudia to
Ġpan china
Ġcondu rre
ĠSca rama
Ġsottoscri zione
Ġriporta ti
Ġriporta te
Ġscienti fico
Ġsani taria
Ġpiani ficazione
Ġurb ano
Ġbor ghi
Ġrecupera ta
Ġsfor zi
ĠBre xit
Ġaspetta no
Ġbal ne
Ġchied ono
Ġgoverna tore
Ġdina mico
Ġconfi gura
ĠColo mba
issi ma
inn astica
Ġvice presidente
Ġespri me
Ġgre ca
Ġgre co
Ġcommis sioni
Ġfattura to
ĠNet fli
ĠInterna zionale
Ġsviluppa tori
Ġinda gini
ĠSch ool
Ġavvia to
ĠKi B
anzi tutto
Ġconsoli dare
Ġcirc ostante
!!!! !!!!
Ġtorn ano
Ġtelevisi vi
Ġsuggeri mento
attu azione
Ġocc or
ĠEli sa
Ġprogressi vo
Ġassum ono
ĠSuper bike
ĠPet ya
Ġperi feri
Ġmuse o
ĠMuse i
Ġcatto lico
ĠFre gene
Ġampia mente
Ġadegua ta
Ġriuni one
Ġeviden zia
Ġmone ta
Ġmone te
Ġgall erie
ĠBas ta
Ġapposi tamente
Ġaccumu lo
Ġdecora zioni
ĠPla y
Ġimpro babile
Ġchiu dere
Ġvisu alizzare
Ġconqu ista
asci mento
Ġcompeti zione
Ġpsico logico
Ġcosid detta
Ġarro ton
Ġstero idi
Ġimb alla
ĠDam is
ĠEl ena
Ġesplo rare
ĠProf essi
ori entamento
Ġrib elli
Ġrit mi
Ġcapitali smo
Ġfarmaci sta
Mol to
ĠCons ul
Ġcostitui ta
Ġcostrui ta
usse mburgo
ĠOut look
Ġidra u
Ġinnamo rato
Ġaccol to
Ġinevita bile
Ġripe ti
Ġimposta zioni
ĠInforma tion
ĠCara binieri
Ġconfli tti
Ġriguard anti
Ġdiffon dere
Ġaffascin ante
ĠSar degna
Ġproi etta
Ġrepubbli cano
Ġriscal damento
Ġguard ando
Ġabitu dini
ĠPubbli ca
Ġdisabili tati
Ġiner enti
Ġintelli gente
Ġbos co
Ġproto collo
Ġsimu lazione
Ġfili era
ĠLavo ro
Ġindire ttamente
Ġlibr eria
Ġdifenso ri
Ġcapolavo ro
Ġtranquil litÃł
Ġdin torni
Ġglu tine
Ġrista bili
Ġhi gh
ĠAsso cia
ĠUmb erto
Ġprogetta zione
omici dio
Ġartifi ciali
Ġconcessi ona
fle x
Ġcere ali
Ġseggi olino
ĠFar go
ĠOsti ense
ĠDevelo pment
ĠPuli zie
Ġsovrapp eso
occupa zione
Ġpetro lio
Ġghi andole
ĠML N
Ġcorona virus
Ġtossi co
Ġabba ttere
ĠBarba ra
Ġraffre ddo
Ġcrona ca
Ġpresu pp
Ġbrev ettata
Ġsettiman ale
Ġcinqu anta
invol ucro
Ġantin fiamma
Ġsof istica
Ġsop ran
ĠFrances ca
ĠChampi ons
bn b
istitu to
ĠUmi ditÃł
cespuglia tore
Ġglobalizza zione
ĠFilipp is
aggiorna mento
cloro tiazide
tBo x
Ġlatto sio
napa c
ĠDetro it
ĠNiss an
Ġrompi ghiaccio
Ġcontraddis tin
ĠNorel co
Ġgiappone si
ĠNetfli x
