#version: 0.2
e l
n o
s t
Ġ l
o r
Ġ e
l i
s i
n e
t t
c h
m e
n a
p e
r o
l e
i a
c a
n i
s e
s o
Ġ t
m a
Ġ u
d el
z i
Ġ del
Ġ r
ch e
pe r
d a
â Ģ
Ġ f
i l
v e
zi o
c i
p o
n d
Ġ per
Ġl a
m o
p r
q u
c e
i t
s a
p a
Ġ g
me n
Ġ il
Ġ che
men t
o l
v a
âĢ Ļ
Ġ da
m i
s u
Ġ qu
v i
Ġ d
st a
Ġ se
zio ne
l l
z a
Ã ł
Ġu n
Ġ si
Ġr i
Ġ o
Ġ so
Ġd e
Ã ¨
Ġ no
g i
Ġdel l
Ġ su
p ro
p i
pr e
Ġ b
u r
Ġ Ã¨
Ġ ma
Ġ pro
Ġ n
Ġ ca
Ġ C
Ġ S
Ġ pa
Ġl e
a tt
l t
r t
Ġ po
g li
u t
s si
i e
nd o
tt o
Ġ P
o m
l o
s c
Ġu na
b i
Ġ mo
Ġdell a
st r
ve r
Ġ h
Ġn el
Ġ M
v o
Ġ pre
f i
ll a
st i
tt i
a d
Ġno n
Ġ A
Ġt e
Ġ I
Ġr e
Ġ L
n g
ment e
or e
t r
Ġt r
c om
st o
a c
or i
n za
Ġ me
st e
Ġ pi
a li
i r
or t
Ġh a
c u
t Ãł
Ġ com
z za
Ġf a
g e
s so
c ol
f e
s se
g gi
g a
ur a
ment o
Ġ vi
u o
b b
Ġ 1
o ne
Ġd o
Ġ 2
d o
Ġ mi
i m
Ġg i
Ġ (
Ġ ci
pr i
u a
Ġqu e
Ġ sta
Ġ D
n no
or a
tt a
c ia
a m
Ġ âĢ
Ġ v
zio ni
Ġ sa
Ġ G
o me
Ã ¹
u n
Ġde i
i s
Ġ B
Ġ T
nd e
na t
Ġso no
it a
Ġqu a
Ġ R
ch i
a p
s sa
Ġ ne
tt e
Ġpi Ã¹
p ort
n che
Ġ F
Ġf i
nd i
Ġt u
ca t
o no
a lt
r r
u e
l le
Ġg r
a nche
n da
a lla
s pe
n c
Ġ N
c ome
Ġ E
Ġ im
a i
Ġ alla
Ġ come
Ġ anche
a ll
str a
Ġdel le
ir e
Ġpa rt
t ro
Ġ ve
Ġ pri
Ġ ad
it o
e ne
Ġ sc
z ia
c or
Ġtr a
n si
c r
Ġl o
âĢ Ŀ
Ġ all
p u
Ġ va
0 0
a no
o ni
Ġ cu
Ġ att
Ã ²
a zione
ut o
Ġ V
i ca
Ġnel l
Ġl i
bi li
Ġ m
a le
n tr
or o
ĠâĢ ľ
Ġ ac
i c
r ia
n f
g r
el e
Ġsta t
Ġ ce
Ġ alt
sse r
o t
na le
Ġ pu
z o
Ġg li
bi le
ĠM a
Ġe d
e t
ol o
ma t
e d
Ġqu el
Ġgr a
i va
p ia
b r
Ġ col
r Ãł
ve n
l u
Ġf or
n tro
Ġb a
s ci
Ġ cr
a lle
z e
e a
a nno
ia mo
fe r
a v
Ġ ap
g o
Ġque sto
sser e
ĠL a
g ia
Ġda l
se n
s ce
na li
Ġ pe
Ġse m
port a
Ġ U
0 1
n ni
ca r
ment i
g ni
Ġ spe
u d
it Ãł
f f
un t
me r
Ã ©
Ġ ai
sen t
ol a
Ġe ssere
i d
Ġt a
f fi
Ġnell a
Ġ ver
g no
Ġ alle
ggi o
Ġfa r
Ġse r
h e
Ġ st
i ni
ol t
ĠC o
ur e
na r
ven t
Ġmo lt
e bb
Ġr a
ĠC a
gli a
u ro
ic o
Ġ O
Ġpart e
i ndi
g ge
b a
rt i
Ġcu i
n ce
ĠI l
b e
pa r
ch ia
zi e
Ġ 3
. .
zza t
Ġ vo
Ġpa r
Ġper so
Ġf r
Ã ¬
ni t
Ġ -
ebb e
i nf
Ġ cor
ĠP a
it e
ne r
Ġt ro
Ġn uo
cat o
Ġd is
Ġl u
i na
i li
p li
Ġ2 01
Ġsu o
it i
Ġ av
gli o
Ġgi or
str u
Ġsi a
Ġla v
Ġ "
ut a
g na
Ġsu l
si t
el l
ĠâĢ ĵ
i vo
a ver
va t
i ci
Ġ inf
r d
i ng
Ġ pia
ĠI n
Ġalt r
m po
ali a
o s
a nni
Ġha nno
att o
Ġda lla
c ono
ĠS e
u ni
Ġgi o
ch ie
ĠS a
Ġ H
z zo
Ġt i
f fe
n zia
ĠP e
I l
qu e
a b
Ġde gli
per a
s po
st ro
n se
Ġso lo
ch Ã©
bb li
Ġtu tti
o li
p unt
si one
L a
p po
r ca
n ci
n ze
) .
Ġg e
Ġ anni
i ce
el lo
Ġ Q
el li
c c
att a
or ia
Ġpri ma
Ġ or
nat o
Ġ am
att i
col a
a bb
el a
Ġpo ssi
Ġu t
i vi
e nza
Ġ ste
d u
Ġd ue
Ġf o
n sa
Ġl oro
o ntr
ut i
Ġqua l
Ġmolt o
e s
li t
nde r
) ,
p le
Ġ chi
Ġe r
Ġsem pre
ell a
i no
gli e
Ġ 4
a s
o ntro
o sa
Ġstat o
Ġque sta
Ġca r
att e
fi ca
Ġpu Ã²
Ġf e
ĠS t
i ver
l mente
a rr
Ġ 5
lt i
r ebbe
el le
m pi
bili tÃł
ga t
Ġsu a
ua r
Ġ w
Ġ abb
i ve
r mi
a ssi
i nc
ene r
Ġ na
ci o
Ġd ire
Ġpo t
Ġpre sent
il a
col o
a mente
ĠL e
c ce
Ġda t
g u
ia t
Ġu no
o ndo
Ġtu tto
i ne
o d
Ġsi t
Ġ ro
a nc
ssi one
e si
gr a
Ġv olt
per t
Ġ punt
ĠPe r
Ġ W
Ġqua n
Ġquan t
ut e
Ġse c
Ġe s
n ve
Ġ ele
or ma
Ġdis po
i b
Ġsu lla
Ġpro pri
Ġda ll
Ġri ce
Ġqu ali
Ġo gni
l cu
s ca
m b
c ca
rr a
qu i
r si
Ġn u
n ne
n na
o nsi
st it
sc o
ĠR e
br e
h i
nar e
ie r
Ġme d
Ġpu bbli
n ia
Ġse nza
Ġb e
Ġte mpo
u i
t ori
lt a
Ġfar e
g gia
Ġma r
v itÃł
ro n
ĠR o
z zi
r anno
c ura
Ġv ia
c onsi
Ġne i
Ġpo tr
Ġ arr
Ġdo po
Ġ inc
Ġb i
Ġpo i
car e
Ġ consi
c ontro
c chi
r ie
s v
Ġ1 9
Ġ anc
Ġ aver
a lcu
c os
u tto
rt e
Ġ contro
a ve
âĢĿ .
Ġser vi
Ġ sv
Ġ alcu
Ġdo ve
mi ni
ci e
nat a
t alia
tt ura
Ġf u
gi o
s pi
str e
Ġmo do
ment a
ĠN o
rt a
Ġut ili
Ġ cos
ir i
zio nale
Ġb r
c ontr
Ġanc ora
Ġse n
Ġh o
ud i
c osa
Ġ contr
Ġme r
Ġaltr i
tte r
Ġquel lo
s s
Ġe se
Ġv ita
Ġsc o
Ġ indi
Ġd iver
c li
a u
pr a
Ġci tt
et e
Ġper chÃ©
ron t
Ġt o
b o
Ġg a
Ġmi gli
si d
Ġqua ndo
a ggi
Ġpot e
Ġpropri o
i nve
Ġm u
nder e
ĠG i
Ġ stra
Ġtr atta
Ġso tto
a nd
n cia
or r
Ġf atto
o ndi
Ġta n
or d
Ġ porta
ĠP r
Ġpart i
o nda
Ġer a
Ġ chia
Ġtan t
va r
Ġtra s
Ġquant o
cc o
ssi mo
Ġ J
Ġ ave
v ia
ng e
zza r
Ġcom ple
a rti
Ġ inve
Ġpro do
Ġcos Ã¬
Ġlav oro
Ġ K
Ġva l
Ġnel le
cola r
Ġ 6
ie n
Ġque sti
li a
Ġe uro
Ġno t
ĠD i
I n
s pa
ĠC om
Ġr ap
rt o
tr e
Ġsa rÃł
Ġg ener
i fi
u l
ce d
Ġ it
a zie
Ġ Â
vi d
Ġtr e
Ġatt r
n u
id e
ste r
lt r
h a
Ġgi Ãł
Ġ ini
ĠS i
Ġdo v
Ġ stru
va no
i sti
tt ore
ĠB a
Ġquel l
Ġpo sso
Ġb ene
r u
b le
c l
tr i
Ġca l
Ġca so
Ġcr e
ort e
t iva
Ġ spa
el o
Ġca sa
ien t
t ica
e ro
Ġte c
a ni
be r
Ġsa l
t ore
n ca
Ġ cli
Ġqu indi
! !
Ġr ac
Ġpro pr
Ġte rr
un que
sta t
ni ca
r ma
Ġmo ndo
zzar e
da t
n s
ĠMa r
a uto
Ġ spi
ga ni
Ġne ce
Ġgra nde
sc r
si zione
su lta
Ġpro ge
port o
ĠT r
k e
ce n
ĠM o
Ġpa ssa
stit u
Ġfr a
li ne
zza zione
Ġri spe
var e
Ġle gge
gi one
ni e
Ġri s
P e
nat i
a ut
br a
Ġ aggi
Ġd ura
Ġim porta
str i
f fer
Ġde ci
Ġma t
Ġquell a
sid e
Â »
a mi
s su
Ġsi ste
Ġga r
Ġfi no
i che
zzat o
Ġ sca
ĠP ro
Ġno stro
a sse
Ġsc r
Ġfor ma
i nd
Ġda i
cen t
Ġe ffe
am bi
p l
sci t
Ġ2 00
Ġve d
cia le
Ġvolt a
Ġfi ne
cat i
Ġpri mo
c ondi
e se
a ff
sa t
Ġstat a
Ġre ali
ot o
cia li
Ġtu tte
a g
Ġt uo
Ġ 7
Ġperso ne
ntr a
Ġpossi bile
e i
mat o
Ġ ol
Ġpro t
tti ma
Ġgi u
Ġ condi
Ġparti colar
Ġcom uni
o nf
g ue
Ġposso no
o i
ad i
ni c
ua le
o nse
ĠD a
ĠF r
a sso
o nc
ge n
Ġ cosa
Ġma ggi
ĠD o
ĠI talia
ĠN a
Ġ1 0
Ġf un
Ġ sce
c onse
ad o
Ġqua le
ver e
me ro
u p
Ġol tre
v ve
Ġ cono
il l
Ġda lle
e m
pa t
ltr e
Ġ conse
Ġcor r
Pe r
r no
Ġo p
sta n
Ġpro ble
s mo
c onc
âĢĿ ,
v ol
u ppo
i nse
ng ono
ĠSa n
ĠQ ue
m bre
ll o
Ġcr ea
Ġ conc
n n
Ġnuo vo
t ivo
Ġsu cce
a ndo
Ġgar a
Ġri chie
ĠG r
si a
a nda
h o
Ġlav ora
Ġatt e
atte r
Ġvi ene
gr am
Ġca p
Ġt he
Ġper i
Ġimporta n
Ġimportan t
ia r
Ġ cl
ĠCo n
a zioni
Ġmo d
Ġnu mero
f o
Ġb uo
Ġ nat
cat a
Ġste sso
qu a
r ci
mpi o
e g
Ġo ggi
Ġsec ondo
Ġf il
Ġdell o
ca zione
b ito
ng o
c onf
o nce
Ġ ment
Ġgior no
Ġini zia
f a
n uti
ĠNo n
i mento
Ġr it
Ġri sulta
ga r
ua t
Ġ conf
r na
c once
Ġ ora
stan t
u m
Ġma i
Ġ ab
Ġgior ni
ĠD e
Ġ and
nic o
Ġ arti
Ġfa mi
pe t
Ġatt i
Ġmo mento
Ġsen t
Ġ sti
ĠÂ «
Ġac ce
Ġ conce
ed e
e rno
ĠT e
Ġ auto
u ne
Ġo n
n fer
Ġ 8
vat o
O N
Ġe si
i g
Ġsem pli
Ġri cor
Ġ ore
Ġ2 0
el t
Ġ aff
su r
ner e
el i
Ġpri nci
n zione
ori o
uar da
gen t
Ġ au
Ġpar l
Ġaltr e
or no
ĠA l
zio nali
Ġo pera
Ġpro du
o k
e rna
Ġma n
a gli
z ze
Ġso pr
Ġcitt Ãł
Ġarr iva
Ġ chie
c ro
ola r
Ġattr aver
Ġno stra
Ġ assi
Ġpro po
ci tÃł
Ġri g
gi ne
Ġsit o
t u
Ġ 9
i zione
.. .
Ġaver e
ĠM e
Ġcol le
E R
Ġpro fe
Ġinve ce
c ci
Ġse gu
ad r
e e
Ġte rmi
ma r
Ã Ī
ĠC e
n su
Ġ agli
e me
r ea
ne t
Ġqu i
Ġf oto
Ġno i
u sa
Ġper me
Ġmat e
a va
o mo
Ġor gani
t ura
ff r
Ġsu per
sit a
Ġpunt o
pre sent
Ġsiste ma
Ġce r
Ġment r
Ġmentr e
ssa r
par a
Ġabb iamo
vo le
ĠL o
Ġb ambi
i vent
Ġme no
Ġsv il
Ġre gi
Ġinf orma
e mo
Ġli v
Ġdat i
ĠU n
ĠS o
ssi ma
p ure
Ġrispe tto
par e
ĠSt a
S e
Ġpo lit
tta t
Ġnuo va
Ġ inse
ĠF a
ssi o
Ġperso na
Ġcomple t
br i
ĠC h
si oni
Ġqual che
u lti
u s
si ca
n fi
or so
Ġd iri
Ġ k
i nsi
Ġd ivent
Ġ ind
ur i
ced e
l li
ni r
Ġved e
Ġba se
ita t
Ġri spo
e o
se r
Ġit alia
nar i
Ġb o
Ġsc elt
Ġpotr ebbe
Ġinf atti
Ġper d
Ġme t
Ġ asso
t erno
ac cia
Ġde ve
Ġr ela
pi r
Ġ aut
ĠM i
Ġrac c
L e
Ġracc o
Ġsu i
Ġte r
a spe
Ġsuo i
Ġ anda
ĠB e
Ġrap present
Ġpro gram
o p
me no
scit a
Ġalcu ni
glie r
Ġfi na
n so
orr e
Ġalt ro
âĢ ¦
vve ro
Ġ1 5
vent o
Ġdispo ni
r c
Ġattraver so
Ġdura n
Ġu lti
Ġduran t
ĠRo ma
Ġdurant e
i ore
li tÃł
Ġac qui
Ġ pra
w a
Ġparte ci
Ġall o
e ssa
menta r
ssi oni
Ġbi so
Ġcar atter
ĠC i
s che
Ġti po
att utto
o do
Ġtu tta
Ġ insi
Ġstat i
Ġlo ca
Ġatti vitÃł
Ġci rca
Ġca m
u se
c cu
Ġservi zio
sta r
ĠP o
Ġ ide
tter e
Ġd ice
Ġprodo tti
per ie
Ġsu lle
tta mente
e no
stant e
Ġbe n
Ġce ntro
o nsu
sa r
udi o
n terno
Ġper Ã²
Ġgio va
pl a
c cia
Ġt ele
sti ca
Ġgra zie
i nterno
Ġg o
ab ora
Â Ń
o stru
Ġparl a
ot el
u ali
c onsu
nir e
d d
Ġri ma
ĠV e
iat o
b ient
i ffi
s p
Ġca mb
Ġcom pre
" .
Ġ anno
is ce
u nge
n uto
âĢ ľ
T A
iar e
ĠG a
Ġst oria
cie tÃł
c ostru
sc ono
Ġrice rca
Ġsopr attutto
i le
a ria
s f
s car
Ġra ggi
Ġrisulta t
cono mi
Ġ1 2
il mente
e b
Ġmi ni
Ġconsi d
Ġ ,
a rt
ĠFr a
Ġ consu
Ġcom po
Ġ Z
Ġd iffi
uo i
Ġla sc
Ġ1 8
po l
tti vo
Ġmi o
Ġcono sce
f orma
Ġ ing
ne a
Ġcol l
00 0
Ġr u
Ġmolt i
ud e
a pert
Ġ ch
Ġquali tÃł
Ġpresent a
ve d
Ġpote r
i sta
Ġconsid e
mini stra
Ġd ol
Ġde fi
Ġ aspe
ib u
Ġma ni
ng a
tr a
Ġpe nsa
Ġparticolar e
me d
Ġ .
r essa
Ġ sf
Ġse ttima
Ġ as
i fica
Ġso l
t erna
ad e
Ġscr i
Ġconside r
tta r
e ressa
t eressa
c k
Ġcorr e
nc o
ia no
ill a
Ġim pe
zio na
Ġmate ria
n v
ma n
o le
Ġservi zi
Ġcu lt
Ġele tt
Ġque ste
Ġo f
Ġo tte
Ġnat ura
Ġca n
no r
Ġt or
N o
ci na
nat e
d r
Ġpre sso
Ġver so
ci le
chi o
pi e
Ġge sti
Ġterr it
a ffi
Ġap pro
Ġese mpio
s or
ssar i
Ġpre vi
Ġ cura
Ġu ni
Ġ sci
Ġ azie
Ġsi c
Ġinforma zioni
n teressa
Ġso ste
Ġproge tto
Ġsempli ce
r vi
ĠL u
Ġse d
Ġra ga
Ġde d
Ġfo nda
o nfer
t ive
zzat a
i nteressa
M a
Ġcor so
g hi
ita r
star e
o mi
Ġpo c
Ġo ffr
Ġpropr ie
Ġpoc o
ed i
Ġ 0
t ivi
vid e
ĠV i
Ġim pre
ge r
cat e
glier e
Ġ ori
E N
ia n
Ġl uo
gat o
Ġne gli
Ġcli e
Ġclie n
Ġclien t
Ġe conomi
Ġno stri
a na
vent i
Ġma l
c onfer
Ġme glio
r ai
Ġdo ma
ĠR i
Ġdiver si
Ġci Ã²
Ġde t
2 01
e ndo
pe nde
Ġliv ello
Â» .
sti c
so l
t ico
Ġpossi bilitÃł
ĠSta t
Ġpo sto
l c
ï ¿
Ġca t
Ġd ie
Ġinsi eme
ï¿ ½
i mo
Ġave va
Ġimportant e
Ġdivent a
Ġser ie
nsi one
Ġri e
o se
Ġprot e
no lo
Ġsu ll
Ġsia mo
zzat i
mer e
u so
Ġper cor
f r
rd i
Ġl im
Ġprinci pa
pi o
Ġap pa
Ġso cietÃł
Ġm ia
A N
Ġcl assi
Ġ interessa
e sso
Ġ confer
Ġsa rebbe
per e
side n
siden t
Ġmo del
m ma
Ġgr ado
et a
Ġtant o
n sent
gi e
o nsent
T I
Q ue
2 0
Ġ spo
mi na
tti va
Ġre g
Ġrappresent a
c onsent
Ġ scar
Ġap pli
Ġvolt e
b ie
T O
Ġsu e
nie r
c t
r l
Ġpro f
stra t
bi o
Ġ ami
Ġ affi
Ġspe sso
Ġcitt ad
Ġdet e
Ġpa ro
ĠB r
Ġ consent
Ġmi li
vo no
Ġ costru
Ġt ua
Ġpropr ia
ure zza
ĠL i
Ġgra ndi
Ġ port
A R
ur r
Ġquel li
Ġme si
s qu
ĠF e
Ġsa ranno
scr i
a mo
c chia
Ġqua si
ĠN e
Ġgara n
ĠM il
ce r
stic o
Ġt ale
Ġve nd
sur a
ttar e
uo le
Ġ ÃĪ
No n
Ġca pa
Ġfr e
Ġ ino
n terna
Ġmer cato
Ġprodo tto
Ġcom pa
Ġtro va
Ġ is
Ġda r
Ġvi d
Ġo ffe
Ġg ui
Ġsi gni
Ġon line
Ġnece ssari
c oi
Ġcr i
ste nza
f t
alt ro
Ġqu ot
i nterna
Ġfil m
si tÃł
U n
i ffer
ĠC r
Ġim ma
Ġfina nzia
Ġe sa
perie nza
gar e
le n
ĠS u
a mento
Ġquel le
Ġspe ci
Ġbambi ni
Ġpi c
r lo
a nn
Ġd iffer
nit a
Ġ apert
Ġprogram ma
Ġac c
Ġ interna
olt a
Ġri fer
Ġsem bra
c ondo
Ġtro vare
Ġri u
or ie
Ġ3 0
n k
ie ne
ia le
ĠV a
un cia
Ġe sc
n zi
Ġpro ce
ci t
L I
Ġper fe
Ġsec onda
spo nsa
o na
Ġv elo
chia r
Ġb u
3 0
va n
mer a
Ġmu sica
Ġsit ua
gi na
Ġgaran t
ssi mi
b ro
r ro
Ġste ssa
Ġvi sita
ver no
olar e
â Ĥ
Ġre alt
Ġracco n
Ġraccon t
Ġvi sta
Ġt ur
n vi
Ġpre se
Ġpresent e
âĤ ¬
m ia
Ġcoll abora
gge r
Ġlu i
n ua
C o
po li
Ġso lu
Ġcom pet
Ġg ia
Ġ squ
Ġre t
Ġu ffi
Ġpia no
ĠN el
Ġeffe tt
Ġrig uarda
Ġsic urezza
Ġ1 1
Ġ zo
Ġvi sto
Ġvede r
ĠU na
gi ni
Ġo sp
Ġpubbli c
ora t
Ġ id
Ġim po
Ġ1 6
e na
Ġperso nali
ĠE uro
c che
Ġrealt Ãł
ir a
Ġde tto
Ġgr uppo
Ġpubblic o
glia t
Ġmili oni
s port
Ġgio c
Ġpre zzo
lt e
ĠMil ano
ĠG e
Ġdiver se
Ġ str
sident e
mat i
Ġd ia
tt ori
le r
Ġfami glia
mentar e
t ici
I talia
or se
Â °
Ġconf ront
Ġvid eo
ro no
Ġ1 4
Ġt it
Ġspi e
Ġperi odo
Ġterrit orio
Ġca usa
Ġne ssu
Ġgioc o
Ġda vvero
Ġ Y
Ġve ngono
Ġme se
ne n
ier a
ali ano
Ġstru ttura
cchi o
ĠIn t
ch Ã¨
r mo
ĠPr e
sia si
ĠB o
Ġgra tu
ĠQ ua
Ġv ol
do no
Ġam bient
c ose
Ġfa v
nie n
Ġcom unque
lit a
nien t
e mente
et o
Ġse ttore
adr a
Ġmi nuti
Ġded i
Ġca mpo
g h
Ġveder e
g he
Ġf ut
gi c
ier e
Ġt ot
Ġe x
Ġnuo vi
Ġpo ssa
Ġ sche
Ġlu ngo
Ġ sor
da r
Ġproble ma
mar e
i nua
Ġ coi
t inua
itar e
Ġ cose
Ġcom p
Ġsu bito
Ġcom mer
nen t
Ġ asse
li o
Ġma no
Ġ cro
Ġve ro
gi ca
van t
Ġgiova ni
Ġte m
Ġalcu ne
i fe
Ġor d
a da
Ġperso nale
Ġre sponsa
g ura
Ġqual siasi
Ġpe so
o va
Ġsegu ito
Ġperme tte
Ġ ava
alt r
Ġno me
Ġri f
i sa
Ġpar e
ĠG o
nari o
mat a
i ma
ier i
Ġpassa t
i ff
i chiar
Ġtr adi
p ur
Ġ sport
Ġ X
Ġstra da
Ġ2 4
Ġu ma
sar e
Ġst ori
Ġva r
Ġtratta mento
col t
Ġnuo ve
I N
Ġf ront
Ġcult ura
r emo
Ġpunt i
Ġsu p
Ġesc lu
Ġ1 7
Ġfu ori
Ġdat o
Ġzo na
Ġb lo
Ġdo cu
rc o
uar e
ĠT a
Ġdar e
Ġspe ciali
Ġtant i
Ġtec nolo
Ġscelt a
gic o
Ġw eb
ni o
ste ro
Ġmigli ori
ora r
a nali
ĠQue sto
Ġca si
vi ncia
e nze
Ġd ichiar
Ġ ani
olt o
n tinua
i sc
Ġ ann
Ġst udio
Ġse tte
Ġeuro pe
Ġmed ia
Ġ2 5
Ġri cono
Ġce ntr
n sta
cede n
Ġce rca
ceden t
Ġ1 3
sat o
Ġav vi
Ġac ca
Ġnecessari o
a ma
S i
R E
Ġino ltre
f ia
Ġsc u
i nv
ac k
Ġ ali
Ġtr am
vat a
Ġinc ontr
ba t
Ġf orte
m pa
Ġve n
li e
altr a
ĠA n
Ġd ife
ĠC ome
Ġparteci pa
z z
ul a
Ġpo chi
Ġspa zio
mer ica
P r
t azione
1 9
Ġe sse
Ġsucce ssi
Ġbiso gno
" ,
Ġf ac
l meno
Ġchie d
Ġdov rebbe
Ġdat a
u na
u str
Ġproble mi
Ġpre sidente
Ġse i
Ġser a
fi c
nit o
Ġde tta
a lmeno
o ntinua
c ontinua
Ġai uta
mi ssione
1 0
Ġinse r
va l
Ġconc lu
Ġe ffi
Ġcom une
y o
i menti
is po
Ġ continua
Ġmo da
Ġque st
dat o
Ġpre ci
Ġte rra
Ġsvil uppo
Ġpro n
c od
Ġfo sse
ĠA r
Ġpre cedent
ĠT u
att ro
ccu pa
sit o
Ġdete rmi
Ġtro ppo
Ġ z
Ġe ntra
ĠMo n
Ġprese nza
i nsta
bb iamo
a rte
ĠâĢ ĺ
ke r
Ġporta t
D o
ur ali
Ġut e
Ġfa ce
l y
Ġman t
fic o
s ele
Ġd isc
ĠSan t
Ġso li
Ġli ber
cca sione
Ġv olo
Ġalt e
ca zioni
Ġme m
Ġdo nne
Ġpa ga
Ġda gli
Ġbr e
a rea
Ġsen so
Ġlegge r
vat i
p h
side r
gge tti
Ġsi ng
Ġo tti
p elle
Ġ almeno
Ġsi ano
Ġtram ite
Ġte n
t ina
unge r
Ġsvil up
Ġce n
Ġde sti
Ġ ada
Ġluo go
I A
L E
ua lmente
Ġha i
Ġpri mi
Ġer ano
Ġacc o
Ġad d
Ġme ssa
Ġconsider a
dr e
va mente
Ġpresent i
i st
ĠC ol
n qu
mat ica
Ġpe nsi
lte r
nit i
Ġqual cosa
Ġli bro
vo li
ord i
Ġ inv
ir r
Ġval ore
ita le
Ġe cc
Ġvi ci
Ġmaggi or
Ġperd e
Ġ sele
ort a
Ġna zionale
o nd
pr ire
e sa
ma i
wa r
D a
Ġsucce sso
Ġcondi zioni
Ġe n
Ġsi n
pir e
stat o
Ġstat e
or k
Ġmo stra
ag oni
cent e
ga n
ĠC am
ica r
ĠA d
N el
Ġute n
Ġprofe ssio
Ġuten t
Ġop pure
Ġcor po
O R
Ġb ia
Ġpercor so
Ġri v
C a
a go
a ge
unger e
Ġno rma
le t
s ma
l d
n fe
Ġmigli ore
i ndo
i po
f or
Ġstra t
tt ure
ot e
urr e
T E
Ġsitua zione
Ġtermi ne
i pende
Ġpolit ica
pia n
e ssi
Ġsettima na
tri mo
Ġpo pol
Ġva n
Ġprodu zione
itat o
pian t
i nno
ge nza
ĠInt e
ĠO r
dar e
orar e
Ġav uto
Ġd imo
i men
Ġanda r
ac c
e sse
Ġit aliano
para t
p ora
ni tÃł
o stitu
Ġgesti one
u b
Ġ pla
ĠPa r
Ġsv ol
Ġe ner
c cio
Ġ pur
vat e
Ġo tto
Ġde sider
i nci
Ġse g
Ġdispo sizione
Ġd iff
Ġdiri tto
Ġgior nata
Ġme tte
d Ã¬
Ġpre fer
sc ia
r ne
Ġli ng
mi o
Ġ '
isti che
c omi
i ori
war e
Ġpra tica
Ġpia ce
ĠMon t
Ġli nea
gge tto
Ġulti mi
zzat e
Ġsta gione
I S
Ġpa zie
Ġap pe
Ġpo sizione
gno r
Ġ cod
Ġrisultat i
Ġvia ggio
Ġla t
Ġmolt e
c ostitu
Ġva rie
ĠA nd
Ġv uole
w s
len t
Q ua
Ġparo le
ne se
ved e
Ġr ila
Ġe v
Ġg ua
Ġfor za
Ġchia r
Ġ pelle
ĠH a
Ġfor se
Ġaggi or
Ġso pra
Ġpro mo
p pe
Ġnot a
Ġte mpi
cia zione
Ġmani fe
ĠP i
Ġimportant i
ggia t
I C
Ġret e
C ome
b ilmente
r net
Ġoffr e
Ġvan t
Ġe ster
Ġcr ed
Ġgener ale
Ġandar e
Ġpart ire
Ġfa n
ĠQ u
Ġgui da
Ġ2 1
pa gna
Ġ19 9
Ġpro ve
p or
Ġd ipende
gent e
t iche
Ġscu ola
Ġqu attro
Ġasso l
Ġ201 7
ĠS ono
Ġme zzo
Ġ costitu
uo mo
ulti mo
ste n
Ġf is
sti ci
lia r
5 0
il le
Ġbuo na
ni che
o pera
n que
Ġ201 6
Ġli be
sta zione
Ġ1 00
ort i
si o
uat o
ĠG li
Ġd ista
Ġle tto
a ffer
t ale
unt o
fi ci
Ġav rebbe
Ġse gue
gat i
Ġcan t
Ġd ivi
Ġ5 0
Ġfut uro
ĠT he
nzia le
n zo
Ġfront e
Ġven t
ba r
ĠSa l
ĠG ia
cr a
Ġg u
e rÃł
ment ale
Ġconse gue
Ġclient i
Ġforma zione
ort o
Ġnece ssi
Ġvar i
dd is
Ġso ciale
ĠCo nsi
Ġti pi
si c
Ġotte nere
Ġinc lu
ude n
bie ttivo
sa n
Ġsqu adra
a ng
Ġne go
Ġlu ce
Ġr ia
no ltre
o ma
Ġdel i
Ġpron t
icar e
ĠH o
d ia
Ġcontr a
Ġsed e
R A
Ġaff ront
va zione
c cor
uden t
Ġmo n
bili t
ĠR a
E L
Ġge n
ĠCa r
Ġcrea r
ede r
Ġtit olo
sta nza
Ġsi nda
Ġcontro llo
Ġse nsi
rr e
il o
Ġf att
Ġd isa
Ġdo nna
Ġam ministra
Ġcrear e
Ġ sma
Ġami ci
Ġrap porto
Ġ /
v r
Ġdire ttamente
Ġfa nno
Ġde vono
o mini
ndo si
Ġde r
g ne
Co n
Ġcamb ia
g n
ĠGr a
Ġutili zza
U na
Ġris chio
Ġci o
a lmente
Ġre ce
Ġk m
t elli
Ġap pre
sta zioni
Ġe ntr
ndo no
Ġce rto
Ġmon t
Ġrac colt
o nne
c ond
tti vi
o nvi
Ġori gi
c onvi
Ġvend ita
Ġ201 8
e gra
mo n
Ġloca li
ss ore
Ġpa ese
Ġpro ced
a lc
Ġazie nde
uni tÃł
Ġor mai
Ġassi cura
sa mente
Ġsti le
Ġas su
o sto
sten t
uar do
sol a
p uoi
Ġpazie n
Ġpazien t
k i
Ġ convi
Ġfi nale
E S
Ġmaggi ore
Ġall ora
cat ori
Ġraga zzi
Ġ ag
Ġe vide
Ġsi cura
st ito
ico li
Ġso ddis
bo ok
Ġru olo
Ġchied e
Ġ puoi
tt r
r vento
insta lla
Ġe cce
ssu t
Ġ comi
Ġva ria
Ġcrea t
Ġcapa citÃł
Ġre si
Ġnot i
ĠDi o
Ġre gio
Ġno ve
Ġ affer
nier a
Ġfre que
Ġfoto gra
vi mento
Ġd imen
lt o
ng r
Ġpo sit
i so
ĠAn t
mer i
Ġprot agoni
pat o
Ġcittad ini
Ġpa gina
Ġrichie sta
s h
u zione
p t
stat e
T r
is mo
s fi
ttat o
Ġsc orso
ĠBe r
Ġcu ore
Ġdo me
U ni
a vi
Ġnu lla
Ġper chÃ¨
1 1
ni ci
strat o
Ġrifer imento
Ġpro ba
Ġno r
Ġd r
ĠFra nce
i se
pre sa
a ggio
Ġri le
ment azione
nna i
Ġpro vincia
Ġutent i
i stru
c osto
Ġre sta
Ġ pr
acc o
Ġgener e
Ġcontr ib
Ġ anali
t egra
Ġvo i
mi ci
ut ili
ga zione
Ġpo li
port i
uo t
ea t
esi d
Ġ sfi
Ġval ori
Ġvo stro
i stitu
nnai o
Ġani ma
gent i
Ġd ive
Ġgen t
Ġver d
l ue
ca le
R O
Ġfa se
na zione
Ġdisponi bili
Ġvo t
Ġreg ola
Ġpre zzi
cie n
Ġazie nda
Ġle tter
Ġ costo
mi no
Ġsin t
o nfi
n tegra
e rvento
t ervento
cien t
Ġu lter
Ġpro va
Ġ &
Ġba r
Ġ âĤ¬
c omo
Ġproce sso
Ġma ggio
Ġgiu gno
Ġma nca
Ġap punt
Ġno stre
Ġpresenta t
ĠP u
Ġrisultat o
Ġte ma
i da
o so
Ġ j
iat a
azie nda
e zza
Ġmodel lo
Ġso lit
Ġfa cile
c onfi
Ġfi le
ĠTr a
i nce
pri le
Ġitalia na
Ġac com
i me
g nato
i ntegra
Ġeffe tti
Ġfun ziona
ac ce
vant i
uta t
Ġasso cia
Ġ alc
nit e
n tervento
nci o
ener e
nient e
menta t
or sa
k a
Ġe spo
. ,
Ġcom porta
ggia r
san t
ĠT o
i ntervento
p pa
o pert
rd ia
ac qua
u me
Ġsigni fi
ĠP ie
c opert
Ġra pi
i nfi
Ġpic colo
Ġg am
Ġe ntro
Ġmar e
Ġcollabora zione
s l
Ġese rci
Ġd ig
Ġdisponi bile
Ġraccont a
Ġcre scita
Ġ2 2
nit ori
Ġpo st
ĠF or
Ġgo verno
c onne
Ġbre ve
Ġte sti
Ġsette mbre
el lu
ver sitÃł
i str
Ġde si
ĠD I
Ġ201 5
et i
Ġca pire
Ġst udent
a sc
Ġu omini
v via
ĠCom une
ggiar e
Ġf accia
Ġtot ale
Ġinve sti
Ġnel lo
Ġpassat o
Ġ art
Ġ men
na mento
ĠA nche
Ġe mo
L A
w w
ssi me
c ele
r s
Ġma cchi
w n
Ġappe na
Ġvo glia
Ġd unque
e x
Ġ sto
fica zione
Ġmar zo
Ġ integra
Ġ confi
g ono
tt ac
c le
Ġesclu si
Ġdoma nda
Ġdice mbre
r ch
Ġe vent
r go
Ġe ste
Ġfar ma
cc oli
Ġcat eg
p pia
Ġalt a
Ġdispo sit
Ġrichie d
Ġes perienza
Ġstrat e
Ġ :
Ġre nde
Ġsolu zione
t ano
Ġlav ori
i ntro
Ġ conne
1 2
Ġgior nali
Ġbuo n
s Ã¬
Ġsco n
Ġce rti
Ġvolo n
k et
Ġca rta
Ġse gna
S A
Ġil lu
o si
Ġri d
S a
bat o
Ġpunt a
r esse
Ġindi vid
Ġsal ute
pera t
tr ice
Ġac cor
Ġ ina
Ġver sione
Ġma le
ne ndo
a gi
Ġe mer
Ġ inno
du zione
u no
c op
pe ro
Ġmi sura
Ġ yo
el azione
ĠStat o
ulti ma
Ġitalia ni
Ġfe r
a y
i nca
Ġtele f
Ġtr ad
atti vitÃł
cer e
ĠA le
v vi
A l
ĠBa r
Ġpa t
Ġdo t
Ġdiffi cile
ger e
Ġeffi ca
ela t
S t
Ġmal att
Ġpre vede
e resse
cent i
t eresse
Ġinf or
cia l
Ġde n
Ġta r
Ġutili zzare
n teresse
Ġb elle
c lo
Ġge nnaio
Ġalt o
Ġcu cina
Ġperde r
Ġfan t
r pre
Ġarriva t
ute r
e sti
mat e
Ġma niera
Ġste ssi
t em
Ġalte r
? ?
b u
per i
Ġac qua
Ġg ue
Ġno tte
ne o
o nve
Ġme ttere
Ġpia n
Ġrif le
st ora
Ġ stre
Ġaffront a
Ġci r
ng ue
Ġf ir
ute n
Ġsol a
nali tÃł
Ġfi n
i nteresse
ge nze
Ġcomplet a
t ifi
Ġ2 3
ĠCa l
Ġle i
Ġinterna zionale
ĠC he
e rpre
Ġe t
Ġg uarda
t erpre
s ho
ĠE d
nd r
Ġperder e
Ġricono sci
i mi
Z I
Ġvi ce
Ġ cele
Ġpar i
gat a
Ġpi ccoli
Ġquot id
Ġ istitu
esid e
Ġr ad
Ġcol ore
n terpre
p s
a ssa
Ġ201 9
Ġpre ndere
i nterpre
Ġd istr
Ġ infi
Ġvici no
Ġri porta
Ġsce gliere
Ġide n
Ġci ne
Ġlu glio
Ġma tti
Ġle ga
od i
L o
Ġrichied e
Ġma ssimo
n y
Ġling ua
fi che
Ġcom u
a si
rl a
Ġu omo
it ali
Ġe venti
Ġu r
Ġes pre
Ġnece ssa
gan t
Ġprincipa li
ĠM ed
!! !
Ġcen t
ĠGi ova
Ġelett ro
Ġabb ia
sce r
Ġinteressa n
Ġinteressan t
P ro
a prile
Ġsa pere
O S
Ġdichiar a
Ġimma gini
Ġatt iva
n car
Ġo bbli
ro ne
Ġ201 4
vvia mente
ver sa
gr i
Ġotto bre
r ee
Ġpossi amo
Ġab ita
Ġprofe ssioni
ia na
Ġmoda litÃł
Ġsta mpa
ma il
Ġfr u
Ġt ut
Ġsicura mente
Ġnot e
ĠF o
e sto
ĠN i
Ġspe ttac
Ġci vi
c onve
i nfer
Ġmod ifi
ini zio
ĠV ene
ĠF i
Ġ copert
ie t
u si
Ġri vol
2 00
Ġfav ore
Ġre cu
Ġscri tto
ĠDo po
rai o
Ġf ebb
Que sto
Ġ cop
Ġpotr Ãł
unt a
Ġsi mi
Ġfo ndo
it h
Ġ4 0
ĠC u
Ġme tri
Ġmed ici
gi oni
Ġ cia
Ġb elli
w e
Ġporta r
Ġloca le
Ġim med
Ġing r
Ġnecessi tÃł
Ġ condo
Ġpre no
Ġte sta
Ġri fi
dat i
ĠGi u
Ġo sser
Ġstru menti
Ġcaratter i
p orre
O M
Ġri ser
Ġrispo sta
Ġb ella
Ġatte nzione
Ġregi stra
t is
or itÃł
iat e
Ġ conve
Ġva li
col tÃł
Ġproge tti
id ea
Ġspie ga
Ġh otel
Ġsta nno
Ġnove mbre
Ġimpre se
ĠMa ria
Ġnatura le
Ġpro ssimo
Ġ cond
m u
Ġscon t
Ġdeci so
Ġcol ori
Ġten t
Ġava n
Ġrice r
scr izione
Ġes pert
ca no
gar i
o sti
ola t
ca li
Ġvi nce
R I
Ġtuo i
Ġ aprile
Ġsit i
ĠSt e
m uo
Ġavan t
g le
Ġca po
Ġelett r
Ġcomuni cazione
ĠPa l
Ġdiffi coltÃł
Ġri ca
ĠI noltre
ĠConsi glio
mi c
r ni
Ġavant i
Ġpar a
s chi
Ġcaratter istiche
Ġaut ori
Ġacca d
Ġ ine
rd e
Ġ irr
ĠM ini
ĠMar c
ĠR u
Ġrit ro
p pi
S ono
i nde
Ġraggi ungere
olo gia
ap pa
Ġoffe rte
Ġconsidera t
Ġe ro
a merica
Ġconse r
si zioni
Ġmi nor
Ġparla r
G li
he r
Ġver rÃł
ft ware
Ġci nque
ĠI N
ĠStat i
Ġportar e
c ellu
C i
ĠQue sta
Ġse gr
trimo nio
I I
Ġop port
Ġvelo ce
e nuti
Ġde mo
ssi a
le se
c ora
Ġver ifi
a rch
Ġ inci
Ġcomplet amente
a sci
Ġdiffer e
per azione
Ġgi udi
Ġlu ng
cola t
G r
scer e
Ġev itare
ĠJ o
oli smo
Ġ installa
Ġese gu
ĠTr e
Ġpubbli ca
Ġsigni fica
ver a
Ġele menti
Ġmo tivo
ian t
c osti
Ġfi ni
s pia
Ġperd ita
Ġparlar e
mo bili
Ġ201 3
nsi oni
Ġpart ita
Ġca mera
.. ..
Ġver a
ustr ia
da mento
rta mento
Ġsci e
ĠNa poli
n tem
Ġm orte
Ġvi vere
Ġ como
Ġesi genze
Ġo vvero
pat i
c m
rt Ãł
Ġ costi
e st
ne ss
i sco
ura n
mat ico
Ġcri si
Ġcontro lla
t enuti
8 0
Ġface ndo
Ġletter a
Ġvo stra
ĠA p
i nda
Ġspi r
sit i
Ġpaga mento
r ete
Ġlo n
Ġassol uta
Ġpo l
Ġba gno
Ġf atti
Ġlasc ia
para r
Ġprincipa le
Ġ inca
Ġ ago
Ġva ca
T u
sti che
Ġo ccasione
Ġpo sti
Ġr elazione
Ġe stre
v iamo
ner a
Ġcol lo
Ġ infer
cede r
Ġo pere
Ġdimo stra
Ġca mere
Ġso le
ut azione
Ġ spia
Ġgiova ne
Ġcomi ncia
Ġtras forma
Ġu nico
Ġ cellu
eside n
uran t
Ġo cchi
Ġut ile
Ġdot a
Ġpri me
esiden t
Ġsi ni
m ula
Ġtermi ni
Ġ asc
ceder e
mi ca
s pera
Ġproprie tÃł
line a
Ġarr e
il li
t emente
s ba
par azione
tta n
Ġca mpi
Ġfa mo
mon t
Ġd ise
p si
n temente
Ġpian t
A S
ade r
olt i
o nsa
ĠP ia
Ġris orse
ĠC l
es perienza
it ore
Ġsc om
e c
me ttere
u mi
n tenuti
o ntenuti
c ontenuti
cat ore
be rto
Ġpi edi
Ġli ne
m ila
da le
vve d
p lo
1 5
Ġconosce r
a e
Ġca nc
Ġle gi
6 0
parar e
Ġquesti one
Ġ contenuti
ĠI nf
o ntem
lta n
Ġcomuni tÃł
c ontem
Ġosp iti
a lo
Ġdiri tti
nd iale
Ġfun zione
id i
Ġfebb raio
Ġe sser
Ġanda t
Ġstori c
A L
Ġstoric o
Ġ201 2
ord ina
Ġ intro
ĠCh ie
Ġregio nale
à ¸
Ġte sto
nent e
M i
tt oria
Ġqual cu
ltan t
Ġ contem
Ġtras fer
Ġn Ã©
Ġim piant
n tici
g nare
uta r
ttan t
l ber
stit uto
Â «
Ġso ggi
no stante
or gani
Ġe qu
y a
nda t
na n
Ġconoscer e
Ġb or
ĠRe gione
Ġarriva r
utto sto
n vol
Ġri stora
ĠI t
su ali
Ġci t
Ġarrivar e
Ġso sta
ĠPa ese
Ġpa sso
Ġ sba
Ġte nde
Ġap po
Ġtant e
Ġf el
r venti
Ġso ciali
Ġfo n
Ġpi e
Ġvo ce
Ġba sso
Ġre ga
mi nare
Ġsco pert
Ġcomple ssi
Ġcolle ga
pe nsa
Ġvi si
Ġsuper iore
o gle
i scri
Ġ el
a lber
Ġri sa
Ġd ub
ori no
ĠC hi
Ġstudent i
Ġda vanti
Ġdura t
Ġvo le
Ġpro se
ir Ãł
Ġpa l
a nzia
me sso
Ġim pa
Ġne r
Ġfami glie
Ġ +
P a
Ġcio Ã¨
ura t
ministra zione
nd ro
Ġda nno
ĠFrance sco
Ġ spera
Ġri so
Ġ interpre
n gi
ge t
Ġfonda mentale
Ġpia tta
Ġpa esi
Ġ2 7
am bient
ite r
Ġsegna l
mentar i
Ġabb a
Ġso spe
e rventi
t erventi
Ġfon t
tori o
Ġmateria le
nent i
Ġgiu sto
ĠB i
Ġ2 8
Ġdeci d
lita r
Ġgi ro
Ġdista nza
Ġsal a
stat a
cu ro
glia r
Ġmateria li
ĠPr esident
Ġmod e
ĠM u
Ġdota t
c onsa
Ġtr i
Ġdome nica
ai n
Ġre sto
Ġpro vved
a ntici
ot a
sur e
Ġbiso gna
Do po
no n
arti colo
Ġbambi no
nita r
n terventi
i nterventi
Ġ ince
ĠCon t
Ġ2 6
so n
it ori
adr e
Ġo ccupa
Ġap pare
Ġso ftware
Ġinc r
nitar i
R e
Ġ consa
ĠCa t
t orno
Ġso stitu
mat iche
Ġca ndi
Ġris par
Ġpensa r
Ġno nostante
Ġ interventi
Ġsegu ire
c chie
M A
Ġu so
Ġconsent e
Ġmodel li
Ġtec nico
i ntr
Ġpre d
lu b
Ġca d
ĠS pe
s fer
nat ore
r ei
Ġcontr atto
ssi bile
Ġcondi vi
dat a
Ġfi gli
Ġpensar e
Ġre ndere
Ġstru mento
Ġ america
Ġpi uttosto
Ġca se
nza t
Ġso ggetti
Ġtec nica
Ġinteressa t
Ġnessu no
Ġpic cola
ĠP oli
ph one
Ġlegger e
mi r
ha t
nzia t
od e
Ġte a
Ġdol ore
ltant o
uncia t
gat e
Ġsa le
ĠU ni
e nne
cit a
Ġsettima ne
nan t
Ġtent a
Ġluo ghi
tti ve
v ita
ntra t
nzia li
bbli ca
Ġso ltanto
Ġ ieri
Ġ eli
i gi
sci r
p pure
n torno
va le
olo gi
Ġeconomi c
iver e
Ġba sta
il lo
Ġpre nde
all o
Ġ x
Ġb atte
mi e
E uro
fa r
oni o
t atto
tro ppo
Ġgra vi
Ġconosce nza
o stante
Ġsiste mi
Ġpia ni
Ġu sare
Ġsup porto
ĠP l
Ġreali zzazione
a zzo
Ġri nno
av vi
Ġconfront i
Ġrice v
Ġmi ei
Ġbe ni
ĠSe r
ĠI m
t ero
Ġno mi
Ġprevi sto
Ġ3 1
Ġva nno
Ġcol oro
Ġeconomic o
c ostante
Ġdistr ibu
Ġgue rra
Ġt ali
Ġme tÃł
adi o
Ġme sso
Ġsolu zioni
ĠPresident e
Ġprecedent e
n tatto
Ġter zo
Ġ costante
Ġu sa
Ġqualcu no
ĠS car
Ġ psi
utili zzo
Ġvi n
e nde
s Ã©
Ġtro vato
Ġdiffer enza
Ġra gione
Ġpia zza
O r
Ġst u
am ore
po lo
me tte
ĠA ll
ĠB u
Ġdesi gn
sat a
Ġsco po
Ġspe se
ON E
I O
a rgo
Ġst ud
man t
Ġac cu
Ġg ro
Ġverd e
Ġinizia t
Ġcia sc
Ġarti colo
cono mia
isti ca
Ġago sto
Ġli bri
Ġgra n
Ġsa n
ĠA m
ci pli
a ree
Ġpotrebbe ro
nar ie
Ġdiventa r
mic o
Ġpensa t
ss ori
ambient e
Ġdiventar e
Ġcono sci
iri zzo
Ġst udi
scir e
am bito
Ġconsi glio
Ġsta r
Ġgiu sti
Ġatte n
Ġder iva
Ġb ila
Ġpartecipa zione
Ġde cr
ĠGiova nni
Ġcl asse
Ġclient e
Ġfreque n
e nuto
im ma
Ġ sho
Ġad o
ĠQua ndo
Ġ niente
ĠE r
o ntatto
e rnet
c ontatto
Ġliber a
Ġre ale
t ernet
Ġ aree
arch ite
ma no
Ġgratu ita
ffi cient
Ġgarant ire
Ġresponsa bilitÃł
e gr
Ġcoi nvol
Ġ ni
iat i
Ġvi ole
olar i
Ġaccom pa
Ġed izione
Ġ contatto
orat o
ĠEuro pa
Ġ antici
Ġtra nqu
Ġad eg
t or
Ġf ort
Ġlavora r
ipo t
ĠGi or
Ġro man
n iamo
Ġfe m
Ġ sÃ©
d itÃł
sse ro
uat a
Ġlavorar e
ut r
ac qui
ĠCa sa
sti val
Ġtecnolo gia
it r
Ġsemplice mente
n chi
pi ni
o u
Ġuffi ciale
Ġdov uto
Ġinc ontro
Ġr eli
Ġ pure
ĠT i
Ġbia nco
Ġma ssima
fo nd
Ġcred ito
c cato
Ġsma rt
C om
Ġca mpio
Ġso cial
utar e
urant e
Ġmed i
Ġta l
Ġcal cio
Ġportat o
Ġpotr anno
go le
ap ia
Ġtec niche
Ġ6 0
O L
Ġ azioni
Ġdimen sioni
Ġpazient i
i sto
ella t
t h
e tto
ĠPa olo
Ġsera t
Ġte st
Ġgia rd
t ino
Ġ2 9
Ġri ve
fi cato
Ġcateg oria
Ġe pi
Ġcentr ale
a ne
ali tÃł
via r
Ġpoter e
o biettivo
Ġpubbli ci
i si
C A
o st
Ġmi r
Ġsi curo
ccor r
1 8
Ġfi glio
Ġcom pli
Ġmi cro
Ġmed ico
ssut o
t egr
Ġ cm
ĠC ap
Ġcontem pora
Ġsta bili
Ġsu pera
Ġesi ste
Ġsotto linea
Ġdedi cato
Ġla ncia
gliat o
Ġspe d
Ġdie t
Ġgio chi
Ġgent e
Ġd isti
Ġne ro
ĠE n
Ġprofessio nale
Ġdov rÃł
t itÃł
Ġna vi
S I
Ġr ite
Ġav ve
ssa t
Ġm or
Ġ interesse
Ġconsa pe
Ġmet a
Ġristora n
ord ine
Ġpre o
Ġ201 1
o sta
n tegr
Ġri pre
mat iva
Ġaut ono
Ġstru tture
a nzi
Ġca rr
n tero
Ġma gari
Ġlu nga
Ġle gno
Ġristoran t
Â» ,
Ġricor da
Ġf atta
Ġide ale
Ġdurat a
Ġreali zzare
tto no
e rvi
Ġpa dre
e ni
nde n
c onda
Ġt av
zio nare
H o
Ġmigli orare
ĠK a
o ol
Ġw ith
os ca
Ġpopol a
Que sta
ĠE x
Ġdiventa t
ven zione
Ġfant a
ĠV ia
Ġquot a
Ġpa ssi
Ġ inde
n ternet
Ġtesti mo
Ġparticolar mente
i ntorno
Ġri pet
t ure
Ġpropo sta
w i
i nternet
sic o
n qui
p p
ol l
ĠSe rvi
Ġb ro
i ntegr
Ġva le
Ġca rt
a ero
ora le
Ġno vitÃł
Ġse zione
2 4
Ġma ssa
A d
Ġspe ciale
Ġme cca
Ġlavora tori
sat i
Ġ indo
i nso
Ġ ama
ig h
Ġpi eno
nda r
Ġse mi
Ġpi cco
o ns
i sola
om ba
a zz
Ġge nitori
r chi
Ġscie n
1 4
Ġmer ito
e vi
Ġma ng
Ġcer care
ĠMi ch
t atta
Ġpi u
Ġdipende n
Ġdipenden t
Ġcod ice
colar e
Ġsinda c
Ġsindac o
ĠJ u
Ġparo l
Ġsf ru
ĠCe ntro
Ġsol d
Ġsoddis f
Ġfrequen t
Ġinterpre t
Ġalter nat
Ġm ila
Ġvi ve
t ervi
ĠCa st
Ġpassa r
Ġcom pra
Ġ internet
Ġcommer ciali
Ġprote zione
Ġver amente
c oma
Ġperi colo
Ġe tÃł
Ġpart ner
Ġincontr a
n ver
Ġro sso
Ġ intorno
nge r
Ġ intr
ĠH otel
Ġfor me
Ġliv elli
es s
Ġmigli ora
Ġfac ilmente
Ġreali zzato
ce book
Ġalcu n
Ġde ntro
ĠT orino
ĠS c
Ġfra nce
u sione
Ġso m
Ġchia ro
Ġmo vimento
Ġsa bato
k y
Ġparol a
Ġbe r
Ġnon chÃ©
Ġincontr i
Ġquant itÃł
o nso
b ora
Ġg lo
i ntero
Ġo ccu
2 5
Ġ ang
Ġsi mb
Ġo ff
ha r
Ġabba stanza
Ġtut ela
Ġsuper fi
1 7
ĠGo ogle
Ġpo sse
stent e
g ua
Ġca pi
ru s
A M
ment ali
or si
Ġfami liar
Ġaffronta r
Ġacqui stare
Ġvant aggio
Ġsce na
cci d
Ġpre so
c onso
Ġeconomi ca
t ende
Ġfe no
Ġ mente
Ġsini stra
nier i
Ġpassar e
Ġ Ð
Ġcorr ispo
Ġre gione
Ġcultura le
Ġvi rt
Ġatt ac
ĠGr azie
Ġpre sto
sto no
Ġspe cie
Ġri sol
S u
Ġop zioni
Ġave t
Ġpubbli cato
Ġnumero si
Ġavet e
Ġdire tta
Ġpro vo
Ġdall o
Ġ alber
Ġ19 8
Ġad e
Ġdefi ni
Ġcap elli
ĠMarc o
Ġtra sc
Ġpi ena
Ġdie tro
Ġgi ur
s peri
Ġo bie
Ġre spi
Ġdecid e
Ġv uoi
G i
Ġaffrontar e
Ġri pro
Ġcomp uter
tta via
n tervi
nden t
Ġdoma nde
Ġque i
Ġlat o
Ġ [
ven uto
Ġfa ci
Ġ conso
Ġdesider i
gi mento
Ġ iscri
ĠP oi
Ġdichiara t
pu l
Ġvelo citÃł
Ġmaggi ori
Ġb el
pu bblica
Ġri do
C e
ĠN ella
n tatta
Ġevent uali
Ġsold i
Ġanima li
Ġsta nda
c y
Ġraccolt a
Ġd imi
Ġser ve
Ġgua da
Ġf lu
sce n
i ntervi
i v
Ġo vviamente
e vento
1 6
Ġmo ndiale
a ffe
gger e
Ġd ist
pir a
Ġide e
Ġbr u
Ġri vi
E T
Ġf ia
Ġconfer ma
ito li
ĠL ui
Ġassoluta mente
Ġdire zione
Ġsca l
Ġ anzi
Ġapert o
Ġinse gna
oria le
mat ici
Ġeffica ce
Ġorigi nale
Ġfar lo
ĠU niti
Ġda nni
ĠEuro pe
Ġpopola r
Ġdetta gli
Ġ intervento
Ġ speri
scen t
Ġsoggi orno
ĠGa r
Ġsu b
Ġ inda
i nqu
ĠChie sa
a udio
p ito
em mo
t enuto
A nche
Ġrit orno
Ġe rr
Ġli sta
Ġcom ma
o nfe
Ġscelt o
Ġri c
1 3
ĠVe r
Ġproba bilmente
sso ciazione
Ġsegue n
Ġap p
Ġseguen t
e nsi
o ok
g nia
uo c
ĠC ro
Ġle n
k o
ĠW a
Ġgratu ito
Ġma dre
fr a
Ġcam pagna
ĠD ire
uoc o
m itÃł
up pi
es ca
s chie
Ġde po
w ork
Ġdefi nit
Ġutili zzato
Ġgi ud
Ġte nere
Ġmo t
lia rdi
Ġt h
N A
sat e
Ġ age
ila t
Ġchi ude
Ġeffett uare
Ġatt o
4 0
Ġvi suali
ĠA ng
Ġprotagoni sta
Ġpa gine
ĠF ire
Ġaspe tti
Ġmo du
Ġsc uole
l za
bb ia
Ġatten t
it ud
Ġtu e
Ġtutta via
Ġmi liardi
ĠNe w
cor do
o nqui
) ;
Ġmacchi na
va mo
Ġsolit o
Ġnat urali
Ġ20 20
Qua ndo
n va
C I
ma mente
n tenuto
Ġcar ico
Ġd ina
ro ni
Ġsu gger
o ntenuto
c ontenuto
Ġnecessa ria
Ġad esso
Ġ201 0
o ntatta
Ġte am
c onfe
P o
Ġor ient
li no
Ġlibe rtÃł
mat ori
Ġg ol
ff a
Ġtro ver
Ġpolit iche
ga no
Ġne gat
gr e
Ġse t
Ġcom b
Ġsvol ge
Ġ contenuto
du cia
a ci
% .
Ġmalatt ia
ccid e
Q u
Ġtro vano
Ġrima ne
D I
anc o
Ġdire ttore
stru ttura
c ole
Ġsco prire
Ġdis cipli
Ġz one
zionali tÃł
Ġresponsa bile
ir si
Ġpreno t
uni ca
Ġalc olismo
Ġimpe g
Ġdisc u
Ġbi glie
i scono
Ġcomplet o
D i
Ġam ore
Ġpa ssione
Ġmigli or
s ple
Ġd isco
Ġo ggetti
ĠH e
Ġfi gura
Ġmem oria
st iti
g nu
C O
Ġmi litar
Ġper t
Ġo ggetto
so d
V I
Ġri b
Ġmi sure
viar e
Ġrispo ste
t esto
net a
o ccasione
Ġsu gli
gant e
Ġdiver so
Ġave vano
Ġespert i
t ifica
Ġgio care
ĠNa zionale
mina zione
c ontatta
Ġtelef ono
Ġfa l
ccorr e
use ppe
zza zioni
Ġ sple
Ġgra tis
c ur
Ġ interno
Ġz u
y e
Ġde stra
Ġdeci sione
p ore
Ġ inso
Ġ ï¿½
Ġna sco
ĠFa cebook
Ġ contatta
ĠVa l
da mente
o e
Ġch a
Ġgr uppi
n nu
Ġpicco le
Ġstanda rd
Ġmu lti
i P
Ġav rÃł
Ġada tta
ttiva mente
Ġblo g
Ġaffer ma
Ġdedi cata
Ġconc r
Ġserat a
Ġrie sce
Ġparte nza
Ġlibe ro
bilit a
c ost
Euro pa
Ġso vr
Ġpropo ne
Ġgr i
ngr a
u ma
i zioni
Ġcor si
Ġ confe
Ġfr ed
M e
Ġpa sse
olo gna
Ġes pri
Ġinfi ne
l b
Ġcamb iare
Ġcostru zione
Ġse colo
zio nato
Ġprecedent i
e rro
Ġgr ad
Ġriu scit
pe n
Ġim pro
Ġim pie
ĠS pa
Ġspa zi
Ġsignifi cat
Ġpote nzia
Ġgener a
ĠW i
Ġpo sta
rti mento
Ġgo ver
s b
Ġme zzi
Ġdire tto
Ġmer avi
Ġtele vi
olt e
Ġport e
Ġaspe tta
far e
tta zione
ca n
le a
f ano
Ġre gole
gra fia
!! !!
sant e
i ncar
Ġsoste gno
Ġfor nire
Ġsc ola
gr essi
Ġmet odo
c care
Ġpersona ggi
uten t
Ġval utazione
Ġmo menti
Ġte d
t mo
Ġde b
Ġb y
ĠI o
dat e
Ġoffr ire
N ella
Ġpu li
Ġdiffere n
Ġcre do
ffe rta
b ale
R i
Ġart icoli
h otel
Ġtor na
Ġdifferen t
iant e
c onqui
or za
me ssa
i nfe
Ġcomu nale
Ġ schie
bb r
Ġtradi zione
ca l
Ġpa ura
Ġfor mato
Ġindi pende
zza no
a nza
Ġu nica
lo ad
Ġcontr ibu
ad ro
ĠT ro
Ġprofessioni sti
nient i
Ġcerca ndo
Ġb ello
Ġaffi da
Ġvi ttoria
s mi
Ġfor ni
Ġ conqui
d enza
si no
Ġpassa ggio
Ġpre ssione
Ġtratta t
Ġpresentat o
t erro
, .
Ġlen t
I L
Ġord ine
Ġulti me
Ġmatti na
Ġna sce
Ġ19 7
Ġcampio nato
na ro
iri ttura
Ġabb ando
Ġcoi nv
e tti
Uni versitÃł
Ġmu sc
Ġentra t
Ġ ana
ne si
muo vere
Ġrichie ste
Ġconfront o
indo ws
Ġri n
ĠD r
acqui sto
Ġ ?
Ġfem mini
Ġgiu sta
4 5
vi o
po ca
Ġle ttura
Ġdisposit ivo
V A
Ġfe rma
im porta
Ġmant enere
Ġvi g
Ġcap itale
Ġre cente
Ġrela tiva
ĠMar i
Ġcol o
Ġmini mo
n terro
Ġdig itale
a bi
ĠSc o
ĠSant a
mo ne
Ġfun zioni
Ġchia ve
Ġcondi zione
r me
sit e
n tino
ĠE le
Ġsmart phone
pa rt
Ġl Ã¬
ĠMont e
Ġeffe tto
Ġpre stazioni
Ġspettac olo
Ġacce sso
pli cazione
Ġo d
Ġener gia
Ġnessu n
Ġinteressant e
parat o
utent e
Ġproprie t
Ġ affe
Ġpot ete
ol d
Ġau mento
Ġcivi le
sod i
Ġla va
ĠGi useppe
Ġ |
Ġed u
uat i
Ġmo tivi
Ġpo che
Ġvolon t
Ġm uo
Ġbelle zza
tmo sfer
Ġappa rt
Ġric o
Ġfi nali
Ġdesider a
rra r
Ġ ze
Ġinno vat
Ġmessa ggio
imma gine
du ce
Ġpoi chÃ©
ĠF eder
Ġtipo lo
mini o
Ġcom mi
Ġpresent azione
Ġotti mi
i nna
Ġdiet a
Ġfi ducia
Ġsfi da
Ġsti mo
ia ni
me sse
Ġfe rro
it y
es Ã¹
n testo
ap po
Ġgio catori
o ntesto
c ontesto
mentat o
ing r
ur t
e rr
sar i
Ġcompo sto
Ġconclu d
Ġcondi vide
Ġcom bi
Ġtor nare
mie r
Ġdie ci
Ġ contesto
mi che
ssar e
Ġ coma
Ġdecr eto
Ġparticolar i
In t
n tende
Ġrice vere
Ġri po
Ġnot o
Ġmo nit
Ġ assa
Ġpro spe
Ġitalia ne
C H
Ġpiatta forma
a tmosfer
o o
Ġper ce
ve nire
Ġf l
ai o
stat i
ĠT V
sci o
Ġing lese
Ġvi sione
Ġvol uto
Ġe vento
Ġopera tori
ĠV ale
Ġci rco
Ġpolit ico
ad d
Ġcine ma
b y
Ġotti mo
Ġpopol azione
ĠS port
ket ing
Ġpo meri
Ġe sti
s el
Ġsu fficient
Ġla bora
ntr e
ĠMe r
Ġcontra r
Ġ pl
Gr azie
Ġchi u
Ġli nk
Ġora r
Ġadd irittura
Ġm ille
Ġcontrar i
Ġorar i
Ġde vi
n elli
Ġver itÃł
ch iamo
as h
Ġfi sica
lent e
Ġener ge
Ġe sso
ĠAnd rea
Ġcond u
h ia
Ġvin t
Ġentr ambi
ol le
ĠGi o
Ġ sÃ¬
ĠD EL
Ġ agi
Ġle ader
Ġattr e
Ġtras porto
sl a
spe dale
Ġpre su
Ġre dd
p elli
t ensi
Ġperfe tto
Tr a
Ġambient e
Ġstar e
Ġgu sto
ĠM use
ttat a
Ġinterna zionali
inc ontro
un ci
Ġaiuta r
ĠPr ima
wn load
Ġasc olta
ient e
ĠB ru
cia lmente
eta r
Ġes perie
9 0
ĠRe pubblica
Ġen t
cor d
Ġriporta t
ĠInte rnet
Ġpa nor
Ġfinanzia r
c ut
C he
Ġobie ttivi
ona l
Ġeurope a
ĠAle ssa
Ġclassi fica
gia t
pera tura
Ġconsegue nza
ni bile
Ġdife sa
Ġchiede r
e tta
Ġentra r
ĠOr a
Ġfor ze
Ġline e
Ġ cost
Ġecc elle
Ġve ni
Ġentrar e
Ġrig uardo
Ġconsape vole
c uri
Ġsempli ci
unciat o
ffi cio
Ġscar pe
n sulta
ĠE cco
ma ni
itat i
ĠP ale
Ġconsi glia
Ġpre zio
Ġvi cina
m meno
Ġst elle
aut ore
Ġaggi unge
i nva
ori r
Ġri sca
Ġ3 5
Ġatte sa
Ġyo u
i nterro
Ġpia cere
Ġid ea
Ġvi nci
r y
Ġulter iori
ini zia
Ġpomeri ggio
Ġf uoco
il ome
Ġpropo ste
ĠC or
Ġsi m
ĠGe rma
Ġcam bio
Ġo ttima
Ġiniziat o
Ġcontrib uto
ro id
Ġed ifi
Ġdichiarat o
Ġ argo
ĠN ord
u nd
ci enza
ĠG esÃ¹
Ġsa ngue
ndr a
Ġse gno
zza ndo
pre ssione
s g
Ġ200 9
ĠB ologna
Ġparteci pare
Ġaccad e
iva mente
Ġne mmeno
t utto
Ġvo gli
Ġpot uto
Ġchie sto
A T
Ġcop pia
Ġpensi ero
Ġgesti r
Ġsegnal a
lu s
ir ur
r amente
Ġgiard ino
i chi
Ġimpiant i
Ġnego zio
Ġba nd
orir e
Ġab bi
Ġdocu mento
Ġe cco
Ġcent o
ĠCom missione
Ġpro vare
Ġcan z
Ġfe sta
Ġtestimo nia
Ġchia ma
Ġmanife stazione
nu s
c osta
Ġappa ssio
r Ã²
ing e
cia t
Ġve ner
Ġse nsa
Ġcomple sso
Ġtr accia
Ġaspe tto
a gri
Ġrap porti
Ġ ae
Ġutilizza ndo
Ġso ci
2 3
Ġdo bbiamo
Ġspe sa
r essi
Ġdol l
Ġe ssi
Ġver ranno
Ġesperie nze
ĠFire nze
ĠV illa
ĠLu ca
ct i
Ġcit a
nant e
Ġrece nsioni
n uo
a lb
Ġte mi
ĠC ON
Ġrid urre
atte nzione
Ġprogram mi
Pr e
Ġgestir e
Ġlasc iare
Ġe ssa
Ġdoll a
Ġd Ãł
Ġrela tivi
gliar e
nd ia
lo go
Ġpsi colo
U S
fi ne
Ġconsi gli
Ġesse ndo
a rd
ĠC orte
Ġmo bili
lie r
Ġfina lmente
Ġmo tiva
Ġste sse
Ġcompa gnia
Ġre a
ria mo
a rchi
ĠFra ncia
n telli
Ġnoti zia
ĠV o
Ġpront o
Ġri ngra
Ġanali si
ap p
Ġscr ive
uni c
ĠS am
Ġinizia tive
2 1
7 0
E D
Ġvi no
Ġpartecipa n
Ġna zionali
Ġpartecipan t
Ġde vo
Ġassi stenza
Ġli ce
Ġaiutar e
Ġsimi le
) :
Ġmont a
Ġlung he
i pi
Ġ ipot
Ġim mobili
Ġmedi o
Ġini zio
Ġopera zioni
ĠO gni
ac cordo
Ġau mentare
Ġ7 0
n tensi
ĠAnt onio
Ġcaratter e
Ġpart ito
o fferta
Ġgio ca
Ġinizia r
Ġci bo
Ġ200 8
Ġ costa
Ġsor pre
o nsulta
Ġinf lue
ĠCa rlo
Ġsple ndi
Ġpro ssima
cent o
i bile
utat o
Ġiniziar e
c onsulta
fr ica
Ġ cora
i ntensi
Ġcr it
ĠDa l
Ġord i
Ġne o
unic o
Ġinfer iore
e do
Ġ archite
Ġ Ã©
Ġsent ire
Ġnu meri
ĠSe condo
ili bri
9 9
Ġgam ma
tr ici
V i
zia le
Ġspeci fico
n tina
Ġopport unitÃł
Ġmi e
Ġvol ume
olo gico
Ġsu d
Ġsuperfi cie
Ġri duzione
c ook
po t
Ġdub bio
i ntelli
Ġmed iante
Ġfi si
Ġmi na
ĠPer chÃ©
Ġ consulta
mi ng
uo no
o tti
ĠT h
Ġchieder e
ĠVene zia
Ġsitua zioni
Ġfe ste
Ġconse gna
Ġricev uto
Ġdisposit ivi
Ġpossa no
p pio
Ġap par
Ġtur isti
Ġ inna
Ġvolon tÃł
Ġcorre n
Ġcorren t
oll a
Ġalt i
Ġpa i
n uare
I M
ĠD el
Ġimpe gno
ĠD ani
ĠW indows
Ġnego zi
stent i
d urre
i scr
Ġcellu l
Ġmo tore
n ch
Ġprof ilo
ĠNa tale
Ġfinanzia mento
Ġcontrari o
Ġvo stri
n tale
Ġcellul a
iat amente
Ġpropriet a
ĠN uo
Ġpa gare
Ġproced ura
Ġf orti
ro m
Ġricor r
Ġlo tta
Ġac cedere
Ġtec nici
Ġcompet enze
organi zzazione
ster e
Ġcentr i
Ġpri vato
Ġmar chio
Ġ sg
Ġ area
t ana
ĠF l
Ġper ma
i nuare
Ġno rd
na menti
ap plicazione
Ġlon tano
lt ura
Ġcommer ciale
Ġstr ade
si vo
ver i
2 2
Ġre so
t ene
rra t
asso ciazione
gi ci
Ġla r
uat e
alt a
u ng
ita zione
Ġtra ffi
ee n
can t
Ġsing olo
Ġscar icare
Ġapert a
Ġtr u
Ġvaca nza
Ġcompo nenti
Ġso ggetto
A ssociazione
Ġ curi
Ġvia ggia
Ġg ode
r azione
Ġ iP
Ġu sato
e ressi
D e
Ġle g
sche r
li c
Ġri uni
ĠF onda
Ġdipendent i
etar i
ZI ONE
Ġcreat o
Ġpromo zione
t eressi
n teressi
Ġde naro
I o
Ġconclud e
Ġdemo cra
i nteressi
t inuare
Ġassocia t
Ġnorma le
Ġscelt e
Ġutili zzo
Ġfrance se
Ġesclusi vamente
ĠB ene
S O
/ /
Ġpre stito
ita no
ff Ã¨
p il
nitari o
Ġdist ur
Ġrega l
Ġqu adro
ĠQ ui
j a
Ġmi glia
Ġcre azione
Ġmaggi ora
Ġdisponi bilitÃł
Ġ inqu
Ġch ilome
rt amente
Ġpossi bili
n tinuare
ĠO n
o ntinuare
c ontinuare
Ġpa le
f ie
Ġcant a
Ã ¡
ĠMa n
mi ne
Ġarti sti
Ġvogli ono
Ġqua rt
Ġ continuare
m me
Ġpar che
Ġutili zzati
Ġd istru
nd olo
ĠQu indi
Ġsi len
pat a
ĠPa esi
Ġso lle
s hi
Ġmod ifica
ĠSu per
t s
Ġsco nfi
Ġpa d
inizia tiva
n el
Ġuma no
Ġvener dÃ¬
- -
zze r
Ġpre mio
orr ei
i nu
Ġ5 00
Ġgara nzia
Ġ cook
Ġbene fi
ie s
nar si
ac cio
Ġ nato
Ġle ggi
Ġimpe d
gi che
Ġdimi nu
Ġ interessi
ĠPa rt
ver sari
sci na
Ġvisita r
F a
Ġalcu na
e tÃł
Ġevide n
f ort
ĠS ici
Ġdocu menti
Ġmem bri
Ġdol ce
Ġpri vati
U N
Ġ istru
Ġcr ede
i ntende
ĠF u
stant i
Ġe vol
Ġver ifica
Ġgra ve
Ġtecnolo gie
Ġter za
s chia
Ġcar ica
Ġ por
Ġtem peratura
i nvi
lc o
Ġdel e
Ġpensat o
Ġ interro
ĠA ma
ĠCo sÃ¬
Ġo ppo
rebbe ro
we r
Ġsele zione
Ġatt ualmente
nder si
Ġaggi unto
i sse
Ġmot o
a prire
Ġ19 6
ĠT ea
n uta
ie tro
Ġbene ssere
Ġeviden t
Ġ arte
v il
gnor e
Ġproprieta r
âĢ ĵ
Ġproprietar i
Ġo biettivo
ĠS ud
: //
Ġpu l
Ġvisitar e
Ġmar ito
Ġo gnu
si ness
ltr a
ĠI I
Ġ #
Ġ infe
Ġparla t
ĠTu ttavia
Ġcompa gni
ĠB ia
Ġrispo ndere
ver si
cu zione
Ġrela tive
Ġpa ce
Ġpazient e
Ð ¾
Ġci clo
ĠG ro
Ġpi o
ĠB l
ĠR ai
Ġ9 0
li ca
Ġ azione
Ġimmed iatamente
Ġeurope o
ĠTu tti
Ġnumero se
Ġel abora
Ġce rte
ĠInte r
Ġinci d
Ġdoma ni
c oli
Ġmini stro
li ano
Ġ sp
% ,
Ġchia mato
ute nzione
Ġpre vent
ĠGerma nia
Ġst iamo
Ġproce ssi
A m
Ġ aprire
e state
F i
ĠG u
e ffe
cia r
na l
Ġpo si
Ġd u
Ġde ce
a po
ĠS il
Ġave vo
o pia
ster i
Ġg l
Ġperfe tta
Ġf le
fi care
e ste
Ġpote n
Ġperme sso
Ġprotagoni sti
colat o
Ġ Ã
es su
Ġscr ivere
Ġconsider azione
Ġg ene
alb um
Ġsilen zio
Ġnor me
ttat e
ĠT utto
strat i
ĠLe ga
ĠFe stival
Ġcor sa
B I
a bile
mo bile
Ġfinanziar i
Ġpro fi
Ġg ira
da zione
Ġfo ndi
Ġpartecipant i
Ġo ccorre
Ġricor d
Ġlu ne
Ġpunta t
Ġintegra t
Ġchie sa
ĠO ggi
ber a
Ġca va
ĠM ila
acce sso
ĠCom uni
Ġfarma ci
Ġpa esa
Ġcarr iera
n tico
Ġmanca nza
Ġdolla r
Ġappli cazioni
Ġlu ci
tti vitÃł
Ġri su
Ġd ir
Ġo li
Ġsu llo
itat a
Ġassocia zioni
Ġcellula r
Ġcri st
h one
Ġsf or
ĠA lla
ĠS cu
li na
Ġmo glie
Ġprove nienti
Ġcittad ina
i ment
ĠT ur
tt Ãł
Ġchiu sura
lit o
Ġai uto
Ġper cent
Ġdollar i
Ġaggi unt
ĠL A
nia le
Ġst orie
Ġpoten t
Ġconsu mo
o stre
Ġinterpret a
Ġbu siness
Ġb lu
Ġve nne
le s
ĠÂ ·
Ġam pio
Ġmo bile
Ġd iva
ĠP ER
Ġcr iti
ient i
E G
Ġqui n
ĠSici lia
N e
Ġotte nuto
mi lia
ro so
Ġcapa ce
Ġsi ete
Ġfil oso
_ _
ĠJ a
Ġdiver sa
Ġ intervi
Ġt itoli
Ġincid e
Ġb att
c ostre
ĠA c
ggiat o
Ġmaggiora nza
Ġdia gno
Ġsa ppia
ĠG ru
Ġid r
porta t
ĠMa t
sti no
Ġsche rmo
Ġtrad ing
Ġcostru ire
Ġcambia mento
Ġ inva
Ġlim iti
etari o
att uale
ĠBr e
Ġsvilup pa
Ġsi no
Ġrappresenta t
v olo
Ġma e
Ġsu dd
s lo
ĠA bbiamo
Ġ incar
Ġne t
Ġquin t
be ro
Ġepi sodi
ria t
im po
ĠB or
Ġpro ssimi
Ġbila ncio
car si
s k
Ġimpre nd
ĠScar pe
Ġmo vi
Ġ costre
Ġri sc
Ġra ffi
t it
Uni one
Ġv illa
Ġprinci pio
n tica
me tri
Ġmo no
i ntra
ĠA lle
Ġappunt o
Ġeserci t
ĠP C
Ġcol pi
Ġ integr
Ġvi e
Ġpre sa
da no
Ġn utr
V e
Ġappro fond
a ce
Ġpo polo
un gi
Ġall u
Ġterr eno
med i
iter i
Ġrecu pero
Ġrila sc
Ġw ww
Ġla ur
olo gica
e conomia
Ġmod i
Ġguarda r
Ġpar c
Ġtradi zionale
Ġpe na
T he
Ġsuccessi vo
Ġricor do
U R
Ġmu se
Ġpert a
C E
Ġperta n
Ġrifi uti
ne i
Ġpertan t
Ġpri va
Ġpertant o
tr ia
Ġber e
Ġsint omi
Ġava nzat
Ġpur troppo
Ġme tro
Ġconc orso
Ġaggi ungere
o sid
t iene
Ġci elo
Ġri costru
Ġnessu na
ĠL ore
g nata
Ġfa sci
Ġuma ni
ie ro
av oro
ote r
ttat i
del l
cti o
ia o
Ġspe tta
c osid
Ġ4 5
N O
ĠA L
a pre
ur ro
Ġsta zione
Ġinclu d
ĠG ener
Ġconvi n
Ġacqui sto
2 6
Ġpa trimonio
me tro
Ġfun zionalitÃł
ĠPie tro
m bio
Ġparlat o
Ġuni tÃł
c lub
Ġfeno meno
o ut
Ġnoti zie
ĠPal azzo
e poca
n vo
ĠPro vincia
n ute
Ġcom pi
ot i
Ġre qui
ĠQue sti
Ġ200 7
scri tto
oni ca
Ġval uta
ĠS iamo
s orta
Ġav v
nd iamo
Ġd iment
Ġori gine
n com
Ġcolle zione
Ġprose gu
Ġ conda
da n
t ello
Ġatt uale
Ġraggi unto
Ġsucce d
Ġr adio
ic k
Ġscien tifi
Ġfa t
Ġf ede
Ġcol tiva
Ġspeci fica
Ġma rt
Ġstra ordi
cosid d
Ġf ore
Ġspir ito
Ġvo glio
Ġvoglia mo
Ġpai o
Ġracco ma
Ġ sorta
am b
anali si
vent a
Ð °
Ġcura t
ĠCa mera
Ġbor do
ĠCol le
Ġ apre
Ġtea tro
3 5
Ġsimi li
Ġgiudi zio
Ġspera nza
r gent
ndi o
Ġportat a
Ġg uar
Ġguardar e
D A
Ġb atta
Ġe mail
Ġtav olo
Ġl Ãł
Ġmalatt ie
Ġcol azione
ic ono
Ġclassi c
vi du
Ġtraffi c
Ġpote va
Ġlasc iato
o tto
nit aria
Ġca rte
Ġprof onda
Ġspeci fiche
r b
or na
ĠG eno
nit ore
Ġta b
Ġpreo ccupa
Ġur ba
ĠW eb
i ch
Ġistitu zioni
Ġpart ite
ndent e
elat o
Ġso gno
pri o
mb ro
Ġte nuto
Ġo ut
ani ma
Ġ za
Ġdovrebbe ro
Ġlim ite
ese rci
cura t
Ġarrivat o
Ġo cca
Ġfar si
Ġra t
2 7
Ġci rc
Ġmiglia ia
Ġ intende
Ġsarebbe ro
Ġpoli zia
Ġoffe rta
ĠC ina
Ġposit ivo
Ġ cosidd
Ġam pia
ol azione
si mo
Ġdifferent i
Ġsta nza
n tu
Ġri struttura
ami ca
Ġcam pa
Ġmeravi glio
Ġ3 6
n tiene
Ġw as
igh t
Ġdetta glio
gnor a
Ġrisol vere
do tto
ĠDo nna
Ġ intensi
Ġzu cche
ĠPia zza
gh t
Ġtraffic o
Ġ8 0
ĠM atte
ilibri o
ĠCr isto
o ntiene
c ontiene
orma zione
tti me
cati o
ĠSe m
Ġorgani zzato
ĠS ch
Ġman utenzione
Ġri mb
vi e
Ġtr atti
Ġparc o
Ġcele bra
o sci
zza n
Ġden t
Ġemo zioni
le ggio
ved Ã¬
Ġconce tto
for me
Ġconsiderat o
Ġpre parazione
ĠM ac
Ġperfe ttamente
Ġvot o
Ġrela zioni
ctio n
bb e
gna no
orre n
catio n
Ġca ffÃ¨
Ġinteressant i
ssa n
P A
Ġind ustr
Ġdive rte
ggiat a
Ġba nca
fer e
Ġ contiene
Ġpot enza
Ġbuo ni
Ġchilome tri
c oni
Ġade r
Ġdimen sione
Ġis pira
Ġpo n
Ġcult urali
Ġavvi ene
M o
ssi bilitÃł
d em
Ġcal do
Ġt ap
Ġpresenta r
Ġscal a
Ġfa i
Ġmusica le
S S
n ella
pol a
i vitÃł
Ġ pil
Ġvince r
orren t
Ġg as
Ġaut ore
ĠMini stero
e stero
Ġ asci
ib li
Ġinvesti menti
Ġcompet e
Ġna scita
Ġgio catore
s punt
j e
Ġ intra
Ġsqu adre
ĠSe rie
Ġca st
2 8
a ro
ĠMa rti
C hi
ĠA rt
Ġv or
ci d
Ġb ici
Ġse que
Ġclassic o
n sen
Ġambient ale
Ġprevi sta
Ġto ur
Ġim mer
Ġacco glie
im pa
ns or
Ġch irur
Ġ spunt
mi nato
Ġfr utto
Ġd isi
tta ndo
Ġulti mo
Ġimma gi
Ġper forma
Ġsoli da
s pre
e rni
Ġspo sta
Ġvincer e
Ð µ
ndi mento
Ġo lio
ĠAnd roid
ĠPale rmo
Ġquotid iana
Ġsotto po
esi a
ua zione
Ġcal da
Ġpotr ai
zzan t
Ġris chi
Ġfort una
itud ine
ccia t
r che
Ġmar keting
Ġestre mamente
ĠTe r
nger e
Ġl ie
Ġviole nza
Ġd ida
Ġpresentar e
s orr
Ġper se
ifica zione
201 6
im presa
Ġtre no
ĠSte fano
Ġ slo
Ġau menta
Ġami c
Ġinf r
Ġsal va
Ġlune dÃ¬
Ġamic o
ĠM ic
li r
osca na
Ì Ģ
pe gno
ĠLe o
Ġcondivide r
Ġu scit
g nati
Ġgener azione
zio nati
Ġdov ranno
tt iamo
Ġfi ori
mo d
ĠInf atti
nzia lmente
Ġsoste nere
Ġam bito
si va
ni ng
Ġt v
Ġqual unque
mir a
Ġave ndo
Ġaltr a
Ġraga zzo
Ġristorant e
i or
Se condo
Ġmed esi
Ġriv ela
Ġma na
Ġfa rÃł
or y
ap pro
orat i
Ġw e
Ġtro vi
Ġe mi
Ġim per
Ġba ssa
Ġbr and
Ġarti gia
Ġappunt amento
Ġfa bbr
ĠLa zio
ĠS tr
ac t
Ġrappresenta n
Ġ sorr
Ġsent enza
Ġrappresentan t
Ġfemmini le
Ġro sa
o perazione
med ia
ĠV ero
a ntica
Ġann unci
Ġinser ire
Ġroman zo
perat o
a ntico
Ġiden tifi
Ġre stitu
i tta
Ġraga zza
ĠGo verno
Ġsf u
ĠFonda zione
F r
Ġuma na
Ġ anzia
Ġ club
n z
Ġlu mino
Ġprenot a
Ġte ssuto
Ġvi vo
Ġatt orno
es chi
c opia
zio nata
O ggi
p ita
Ġce rtamente
Ġcre scere
Ġcittad ino
ĠTea tro
g s
A bbiamo
Ġe c
Ġ200 0
scent e
Ġsv olta
Ġstrate gia
a gr
Ġav vent
o ordi
ver so
porta r
c oordi
Ġcomp ito
Ġnet work
Ġter apia
Ġpia tto
ĠU S
Ġregistra zione
Ġtr atto
Ġpe zzi
oli o
Ġverifi care
Ġcom pro
ĠNa t
Ġcommer cio
Ġfor mula
A ll
Int e
sa no
i p
Ġpotr ete
Ġdo ver
ide n
urat o
Ġprofessio nali
uali tÃł
Ġindipende n
ssan t
Ġindipenden t
Ġele mento
Ġ sb
Ġassu n
Ġrichie sto
f u
Ġraggi unge
ĠP D
B a
c osci
Ġricorr e
y s
v olta
Ġpre venzione
nd ola
Ġ cur
Ġfel ici
Ġnu cle
Ġ âĢĻ
gra fica
Ġad ulti
Ġbi narie
ro si
Ġconvin t
Ġspie gato
ĠO ltre
Ġtem pora
n ello
me s
Ġfatt ori
' s
Ġacce ssori
ĠG ua
Ġada tto
am be
Ġ !
Ġpiant e
Ġval utare
Ġregal a
c oe
Ġindi cazioni
ingr esso
Ġma trimonio
Ġve cchio
Ġri cco
Ġcompre nde
s par
zo n
Ġabita n
B e
Ġ coordi
Ġcr iteri
Ġabitan t
Ġstori ca
i ro
Ġingr ed
Ġlega le
br ano
is pe
Ġrivol ge
Ġcondivider e
Ġ ano
ibu nale
Ġra ff
Ġappli cazione
Ġglo bale
c orte
ĠTe rra
Ġcompra r
Ġla tte
Ġcu sto
Ġricor dare
M O
i colo
Ġpersona ggio
po lit
Ġambient i
Ġloca litÃł
Ġvice nda
Ġdiscu ssione
H otel
E C
ĠB ro
ndat o
ggia mento
g ner
ndar i
Ġu scita
a nnu
Ġtro viamo
portar e
Ġpropo sito
Ã ¼
Ġdr am
t y
da nza
Ġprinci pi
rie tÃł
col azione
Ġdistribu zione
Ġsped izione
Ġpro ie
tra t
Ġindi vidu
Ġregi oni
it ro
Ġstimo l
ĠMari o
3 3
Ġscopert a
Ġaccor do
Ġfonda mentali
Ġobbli gat
ĠS ale
Ġspia ggia
Ġ ...
Ġrisca l
Ġringra zia
Ġauto matica
ĠCo d
ve ro
ĠRo berto
Ġmor bi
lu zione
Ġm m
Ġcora ggio
Ġma mma
Ġfe del
ĠA t
Ġrea t
Ġse ttori
I stituto
lir e
Ġmecca ni
is ci
Ġr uot
rr i
Ġro ma
Ġ coe
âĢĻ ,
2 9
Ġsa cr
ur ia
Ġdo ppio
Ġpo ster
Ġsufficient e
Ġ cosci
Ġo ne
it olo
S iamo
Ġ intelli
P S
Ġprevi sti
so mma
ĠAp ple
Ġqua rto
Ġma scher
Ġtale n
cu l
Ġce rta
Ġri mo
Ġsa pe
aff a
Ġmir a
le nza
Ġ corte
Ġognu no
n ue
Ġtalen t
Ġsola r
or ld
u gura
i nsu
ĠP d
ĠY ork
Ġfi sico
Ġris chia
Ġ3 00
Ġu scire
Ġriconosci mento
Ġindi cato
Ġso ffer
b ia
Ġ y
N a
T e
Ġriu sci
Z A
Ġcontrolla r
ol lo
Ġappart ene
Ġcre ma
Ġarr ic
Ġci fra
T ER
Ġcar ne
a rma
Ġcorrent e
Ġlegi sla
Ġb anche
Da l
M I
Ġricor so
Ġde no
ĠEurope a
Ġo mo
Ġra gioni
o nde
Ġsec ondi
Ġdida tti
Ġspa lle
vi zzer
ĠâĢ ¦
ĠU omo
Ġpercor si
Ġcomprar e
ĠL omba
Ġli qui
o ce
Ġil le
uro no
Ġrispo nde
Ġpro gressi
ĠR ic
Ġvi so
Ġsta m
Ġdis ce
Ġma schi
Ġcompre ndere
Ġdeci samente
Ġcol po
gra n
Ġre tro
Ġeconomi ci
Ġpro vato
Ġacca n
Ġconf li
Ġcontrollar e
Ġaccan t
ibli ote
ĠF ina
Ġca ne
Ġo pini
arr ivo
Ġeurope i
sta no
v ello
pla y
Ġfunziona mento
Ġchi uso
Ġpare r
ĠPro t
alt o
Ġpiant a
Ġrice tta
ĠM od
cl a
Ġta sso
Ġ aero
Ġcen tina
Ġester no
Ġab it
ĠMuse o
t let
Ġabitant i
Ġd isse
ĠQua l
Ġsche da
n Ã²
r ano
Ġca u
t erni
e sco
Ġ ..
Ġsg uardo
fi cati
Ġpon t
L O
Ġorgani zzat
li ng
Ġmer cati
ĠDa t
Ġsupera r
Ġba si
ver sita
D O
Ġfor mat
Ġgr adi
ui scono
Ġind irizzo
Ġ spar
abi nieri
Ġ nata
is s
ono stante
Ġso tti
Ġconne ssione
Ġconfi gura
Ġmu si
nni o
E cco
Ġscont o
Ġesi stono
Inte r
ĠFe rrar
Ġbuo no
n chÃ©
e zione
tti mo
Ġconfront a
Ġnecessa rie
Ġspi n
Ġpolit ici
Ġpre sti
Ġeserci zi
Ġgam be
T U
Ġpe ggi
Ġca use
tte n
Ġmessa ggi
a tlet
Ġent i
vol mente
Ġrima nere
ven uta
Ġim parare
Ġnor mativa
Ġcom menti
ĠGa l
Ġze ro
gliat a
Ġatt ivo
ĠCi Ã²
Ġri chia
bb a
Ġam pli
ĠGru ppo
sti mento
Ġsci o
Ġle gati
a bilitÃł
Ġpa sta
Ġret i
Ġfac cio
Ġrichiede r
Ġpe nso
ĠAlessa ndro
ch a
il d
Ġfotogra fia
i cato
Ġresi stenza
me ssi
ea r
Ġdesideri o
ĠS olo
Ġdiverte n
Ġdiverten t
nat ori
Ġ agri
n terni
ĠA merica
il t
g ro
Ġtre n
0 5
rie n
ec o
a pe
Ġabb iano
Ġvia ggi
Ġmang iare
atmosfer a
ĠTa r
ci Ã²
i nterni
Ġvi va
Ġarr ivo
is pensa
Ġsuperar e
Ġdimo strato
gran t
Ġincr e
Ġ porto
ĠN u
Ġlancia t
ed Ã¬
Ġrecu pera
0 8
Ġrichieder e
Ã ³
t inu
Ġpi scina
Ġ200 6
Ġ coni
a rgent
Ġdisc orso
r ale
Ġcomporta mento
Ġdispo ne
Ġvint o
vat ore
Ġro t
c ore
u ga
Ġaccant o
I nf
Ġd ib
Ġpubbli cazione
Ġsvilup pare
g ure
m m
4 8
ĠMatte o
ĠA uto
piant o
Ġv uot
ĠMa l
Ġvo stre
Ġcompet enza
mb lea
ĠLui gi
Ġsosta nze
Ġcom fort
Ġoff rono
Ġfont i
Ġvent o
ite rra
ca ndo
Ġfont e
lit e
Ġcirc onda
S o
Ġdefini zione
ab ria
Ġrela tivo
Ġchia mata
Ġpopolar e
Ġsu gge
Ġsta i
ifi cio
ĠA ssi
ind irizzo
Ġperme ttono
g g
Ġre nder
Ġorigi nali
Ġsa r
lla t
Ġaut oritÃł
Ġtot almente
a rmi
Ġtren t
Ġpuli zia
Ġf urono
Ġpunt e
Or a
3 6
Ġesa ttamente
Ġcap ito
a lli
olo gie
Ġsv olto
Ġerr ori
C C
Ġfor no
Ġgiusti zia
Ġcook ie
am pa
Ġdiff usione
Ġta glio
ine n
k ing
lt ro
b us
Ġsignifi cato
Ġvaca nze
Ġinclud e
Ġcli ma
m ore
Ġevident e
Ġseguent i
Ġw a
Ġind iri
e ster
ĠA u
Ġac que
ĠItalia na
Ġpa ne
Ġconsegue nze
ĠD u
Ġmed ie
i nuo
Ġsing oli
Ġperforma nce
Ġda nne
dell a
Ġpra nzo
Ġ audio
pa rto
Ġbatte ria
Ġgar e
li ni
Ġfi glia
ĠP h
ĠPr a
Ġge st
Ġsa p
Ġscom par
Ġlavora t
Ġproge ttazione
Ġmen si
ĠPa rco
Ġconclu sione
Ġfa scia
o nsen
Ġord ina
Ġconf or
Ġcorre tto
3 9
ĠR osa
C r
Ġpubbli che
f ru
Ġri presa
c onsen
Ġo nor
Ġfel ice
Ġvolont a
Ġdig itali
ĠC O
Ġve nire
bo le
Ġeconomi che
Ġpro muovere
Ġse ssu
olat o
ac ca
Ġ agr
am ministrazione
ĠS ky
pi d
ma zione
i f
s fo
Ġregi sta
Ġdat e
Ġpre mi
Ġda ndo
r eo
Ġtu tt
o ttura
be rt
Ġriu scire
Ġcita t
Ġrequi siti
Ġcar b
Ġeffett uato
Ġbuo ne
Ġ archi
lie n
Ġci n
Ġ interni
Ġulter iore
Ġfonda t
ordina ria
Ġne anche
Ġme ssi
Ġquart iere
ener gia
Ġ consen
Â ´
Ġti fo
Ġraff orza
Ġm ut
ga zzi
Ġ copia
Ġingr esso
Ġfis cale
u ol
Ġesegu ire
Ġregi me
Ġmodu lo
Ġh e
ĠC ir
r ico
inse gna
Ġuffi ci
Ġca pol
Ġposse sso
Ġ pelli
Ġrapi damente
Ġapert ura
unt i
Ġrile va
m or
a uten
orre r
Ġquant i
edi bile
ĠCo sa
Ġ spre
ĠÂ »
ng h
Ġimpo ssibile
Ġsem brano
na no
Ġvot a
Ġpri vi
orat a
Ġtradi zionali
uncia r
ĠU no
ĠPo n
Ġali mentare
I noltre
ha n
Ġpra tiche
Ġsuccessi vamente
t inuo
ĠI L
im pegno
Ġen tu
a nde
t esti
Ġindustr iale
Ġvi ttime
Ġf rom
A P
D E
Ġraccont o
ĠL ea
Ġdo ppia
Ġdecide r
ĠV alle
Ġca nali
Ġvi ni
ĠSo cietÃł
Ġcli c
Ġproced ure
Ġw ee
Ġve nga
att r
Ġassi eme
ĠC H
ĠPar igi
Ġpreci sa
atter e
Ġtra nsi
rta menti
i scrizione
Ġconsapevole zza
Ġ sfo
ella r
Ġraga zze
Ġre centi
a rmo
Ġcopert ura
Ġdecider e
Ġsce ne
esi stenza
Ġca le
is h
col tura
n ven
Ġlabora torio
Ġgratuita mente
unciar e
orrer e
Ġcambia menti
Ġpratica mente
Ġvarie tÃł
ĠPa pa
Ġrappresent ano
Ġvo ler
Ġingred ienti
Ġve tro
ĠA N
Ġsta bilit
Ġele zioni
ner i
r ali
Ġo per
c ottura
Ġ15 0
cor r
Ġu su
Ġcontr add
Ġprof u
Ð ¸
ĠCi ttÃł
effe tto
nce r
Ġri cca
m p
Ġmo tori
oria li
Ġsopr avvi
Ġmet odi
ian chi
. "
ĠO li
i nver
t ili
parat i
Ġso stanza
Ġopera tivo
i ncom
i nue
stro no
b bi
Ġann unciato
Ġparteci pato
Ġcat alo
Ġgiur id
ng elo
Ġind ispensa
urr i
n tinuo
Ġcellular e
Ġma trimo
âĢ¦ .
Ġpa cche
si as
ĠCa n
ĠSi gnore
ĠS h
Ġau g
o ssi
ĠC lub
7 5
ĠD ome
Ġricer che
e ssere
Ġevide nzia
om ma
Ġ3 2
stra zione
Ġelettro nica
Ġaltre ttant
Ġ cottura
Ġ schia
ĠMila n
ĠT oscana
Ġpercent uale
ĠA ir
ĠSa r
ĠC li
da l
Ġpia tti
Ġpront i
gli enza
Ġcorre tta
Ġmini ma
Ġprevi ste
na zioni
Ġind ietro
qua n
da li
ĠB uo
Ġtras missione
Ġso mma
Ġti ro
Ġ aria
Ġcompete n
Ġcompeten t
ld i
Ġpercor r
c osi
Ġex tra
Ġfosse ro
Ġbene fici
Ġbo cca
h n
Ġg alle
ĠCat a
Ġpe zzo
Ġscopert o
go glio
Ġconosci uto
Ġd imenti
Ġriuscit o
br u
n tinu
g y
Ġdiventat o
s va
Ġaff a
ndari o
c ort
ĠGra nde
Ġg hia
Ġcha t
e ffi
Ġminor e
arti sta
Ġnuova mente
Ġba ssi
Ġelettr ica
Ġmaggior mente
illa n
m s
ne amente
Ġr um
4 6
Ġsan t
mant i
importa nza
Ġsensa zione
me t
o ntinuo
i do
c ontinuo
ĠM A
Ġatt ivi
ea ming
a menti
s r
Ġecce ssi
Ġfa tica
Ġacco unt
ve st
u scita
s ore
vent e
Ġsimb olo
Ġfa si
Ġchi unque
nziat o
Ġspir it
ssut i
i ge
Ġgior nate
Ġvant aggi
Ġ isola
Ġce na
t atti
Ġfil o
oni c
Ġmi nuto
bi r
Ġ clo
Ġ )
Ġparche ggio
ge nzia
ĠCam pa
e nzione
Ġdo wnload
A r
Ġnota r
ir anno
Ġcrit ica
a nch
n verno
lia mo
gliat e
zia t
Ġter zi
Ġto p
Ġ continuo
Ġazienda le
Ġappa rtamento
Ġtur no
Ġinstalla t
Ġredd ito
Ġfr i
ĠE l
ĠK e
0 3
s ch
Ġcateg orie
Ġlingua ggio
0 9
ĠR ice
Ġspin t
O gni
Ġrispar m
Ġd or
Ġaltri menti
Ġgravi danza
ni ce
glia mento
Ġinteressat i
Ġconso li
pri ma
Ġd itta
Ġind ustria
Ġinsegna n
Ġri forma
Ġinsegnan t
car ica
gra fico
i nverno
Ġpri vata
Ġ annu
ĠLomba rdia
Ġca no
Ġmacchi ne
Ġcontro lli
c ure
Ġincide n
Ġinfr a
Ġpe n
w o
gio nale
Ġinciden t
mo t
Ġgiud ice
Ġdetermi nato
aspe tto
o bbli
wa rd
Ġd iv
Ġdib att
Ġvisita tori
Ġ3 8
ĠG ian
ĠU N
Ġv uol
0 6
Ġquotid iano
Ġpro cedere
Ġt hat
fi cata
a genti
Ġabb r
Ġ sva
0 7
Ġde scr
Ġnatura lmente
Ġfrequent a
ac o
0 4
Ġmodifi che
sit y
Ġma gi
ste ma
Ġmigliora mento
ĠS U
lo ne
l and
inen t
Ġpreno tazione
ĠA lcu
Ġbi o
Ġce d
ĠP orto
Ġo sta
Ġfamiliar i
Ġbo nus
Ġve do
ĠLo ndra
illan t
Ġbatta glia
Ġvolt o
Ġconsen so
Ġstra ordinaria
pli ca
ww w
Ġeli minare
ci no
Ġconce rto
Ġsa per
Ġdise gno
ontr a
sti one
Ġedifi ci
Ġtit olare
Ġge o
quan t
ve glia
Ġpa lla
ĠA rti
ĠG ui
ĠB el
Ġocca sioni
Ġmedici na
ĠPl a
a lza
Tu tti
Ġaff asci
n testi
che r
o nale
Ġca ni
v ola
Ġsuper iori
Ġdotat o
Ġvo ci
Ġca nale
Ġgio ia
sident i
Ġes pa
vi ni
Ġmat ch
vizzer a
ĠF ili
Ġde cora
Ġfamiliar e
ĠPa rl
Ġca ccia
Ġve ne
Ġd ipi
ĠCal abria
Ġre ndono
om bar
t inue
Ġfu ngo
ĠA li
Ġ agenti
Ġdisti n
Ġpiace vole
Ġd ima
ni mento
Ġtipolo gia
ĠNo i
Ġam b
Ġvi rus
port unitÃł
ĠMe ssi
Ġgio vedÃ¬
Ġcompo sta
Ġreali zzata
n tatti
Ġca sse
Ġvolonta r
na ndo
Ġsta d
Ġcampi one
Ġpro por
Ġop t
ĠS ul
Ġreali zzati
ĠSi nda
5 5
Ġ album
apert ura
pa rtimento
atte mpo
Ġri medi
Ġmod erno
Ġsensi bili
Ġsucced e
Ġmilitar i
ĠD urante
ĠCe r
T a
Ġparl ando
ĠRu ssia
gen zie
a ch
Ġvent i
str atto
Ġreli gio
ste rÃł
Ġmod erna
Ġsi g
ĠS ca
a ly
Ġregio nali
Ġm q
ziona mento
tta no
Ġinforma zione
ĠS E
Ġre sid
Ġsvol gere
ĠGeno va
Ġprincipa lmente
ĠâĢ Ķ
3 8
Ġcr u
a nsi
Ġriso luzione
Ġfia nco
Ġscont a
Ġpre m
Ġ cort
Ġ atlet
Ġvolontar i
Ġcentr ali
M P
ĠS y
Ġassun t
ON I
ĠFa r
a el
Ġandat a
Ġimpro vvi
Ġdo mici
p ura
ĠY ou
Ġconsu matori
Ġmonta gna
Ġlung hi
Ġpa lco
Ġ invi
Ġdiscipli na
Ġstad i
ba l
lien t
ida s
Ġdia logo
Ġser i
Ġfamo so
Ġalternat iva
o c
Ġta ble
4 4
Ġre ci
x i
Ġresponsa bili
Ġve cchia
Ġv orrei
Ġpi ede
Ġconsidera r
ye r
Ġrispar mio
Ġzucche ro
Ġinizia le
Ġfru tta
ĠGra n
C iao
Ġ aci
Ġsho w
Ñ Ĥ
Ġosser va
Ġth is
I m
ĠiP hone
Ġpre t
201 7
ciar e
C h
n tor
e mi
Ġ sel
Ġspeci fici
Ġsoddis fare
nera r
Ġtur ismo
ĠFr anco
ĠGior gio
Ġracconta r
Ġu mi
Ġimma gine
Ġso p
Ġac colt
Ġsappia mo
Ġrie ntra
Ġiscri tti
Ġprodu ce
Ġimporta nza
a h
AR E
le y
versari o
ĠScu ola
Ġsegue ndo
Ã Ń
Ġdo ccia
ĠJ e
r iore
Ġri cche
Ġsol amente
Ġfir ma
Ġba ncar
Ġpro durre
Ġk g
Ġfr attempo
ĠVene t
ĠT ele
ci li
n tinue
ĠPl ay
Ġattr ibu
eder e
o ntinu
Ġpo sizioni
c ontinu
Â Ĵ
Ġconfer enza
Ġfine stra
t enzione
Ġfa lli
nd ita
Ġforni sce
Ġo ssia
Ġpre va
I T
g ola
n tenzione
nc ora
ttr ice
a rco
Ġmovi menti
s ori
Ġscri tta
Ġca ssa
Ġtenta tivo
Ġe state
Ġsti li
Ġser ver
Ġvot i
Ġb im
Ġr itar
Ġbo tti
ĠM or
e riore
Ġsce glie
Ġ200 5
Ġavrebbe ro
asse ssore
ng ano
Ġso ffr
Ġve rti
Ġconce ntra
o ntinue
c ontinue
o ntatti
c ontatti
Ġpropo sto
ac ci
Ġconsiderar e
Ġbia nca
Ġle gato
Ġvig ore
Ġle zioni
Ġ alza
ĠS P
Ġcentina ia
ete r
Ġgarant isce
Ġcontrolla t
Ġ continu
p Ã²
Ġpotenzia litÃł
Ġprodu ttori
Ġpie tra
sant i
Ġristorant i
ĠMa ssimo
Ġconsent ire
iti vo
w ser
et ica
Ġmode r
Ġsent ito
o col
o nver
un cio
Ġ insu
c onver
Ġprose gue
Ġseg nale
Ġbiglie tti
Ġfor um
Ġaggior namenti
Ġschie na
i ntenzione
Ġgener ali
7 8
e ranno
ĠP ic
Ġ continue
ppo ne
Ġra sse
e mer
Ġcom pie
Ġes pl
Ġdichiar azione
Ġ armi
t eriore
Ġfi nalitÃł
Ġelett orale
T i
i plo
ĠS ic
f ondi
Ġstrate gie
n teriore
Ġparer e
o nvo
c onvo
Ġforte mente
ĠServi zio
Ġpro vi
a bili
Ġpre ced
iet a
Ġcom mento
ĠW e
Ġfinanzia ria
Ġpare n
rien t
Ġnotar e
Ġstr ess
perat ure
A lla
Ġterr Ãł
mant e
Ġtras for
utat i
ĠGr e
Ġli bre
Ġ contatti
Ġraccontar e
ĠCa po
Ġcorrispo nde
Ġ *
Ġfred do
cent emente
Ġ inver
Ġcal ore
Ġuffi cio
Ġver i
Qua l
ior mente
Ġmodifi care
Ġpa nn
Ġstimol a
ĠP RO
v el
Ġrega lo
M EN
Ġo sc
Ġpi sta
e rra
ai uto
stit uti
Ġf ila
Ġgio i
s cat
a pr
âĢ ²
Ġde bito
Ġesse nziale
ve t
Ġminor i
Ġdefi nire
Ġvi site
Ġconsi ste
Ġ convo
Ġrinno va
s per
Ġandat o
ccor so
bb ene
ol ler
Ġad do
ĠF il
pi c
Ġ anch
r f
Ġprovved imento
ĠÂ °
Ġve icoli
Ġutili zzata
let e
ita ndo
O ltre
Ġper sino
Ġregola mento
Ġli ve
ĠI r
stitu zione
Ġna rra
ĠBa nca
Ġregi strato
Ġeccelle n
Ġcellu le
Ġeccellen t
Ġassol uto
Ġparen t
H a
ple t
Ġpersonali tÃł
isti c
I G
ĠI nc
Ġsa nno
ĠVi nce
Ġ conver
Ġester ni
Ġpa sti
Ġprima vera
ssat o
d ire
ĠE li
Ġ3 3
Ġseguent e
Ġsta ff
Ġnote vole
Ġvi ssuto
Ġrifle ssione
4 9
ĠU SA
Ġcir cu
Ġcompre so
ĠMich ele
ed u
Ġu p
ĠS ho
Ġ incom
Ġaffi nchÃ©
nit ura
âĢ ¢
Ġrif u
Ġclassi ca
Ġca rdi
dem ia
Ġpla stica
Ġentr ambe
Ġdo tt
Ġgra sso
Ġarric ch
5 00
Ġ azz
ĠA ut
Ġav ranno
zia mo
V O
vo cato
t elle
w ord
i stituto
tt p
ur troppo
as s
Ġdispo sizioni
Ġconsu lenza
Ġgr e
ĠQue ste
ira t
Ġatt uali
vi sione
sc oni
Ġnavi gazione
Ġun gh
am pio
Ġappro ccio
Ġpa ss
Ġveloce mente
j o
Ġmal a
Ġpriva cy
b ur
ci ne
Ġpre parare
Ġo ccide
zio so
op portunitÃł
Ġten uta
U O
ni mo
Ġcre sce
Ġesercit a
vent us
Ġas sor
Ġindivid uare
ĠParl amento
Ġcontr atti
Ġ4 8
Ġappassio nati
gra t
Pr ima
Ġeffi cient
ĠT ru
ica le
a rche
bar a
Ġuffi ciali
e rali
Ġmilitar e
Ġaccom pagna
Ġgratu iti
mat ore
Ġdol ci
Ġe gli
Ġcoll a
Ġim b
nor me
Ġulti ma
Ġchiude r
iar i
vant e
Ġreg olare
0 2
Ġmolt a
Ġimpa tto
Ġcosci enza
Ġascolta r
% )
A sse
Ġpre gh
Ġappli ca
ĠB ea
' ,
Ġracconta t
St a
Ġpal a
Ġmi ssione
ĠN ell
Ġdub bi
Ġvici ni
Ġsta va
Ġfav orire
aero porto
Ġcom missione
i ffe
im pianto
ĠZ a
ĠE milia
Ġrima sto
Ġcre sci
Ġqu adra
vol uzione
alt e
Ġvo li
Ġsugge sti
Ġseg nali
fi no
Ġve icolo
4 7
vid enza
Ġra r
Ġdefi nito
Ġd icono
Ġcam mino
Ġgiornali sta
I TA
Ġm ura
C osa
Ġuni versita
âĢľ .
ca mera
4 3
Ġtratta r
o stit
Ġtrasfer imento
c ostit
Ġimmobili a
Ġsimb oli
Ġ4 00
Ġta glia
u nno
Ġimmobilia r
Ġpreo ccu
ns ore
Ġba l
Ġsconta t
car i
ve nza
Ġorgani zzare
b ot
Ġesa mi
ĠC ha
u fficio
mont e
Ġriguarda n
Ġriguardan t
Ġd iso
Ġpre si
Ġsc orsa
n viare
Ġ apr
Ġm orti
wi tter
Ġsa ng
ĠA nna
ĠPon t
Ġca lo
Ġpotent e
Ġprofessioni sta
d ine
Ġgra fica
i nviare
rde gna
Ġce ssione
itat e
dan t
. )
ĠQua n
e rmi
' .
n telle
Ġu cci
Ġsent e
Ġba sa
Ġse ria
Ġid ro
Ġf atte
Ġcom pati
orat e
Ġindi ca
Ġdesti nata
ne y
Ġ costit
i ssimo
Ġtratta menti
Ġcolle ghi
cchia t
su l
arr e
Ġva sta
Ġsca mbio
ĠT ale
Ġchiuder e
lic o
Ġprofessio nalitÃł
Ġciasc uno
li n
Ġmer cole
Ġ =
sti d
cr e
Ġpubbli citÃł
Ġarriva no
ora zione
Ġstr eaming
Ġde scri
t endo
roso ft
s mettere
âĢĻ .
Ġcri mi
ĠRo ssi
Ġfaccia mo
ĠA sso
ĠS pagna
ĠC OM
Ġle ttore
Ġang olo
Ġlunghe zza
ologi ci
vr a
Ġsca denza
ĠG ue
Ġcom par
D urante
ĠCom itato
Ġca ro
Ġ smettere
AN O
ĠSe nza
cant e
tt uale
Ġbro wser
vi c
ndo ne
Ġlavorat o
Ġtende nza
A n
grant i
Ġ cosi
ĠIn terna
Ġconosce nze
Ġ inviare
ue n
Ġd iplo
i nne
tten t
ĠCh r
Ġgia llo
ĠLore nzo
Ġmu lt
Ġci nese
Ġac cia
ĠP elle
Ġid one
Ġtrattar e
Ġle gate
1 00
Ġtant a
ĠVero na
Ġt im
elli no
Ġorgani zzata
l s
Ġpuntat a
Ġcontra sto
Ġele gante
Ġ scat
Ġascoltar e
Ġdesti nazione
Ġport ale
Ġcanz one
Ġpul sante
n tendo
Ġpo le
mont a
Ġli qu
Ġmi n
Qua n
f orte
istic o
ĠIn sta
Ġe qui
Ġme sc
Ġfr ee
Ġbiglie tto
Ð ½
Ġatt ori
su ng
Ġamerica no
ĠTe c
ĠP iano
Ġrespi r
Ġse rra
Ġcollega mento
Ġri gi
cat ivo
Ñ ģ
ĠA v
Ġciasc un
ssi bili
Ġfor nito
Ġfi nito
ro l
rta n
sc iamo
nf r
m bi
Ġcomuni cato
Ġma il
cul a
Ġerr ore
Ġ insta
Ġse gni
Ġispira t
Ġ >
tta mento
ĠMed ia
nzi tutto
Ġe st
Ġ3 9
onic o
Ġtr ib
Ġrecupera r
Ġreg olar
Ġfreque nza
cr i
ĠVenet o
Ġconc or
Ġfi gure
Ġcol pa
Ġpia ci
Ġintra pre
Ġtable t
ni bilitÃł
Ġvo lete
ĠVe n
Ġet c
Ġri duce
Ġinflue nza
Ġacqui sti
uni ci
Ġ3 7
Ġinda gini
Ġassu me
ora ggio
obbli go
ĠI d
r venire
e rvenire
t ervenire
Ġ alli
n tervenire
nar do
i ntervenire
bra t
Ġsp or
Ġqua r
ccupa zione
Ġand rÃł
N ell
Ġscri ttura
ester no
Ġd iscr
Quan t
el d
Ġinizia tiva
ita l
Ġsolida rietÃł
S E
s qua
Ġt iene
Ġdiment icare
Ġded ica
pat e
pt i
ntrat a
Ġconce ntr
do t
Ġpanor ama
Ġpresti gio
Ġo v
gli ano
gant i
uo go
ĠPer so
Ġ200 4
ĠK o
Ġre parto
gno lo
sa l
Ġmart edÃ¬
Ġpo ne
Ġe norme
ĠD ia
z u
ĠQue st
Ġimpiant o
Ġconse gu
Ġstori ci
Ã ĥ
Ġri pa
ĠA i
Ġto cca
U E
Ġcompre sa
strat a
Ġpart iti
Ġorgani zzazioni
Ġprof ondo
o sitÃł
Ġlegger mente
Ġallo n
R oma
n ner
ĠN ei
lu sconi
ĠNi cola
nerar i
o nci
eserci zio
Ġeserci zio
b ano
ng ua
ĠCe n
ĠAma zon
Ġne ve
Ġre cord
cit o
Ġpont e
e ramente
Ġvi vono
ĠH D
Ġconsegue n
Ġconseguen t
Ġdo centi
t err
ved i
o ngi
ĠLe gge
Ġ auten
ĠCa va
Ġvend ite
Ġrecuperar e
Ġperi od
Ġdepo sito
s y
Ġbelli ssima
Ġ intervenire
t eramente
n teramente
i nteramente
ĠA ggi
Ġmercole dÃ¬
ni ma
G G
emer genza
P oi
Ġosp ite
Ġconfer mato
ĠI nd
Ġpensi e
Ġpensie r
Ġsoddisf azione
Ġca tto
i ntelle
Ġfi ume
Ġcar i
c ongi
P u
Ġrit or
Ġscola stico
Ã ¤
Ġarrivat i
Ġcomuni care
Ġamministra zione
Ġ interamente
Ġb ack
Ġ armo
Ġw ork
Ġme mbro
a rro
ĠPu glia
Ġcontempora nea
Ġb irr
ĠSant o
201 5
Ġcamb iato
m pe
Ġulter iormente
Ġcontrib uti
Ġtrattat i
Ġpe ne
Ġriu scita
n tene
ĠSa rdegna
Ġusu fru
Ġne uro
pare n
chi no
Ġterr ori
Ġali mentari
nati onal
Ġfis sa
Ġali menti
ibliote ca
Ġ19 5
Ġchiar amente
Ġpassa ndo
Ġma ppa
ĠC ine
Ġfra tello
Ġconclu so
ĠNa tura
f ul
Ġespre sso
ĠCr e
si ma
Ġstra nieri
Ġri pri
Ġambient ali
ĠD ue
ge ment
Ġcanta n
Ġsti pe
Ġam mira
ggiat e
Ġcantan t
ĠS ir
paren t
Ġcolo nna
Ġutent e
Ġde bole
ĠV ice
Ġsport ivo
Ñ Ģ
Ġcio c
tt ro
Per chÃ©
Ġrece nsione
R o
ol tÃł
Ġprefer ito
dr i
Ġle tti
P i
ita n
Ġcad e
rd ine
tt orio
ĠN ero
Ġpred ispo
Â ®
Ġste r
Ġalc oli
ĠCen t
ĠV ol
ĠVa r
ĠF orse
Ġfe stival
Ġarrivat a
Ġesa me
Ġe stra
Ġfra telli
ca mente
a nce
Ġaggior namento
Ġautomatica mente
Ġcod ificazione
nde ndo
Ġ congi
ele nco
a sce
Ġinvesti r
Ġanc or
ĠD E
cr ed
Ġtav ola
Ġle ttori
ĠMar che
3 2
Ġantici po
Ġtem perature
appa rtamento
Ġquesti oni
pert e
ind ustria
Ġtr ai
i gni
Ġlaur ea
ro ga
cchie r
Ġstat u
i stante
n tit
Ġmo bilitÃł
ĠSt udi
a rb
3 7
ordina mento
liar e
Ġtar iffe
V a
Ġnor mat
a genzie
Ġo ste
lle r
apo s
ma c
Ġcli cca
Ġri lie
Ġ200 3
ĠCa ssa
Ġso cio
Ġperi odi
Ġinvestir e
ĠPi Ã¹
Ġricer catori
Ġci cli
coi n
Ġproprietari o
ĠMat e
Ġmer ce
Ġarr iver
t ichi
Ġre fere
se t
Ġindipendent e
Ġsit uato
Ġsche r
a vo
fr e
Ġcer cato
Ġbre vi
ĠLu cia
Ġbelli ssimo
Ġina ugura
ĠCl a
Ġu g
Ġdiffi cili
sio n
ĠN essu
pe dia
Ġsal vare
Ġ agenzie
Ġsottolinea t
mi nata
Ġriportat o
Ġdis p
ĠU sa
ellar e
Sa l
Ġaffer mato
Ġstu pe
Ġme tter
ĠMe ntre
Ġb atter
Ġfi ore
P P
o gni
ela r
Ġprivi le
Ġpen t
Ġb l
Ġsor presa
Ġatt acco
Ġ sh
Ġave sse
ĠD is
o ntene
Ġtra ma
Ġopera t
c ontene
Ġcred iti
ĠBar i
me ni
Ġdeci sioni
Ġdia b
Ġre sa
A p
i ngi
Ġt appa
o ttima
Ġden uncia
Ġprovincia le
ppi ng
Ġo tt
Ġpre para
eat o
cia mo
ĠC orr
Ġfe ce
ori c
Ġdive rt
spo sizione
Ġrela x
Ġind u
alt ezza
ĠJu ventus
Ġlo ok
ea l
Ġricono sce
it oriale
Ġpia neta
Ġmette ndo
ĠCod ice
Ġracco gliere
Ġac curat
Ġcir colazione
ĠBa si
ĠPre mio
ĠMa na
k s
ĠP ado
Ġconsent ono
Ġprogramma zione
Ġ antico
Ġtrover ete
Ġsvilup pato
Ġser v
Ġavvi cina
Ġved iamo
ĠQuan t
Ġpensier i
Ġtele fo
Ġvant a
ĠMic rosoft
Ġvelo ci
Ġrappresentant i
Ġdefinit iva
uen t
ria le
Ġcer imo
n via
T utto
Ġted esco
ber g
Ġpote nziale
e qu
ono r
Ġanzia ni
ĠNo ve
ĠDa r
ĠIt aly
ĠGiu lia
Ġcoe r
Ġ contene
lu sione
Ġ aro
Ġre sidenti
IC A
Ġcale ndario
or g
Ġri sco
Ġappli care
Ġaccia i
Ġso gni
E d
ĠN et
Ġdesidera t
ker s
e pi
Ġriser va
Ġmar chi
so le
Ġstadi o
mentat a
Ġpreci sione
e mpo
V E
pir azione
Ġdibatt ito
ĠF ore
Ġsta bile
u x
ĠâĢ Ŀ
wa y
ire n
ĠQ U
Ġgra ssi
installa zione
Ġcostante mente
il y
ĠPoli zia
Ġscien tifica
ĠP orta
am po
Ġmala t
Ġfi nire
Ġpront a
iti o
Ġinser ito
Ġdiva no
ĠEr a
Ġpe nsione
Ġca s
p d
Ġstraordi nario
it ur
Ġnot ifi
Ġcompo nente
x y
Ġcomo do
ĠD A
Ġf eder
Ġarti stico
t esa
Ġ oro
ĠD esi
Ġritro va
par enza
Ġrice ve
ĠSa rÃł
zio nario
au mento
eta t
Ġeffe ttivamente
Ġcostru ito
Ġna ve
Ġe va
ĠRe gno
o nven
Ġsoste nibile
Ġpri vate
n tichi
c onci
e cce
c onven
a ntichi
Ġprospe ttiva
ĠC ivi
Ġv ola
Ġgiudi zia
ĠS ha
3 1
Ġungh ie
adr i
nci ni
e stra
S em
ĠRe nzi
m mo
Ġcostitu isce
Ġdocu mentazione
O C
Ġdivertent e
Ġpresentat a
Ġso ff
Ġcanz oni
lent i
Ġtrasforma zione
e rne
pat ia
Ġchiar a
Ġperme ttere
Ġd ico
Ġm g
Ġmo le
Ġr iti
Ġindustria li
Ġne ws
Ġo spe
Ġillu stra
Ġcat a
Ġdiagno si
Ġva cci
Ġiden titÃł
Ġvi ola
Ġmo nu
t ali
Ġov unque
ap punt
Ġrit r
Ġele vato
cc elle
Ġsegr etario
Ġcompo sizione
A genzia
stid i
Ġpro cura
i nvia
va li
Ġcondivi sione
Ġcomporta menti
mb iente
fond itÃł
Ġagi r
r ich
Ġ3 4
ĠC lient
Ġam bi
Ġdipende nza
Ġdov r
ila r
ĠC A
Ġpo d
Ġavvi ci
ĠB lo
ue ndo
Ġblo cco
Ġla mpa
Ġargo menti
n tesa
Ġtem pe
Ġlim ita
ed izione
Ġe no
Ġasse nza
Ġri m
u zioni
9 5
Ġagir e
Ġlascia ndo
ĠMed ici
C os
Ġinvesti mento
Ġrivi sta
Ġcondo tta
Ġcal a
Ġb orsa
U T
ĠP uoi
Ġacciai o
ĠCom u
ĠS ie
nit y
lt ano
Ġpo lli
Ġbr ani
Ġport ano
Ġpar ro
Ġurba ni
Ġrespir a
Ġfiloso fia
Ġtipolo gie
cita r
Ġcanc ro
ura r
Ġ cure
Ġester na
Ġpre stazione
pli ce
ut ano
Ġappro vato
Ġ conven
Ġdistur bi
ĠN ON
Ġre almente
iren t
Ġ200 1
Ġeurope e
Ġcap itolo
oi o
ntrat o
Ġpassat i
sco vo
Ġprote ggere
ge no
Ġvali do
Ġre side
ĠIn fine
glia mo
Ġfinanzia menti
Ġdive rtimento
ĠCata nia
Ġd igni
Ġla go
Ġaggior nato
tt ur
u sti
Ġcine mato
Ġipot esi
ico le
ĠCom pa
Ġre centemente
sita t
ie ni
ncia t
Ġba ndo
Ġorgani zzazione
Ġriguarda no
Ġsa cco
Ġsc orre
Ġ inne
l ba
Ġyo ur
Ġmusi ci
Ġstatu nite
Ã ¶
e so
att iva
ono sci
Ġcomincia t
Ġte nsione
Ġpra t
Ġriscal damento
Ġcer vello
lla r
Ġincontra r
Ġim mi
do tti
Ġsuccessi va
rtan t
Ġ invia
Ġaccoglie n
Ġle gata
Ġaccoglien t
Ġterr e
Ġgia ppo
Ġsic uri
ĠBer lusconi
ntr i
Ġoffe rto
Ġsu ono
Ġbancar i
Ġf ol
ĠS vizzera
Ġte ssuti
Ġ pÃ²
Ġ7 5
Ġ antichi
bir e
chie r
nant i
Ġta rdi
Ġde c
Ġav venuto
Ġaspe ttare
Ġpre sid
li m
Ġveni va
pli ci
Ġespri mere
importa n
mo ni
importan t
Ġrispe ttivamente
Ġrif or
Ġbo ok
ĠLea gue
Ġentu sias
Ġfa stidi
Ġproble matiche
Ġfort u
ĠD ie
Ġcandi dato
vi rus
Ġpar eti
Ġser vono
e rf
Ġla ncio
ĠEn t
Ġtro vate
Ġ zi
ologi che
I P
Ġper ciÃ²
Ġrit mo
Ġposit ivi
Ġpre ve
Ġutili zzate
Ġtea tr
Ġinteressat o
Ġ schi
ele r
Ġfino r
Ġ conci
st iene
Ġrib ad
Ġfinor a
Ġri ge
Ġda nza
A ut
Ġcol pito
p uo
urar e
ĠS tre
nita rie
Ġtifo si
ĠCu ltura
Ġpresent ano
Ġpo esia
Ġgener almente
Ġch ita
i nsa
ro lo
si r
Ġcomb attere
F F
Ġdedi cati
Ġcuri ositÃł
ĠPa rma
Ġcostitu ito
Ġver sioni
Ġ5 5
Ġpio ggia
Ġ intelle
Ġma glia
Ġconf orte
Ġprot ocol
A C
Ġbeni ssimo
Ġre stare
Ġno leggio
Ġprodu ttore
t erf
Ġsec oli
Ġconsu mi
ni enza
ĠCampa nia
ona mento
Ġcap itali
Ġcomincia r
Ġsci enza
Ġvi olazione
Ġindispensa bile
Ġacqui stato
Ġcittadina nza
ĠZ e
Ġincontrar e
f un
Ġma ndato
Ġo perazione
Ġstud iare
Ġta sse
Ġproba bilitÃł
Ġdichiar azioni
ĠM c
nziat i
Ġsent o
Ġdima gr
stru tture
esa me
p c
Ġgi no
Ġto ssi
Ġsfru ttare
3 4
Ġcaratter istica
Ġsottolineat o
ĠSinda c
ĠBl ack
Ġmana ger
Ġcapa ci
ĠSindac o
Ġ arche
Ġricono scere
Ġ6 5
Ġpre gi
Ġabb onda
Ġdove va
Ġca li
ment ano
Ġpaesa ggio
zzant e
Ġsono r
alte r
Ġriconosci uto
Ġmina ccia
Ġsuccessi vi
Ġpro fonditÃł
Ġtr atte
Ġquar a
y l
Ġ( +
ĠAl berto
Ġlanciat o
it coin
Ġpre ssi
Ġmatti no
gra fo
ami c
si ni
Ġsc orsi
p ite
Ġespert o
Ġcominciar e
Ġbr ano
Ġince n
8 8
Ġ4 2
Ġequ ilibrio
b ali
Ġacce ttare
Ġterrit ori
Ġsfi d
ur sioni
atta mento
Ġsa nitaria
Ġeffica ci
Ġcal d
Ġeffett ua
âĢĿ :
Ġes plo
Ġconsi gliere
i per
Ġmode rni
Ġsa pore
a pi
r ba
Ġorient a
Ġcoinv olti
Ġsolar e
elat i
ĠT or
ot h
Qu indi
a st
Ġinf o
Ġo ma
Ġ intero
Ġdisti ngue
lc one
Ġbe va
ga mo
o cchio
Ġcivi li
Ġinso mma
Ġsed uta
ĠS ma
scent i
Ġman uale
Ġdesti nato
ĠTr ibunale
ĠSal a
Ġrie scono
Ġposter iore
ĠW o
Ġcatalo go
Ġcorre ttamente
Ġsi ci
sta ndo
ĠP isa
Ġesclu d
Ġrisparm iare
ĠDo n
Ġtr att
ĠA na
r li
e sc
ĠC rea
Ġ puo
Ġmar i
Ġdiffer enze
Ġassu mere
ke nd
Ġb os
Ġfi li
Ġfabbr ica
Ġm orto
Ġv ul
ne ro
net e
t ur
â Ħ
Ġsostitu zione
Ġricord i
Ġed ili
gram ma
ĠR ed
ĠPado va
Ġvar ico
Ġgi unta
Ġmeta lli
L i
Ġsche d
Ġlettera tura
Ġm uro
Ġincontra t
Ġattac chi
Ġrice tte
versa le
Ġlavora ndo
assi stenza
l azione
p iti
Ġfatt ore
mac o
Ġviaggia tori
Ġmanife stazioni
ĠF iore
e vent
ĠD ol
ĠBe n
Ġcondo tto
perte nsione
gna zione
Ġdo vere
ce nza
itr i
Ġrie mpi
ven uti
ĠCont e
ntor ni
Ġsa lta
Ġner i
Ġcreat ivitÃł
ba se
Ġnecessi t
Ġvaria n
ellat e
Ġbici cle
Ġarchite tto
6 5
nna stica
ia m
e rano
Ġso stiene
Ġalternat ive
Ġ iti
Ġcandi dati
Ġimpre sa
Ġpa tro
B r
Ġtro vo
Ġo nda
Ġritar do
Ġattre zzat
Ġvarian t
Ġauto matico
Ġsplendi da
Ġemer ge
Ġdo cente
Ġsa i
Ġquali t
Ġra gio
Ġfo glie
ĠGal a
Ġaspe ttat
Ġrapi da
Ġmate rie
Ġmusica li
ĠBa l
Ġlo gica
Ġmed ica
Ġte oria
o opera
Ġvi gi
ir l
Ġopini oni
eni mento
Ġpreci so
Ġalt amente
Ġgode r
c oopera
Ġpil ota
% ).
x t
important e
Ġri cchi
Ġve cchi
gr azione
Ð¾ Ð
Ġslo t
ĠCo ntro
ndent i
Ġassicura t
I D
lu nga
Ġcr edere
Ġcal colo
Ġliber i
Ġelettr ici
n terf
ĠServi zi
Ġfinanziari o
S pe
Ġanda ndo
Ġr alle
ĠTu tte
ĠIn somma
Ġaggi u
Ġposit iva
zie nda
Ġca ttura
Ġcop pie
Ġspe cialmente
ĠMar ina
a f
Ġcal cia
ĠR is
Ġsegnala t
E n
T RA
Ġderiva n
Ġderivan t
ĠIt aliano
A c
Ġsport iva
Ġlu sso
ĠOn line
ac che
Ġ arro
i nterf
d ie
Ġpro porre
Ġv ite
t ami
Ġaffa r
Ġbo x
Ġquint o
cca n
Ġgent ile
fa t
Ġve ndere
t ch
Ġcant o
Ġconve rt
o spedale
ĠL ib
o ver
Ġusa ndo
Ġmuse o
Ġde p
m y
ĠMa uri
ndar e
ĠTa n
Ġdipi n
Ġgoder e
Ġcomplessi vo
ĠO ne
Ġu sati
Ġag gre
Ġvi ttima
Ġaffronta t
car lo
oric o
u ge
Ġmi x
Ġfi da
Ġqual ora
Ġproced imento
Ġdipin t
Ġrappresenta r
Ġprenota r
Ġsce nario
Ġreat o
ccan t
Ġgener azioni
ĠA R
ch t
Ġm orale
Ġsfor zo
Ġvince n
Ġvincen t
Ġprenotar e
ĠJo hn
Ġre tr
Ġri ci
Ġrimb orso
Ġsint esi
Ġemer genza
t empo
Ġ arma
Ġgenera t
Ġazienda li
i i
n terr
ĠCast el
Ġpol vere
chi ne
Ġriv olto
Ġripo so
im porto
he n
ĠC ity
Ġfun zionale
Ġsto maco
Ġrappresentar e
Ġine vita
Ġcoinvol ge
Ġesse nziali
U no
ansi a
Ġper si
Ġlegge ro
il ano
Ġ25 0
fe ro
b l
Ġma nu
Ġve rt
ampio ns
do ve
Ġaltrettant o
Ġsudd ivi
B uo
Ġcrea ndo
del e
Ġfarma c
sr a
ĠA S
Ġsing ola
bi s
Ġinsegnant i
Ġpiatta forme
ĠSco pri
Ġes pli
Ġte ner
Ġindivid uale
I R
Ġleg ali
i ntu
Ġord ini
ĠInterna zionale
ĠM ai
Ġri part
rta t
Ġnegat ivo
ĠMa rt
Ġappro fondi
gliar i
ne e
Ġmo strato
ide o
Ġenerge tico
Ġsca d
Ġma gni
Ġscientifi c
l bero
gliat i
ĠW orld
ĠA cce
Ġatlet i
Ġschie r
Ġconfli tto
Ġo ve
Ġpar ete
y r
b ack
ĠS pi
ĠTr as
ontr i
Ġfamo si
pla r
age nzia
Ġtelef oni
Ġmi steri
Ġ12 0
Ġripet e
Ġmonit oraggio
Ġte si
o ggi
Ġdivi d
Ġad ole
i ntesa
Ġviole n
8 5
Ġpro ssime
ĠB lue
u li
ĠCh iar
Ġconsent ito
ĠL avoro
Ma r
ort uni
Ġfarmac o
le si
Ġinstalla r
et ico
zzo n
Ġaspettat ive
Ġviolen t
Ġro vi
es che
Ġ argent
Ġscri ttore
Ġbr illant
Ġb ol
Ġalc ool
ghe r
Ġsvol gimento
Ġre azione
n venta
ĠGa bri
ng hi
Ġsele zionare
colar i
Ġdeli bera
Ġter ape
Ġpal azzo
ĠS C
* *
E r
gr ado
ĠS ito
a lbero
bo x
Ġsc or
iff a
Ġscont i
o str
Ġsc ia
Ġarti stica
Ġappro fi
Ġfra se
Ġine d
Ġaccor d
Ġ antica
Ġmanca no
Ġavvi so
Ġfamo sa
Ġporta ndo
Ġcele bre
t erne
Ġscar ica
Ġalber i
a se
Ġinstallar e
i nventa
Ġpro stata
inf ormazione
ĠPD F
corr e
ĠT witter
ĠCan t
Ġrispe ttare
ĠN O
h am
Ġsa nitario
tti no
l un
si ng
d etto
ger a
ĠPro fe
ĠCa se
ĠPie monte
Ġb ud
Ġdov uta
t ani
ori zzazione
Ġauto mobili
Ġno ttur
amic o
Ġsegr eto
Ġcontatta r
Ġconce d
Ġpa n
Ġfar ina
itud ini
rrat o
cer a
Ġmini mi
Ġmet od
Ġpro no
Ġelettr ico
Ġdeci ne
Ġprevent ivo
e rale
i ntit
ĠSt udio
Ġ coopera
Ġ iscr
Ġreali zza
Ġbiso gni
gli one
Ġconsiderat a
âĦ ¢
ndat a
Ġriuscit i
Ġlavora tore
Ġor goglio
Ġdo se
zia no
ĠA ve
Ġscientific o
Ġcontattar e
N I
Ġflu sso
Ġtri ste
Ġana lo
Ġque gli
rtant o
cu s
Ġso ffi
Ca r
or s
bi na
Ġtre nd
Ġusufru ire
Ġge sto
ĠIn ve
Ġpara metri
Ġlabora tori
c ostr
ĠSo le
Ġgr am
Ġbe st
Ġcar cere
Ġvolont aria
Ġraccolt i
ĠFa bio
ltr i
Ġtr ime
OL O
Ġgri gio
llar e
Ġelabora t
ĠGia ppone
Ġsap uto
Ġso ccorso
Ġ200 2
zzat ore
Ġlega me
g nate
Ġspi nge
ĠMini stro
ilar e
Ġappunt amenti
n col
ĠTre n
Ġav rei
Ġfini sce
r va
Ġrapi do
ĠL ig
ER E
n terne
Ġmar cia
ĠMi gli
Ġ iso
t ia
201 9
t ermi
Ġim m
emo t
Ġse sso
inno vazione
Ġeffett uata
Ġner vo
Ġoffe rti
Ġinfor mat
ĠSam sung
cut ivo
Ġ sper
ma s
e nsa
Ġde f
orr enza
nda n
sra ele
Ġconc orrent
ĠDi partimento
ĠP adre
Ġdis play
ma l
Ġdemocra zia
Ġsta bilitÃł
Ġacce tta
Ġdire tti
Ġdiventat a
Ġcli nica
ĠQ uali
Ġtre ni
Ġquara n
ĠBre scia
Ġdimostra r
Ġcompre si
am pia
Ġ core
Ġcerte zza
Ġrido tto
Ġcu cchia
9 8
Ġsensi bilitÃł
Ġdent i
Ġesclusi va
Ġe tiche
ĠFo n
Ġori gini
Ġra ffr
iden titÃł
aver so
Ġdiff uso
ggia n
Ġappartene n
% ),
Ġese mpi
Ġappartenen t
u cci
Ġcad uta
m ul
se nza
Ġsconfi tta
Ġ $
s cate
Ġso n
Ġvuot o
Ġved i
Ġosp ita
ser a
Ġcaratteri zzato
Ġ costr
Ġne ppure
Ġso nno
e voluzione
Ġmae stro
ĠI ndi
Ġb oni
Ġ4 3
Ġprofe ssione
inse r
Ġvia ggiare
ĠDa vid
h r
Ġfat e
Ġevent ualmente
Ġle ttere
ssari o
ggian t
Ġ6 00
Ġsti ma
a gio
A G
t est
ĠS cie
Ġassicura r
Ġdivent ano
Ġpopolar i
po let
Ġtrattat o
Ġcontene n
Ġcontenen t
Ã ¢
Ġspo n
Ġvirt uale
pti o
Ġspie gare
rr Ãł
ĠQu ello
Ġte tto
Ġpacche tto
ita nni
Ġsal vo
Ġquaran t
Ġpat ologie
Ġarti fi
Ġver sa
Ġpro muo
T R
Ġgiornali sti
ĠS tra
Am ministrazione
ĠD alla
nat amente
ĠR adio
ĠCo nf
IN A
Ġ1 000
Ġlavora zione
Ġh ome
iva t
Ġdimostrar e
Ġmeccani smo
Ġcoma ndo
Ġfir mato
Ġnorma li
iso gna
ĠPro prio
Ġspon t
Ġmi ner
che rÃł
Ġristruttura zione
ga ndo
Ġd ici
A t
4 2
Ġmet ab
Ġrit iene
one r
Q uali
M S
ĠTren t
Ġrisc ontra
Ġconser vazione
oro so
Ġsu ssi
ĠG alle
Ġinf a
o ngr
ĠAle x
Ġconda n
r ice
i k
Ġamerica na
ggia no
Ġde scrizione
Ġese m
Ġfanta sia
Ġann uale
ĠS ce
lent emente
Ġmaschi le
Ġrappresentat o
Ġtras parent
Ġmini stero
c cata
ĠGener ale
Ġracco glie
Ġpresu n
ina mento
Ġvali da
ngo le
glier i
ĠCo sta
ĠV ie
Ġsu perato
Ġindi care
nier e
Ġvisuali zzare
Ġsched e
ĠVince nzo
na c
com mer
I V
ilat o
Ġele vata
Ġfav ori
ĠN onostante
Ġb orse
Ġaff atto
Ġmoder a
Ġinna m
i pa
Ġassicurar e
Ġnecessaria mente
Ġinca n
Ġaccad uto
Ġopport uno
Ġve nde
si vi
Ġfre sco
Ġ ps
Ġdove sse
Ġfru tti
ĠNuo va
Ġdiff usa
Ġ intu
ptio n
Ġsfid e
Ġrispo sto
ĠM y
Ġ ke
pul a
Ġdiri gente
ĠMa ster
ĠV ita
e nso
do me
Ġaccompa gnato
urt o
Ġtr acce
Ġse no
Ġb us
iterra neo
Ġmen u
Ġwee kend
P I
o da
om bra
Ġinterpreta t
II I
Ġprofe ssore
Ġespre ssa
Ġproba bile
Ġpre venire
Ġconvint o
Ġlar ga
Ġba sato
Ġmuo ve
sso l
Ġcap ita
a k
n tami
Ġmira t
se ro
ĠH ome
Ġde bba
Ġmi granti
ĠLe i
impa tto
ĠCl audio
ĠM ot
zio nate
6 7
Ġsport ive
qu ali
ĠN elle
Ġsup ple
Ġche ck
Ġcontinua no
ĠComu nale
ool rich
Ġpaesa ggi
ĠMa x
Ġspe ro
e vole
Ġmate r
Ġlo cation
Ġo ver
âĢ ĺ
ĠCa na
v it
ĠT orre
nci no
Ġsang ui
ud ine
so no
Ġclassi ci
Ġpri oritÃł
olat a
Ġconfi ni
Ġuffi cialmente
Ġreali zzate
nat ura
Ġresid enza
t alo
ĠC ia
Ġ intit
gi osa
Ġ ingi
Ġtipi ci
Ġsca mb
ĠT em
Ġcerimo nia
or ge
Ġarti cola
ĠS pir
t enso
su ale
Ġincan t
Ġsolit amente
chie sta
telli t
Ġindi cati
Ġseri o
Ġsent imenti
P R
Ġele nco
tt ps
z ziamo
ĠDire ttore
Ġdo n
Ġmascher a
n tenso
Ġcontinu itÃł
ĠâĤ¬ .
Ġspo sa
i ntenso
Ġpe nale
ab le
Ġai ute
Ġpe tro
G a
ĠCo ppa
vede r
A pp
Ġcontribu ire
Ġface va
Ġcomu nali
Ġti me
ĠTan t
Ġstabilit o
4 1
ON A
Ġfor niti
Ġsotti le
Ġmolte plici
Ġ pura
Ġcircu ito
ene ndo
Ġpassa ggi
Ġinv iato
Ġpreced enza
port ano
ĠC orso
Ġciasc una
esi mo
Ġcioc colato
6 8
Ġincr edibile
Ġconc orrenza
In fine
bi no
Ġcompagni e
uo li
Ġcantant e
ĠP ort
ĠMu sica
Ġstre tto
Ġcompa gno
ua l
Ġesser ci
Ġistru zioni
Ġsing le
Ġcar abinieri
Ġment ale
o ur
Ġregolar mente
ndan t
ĠPro ge
Ġne tto
Ġrivol uzione
Ġconce rti
Ġaccord i
s ki
ine a
Ġargo mento
Ġenerge tica
Ġspeciali zzata
ĠSal vatore
Ġraccoma nda
ĠD iri
do n
ĠM edi
ver Ãł
gger i
Ġpreva lentemente
Ġpro lunga
ĠAlcu ni
Ġmostra r
Ġraffr ed
ac cu
o ntami
Ġapert i
ut ica
R L
Ġpe cu
ĠPo tr
ĠMauri zio
Ġdece nni
Ġconseguent e
Ġ pc
sc u
t her
ste m
Ġpre stiti
ĠM el
ĠCh ampions
L u
Ġstrada le
Ġamerica ni
i ntesti
Ġ intenzione
e sposizione
ĠRe gionale
Ġalle a
Ġdesti no
An t
Ġcompleta r
Ġsospe nsione
Ġde tr
Ġver y
Ġparte ndo
ce s
Ġcerca no
ori gine
i nterne
ĠI II
Ġposse d
Ġesi stenti
Ġespre ssione
ER A
Ġ asi
ĠP ier
Ġrad ici
ĠCast ello
Ġcat ena
Ġsc onosci
as su
Ġredd iti
i nterr
Ġraccolt o
Ġpe santi
Ġcompletar e
net i
stra da
Ġf ur
201 8
ga nza
Ġve dono
a manti
si ve
ĠInsta gram
Ġpresun t
Ġdistin t
veder e
s ve
Ġde cli
t ec
t ic
Ġport erÃł
Ġrasse gna
Ġo m
ain t
Ġf lo
Ġosser vare
Ġing e
Ġalle namento
ĠCom mer
i ono
Ġconcr eto
Ġb olle
illa r
9 7
Ġralle n
Ġ interne
as y
colat a
Ġto gliere
Ġmatrimo niale
Ġespri me
Ġfu ga
ĠS lo
be n
Ġpro vvi
ura mente
A merica
ĠB lu
S c
Ġmusc oli
Ġriti ro
ĠCh ia
Ġnota t
Ġattiva t
ĠRe ggio
Ġ ;
a lun
Ġrid e
Ġlegger a
Ġintegr azione
Ġprevi sioni
Ġaccoglient e
Ġvisi bile
Ġpo ste
Ġri muovere
ed ificio
Ġricor dato
A rti
Ġdiri genti
Ġcombi nazione
che stra
je ct
ĠCo ndi
argo mento
ĠFerrar i
mo no
o ste
Ġsottolinea r
ne u
Ġpe ggio
Ġ4 4
Ġt el
G e
Ġpermette rÃł
Ġba ga
Ġopera r
Ġsottolinear e
ĠP ot
Ġdipendent e
à ¹
ciat o
Ġricostru zione
Ġgener ico
Ġappa rtamenti
Ġpro cede
Ġba gni
Ġcom menta
Ġta ssa
Ġpa p
Ġinno vazione
le tti
ĠF el
Ġsi ngole
Ġimprend itori
itio n
agi r
Ġ amanti
ĠAnt o
ĠL E
Ġling ue
i sol
Ġad u
Ġapprofond ire
b lo
Ġimpe gni
O P
Ġva lle
u ch
y le
ort u
Ġoperar e
Ġ atmosfer
ĠFrance sca
ea n
ĠK r
Ġpa st
gi tto
ien nale
Ġgu ide
Ġentrat a
Ġfeno meni
ora n
t enere
Ġte matiche
Ġperse gu
ria no
att ore
Ġ4 1
Ġcerti ficato
ĠFeder ico
olo go
Ġlo gi
Ġve get
Ġraccont i
Ġprosegu ire
Ġricorre n
Ġricorren t
Ġrilie vo
il ler
Ġterrit oriale
interf accia
Ġre ca
Ġdol ori
Ġmo stre
Ġgiur is
elli ni
T ro
Ġeccellent e
ia ne
ir lo
ĠTr i
Ġvinci tore
Ġdesti nati
Ġasso ciazione
S ul
Ġgio cato
nia li
Ġtradi zioni
or it
Ġpossi ede
ĠM ondo
d izione
Ġpre mier
pot e
ĠA rr
Ġpre nder
ndia li
Ġdisa gio
apert o
Ġfasci no
n versa
Ġe sce
c cati
nar d
ĠA go
Ġmensi le
Ġm illi
Ġne w
?? ?
ĠEn rico
ĠPu bbli
Ġ alun
Ġcorre r
Ġtestimonia nza
Ġad idas
Ġpassat a
Ġ8 00
P U
Ġmostrar e
Ġrila scio
ĠSe tte
Ġgiornali e
Ġcr ista
Ġab iti
vat orio
vent ura
Ġami che
il azione
Ġner a
Ġgiornalie r
t op
Ġo spedale
Ġriv olta
a il
Ġspettac oli
ĠP olo
intervi sta
Ġpass word
urat a
Ġle zione
Ġesi bi
Ġ scate
ĠSi mone
Ġconfi ne
Ġm ort
N ei
Ġefficient e
Ġuniversita r
Ġuni ci
i stituti
h anno
Ġcer e
Ġuniversitar i
Ġpregh iera
Ġt oni
Ġtras parenza
i ncol
Ġcer vi
Ġ sfer
Ġ intenso
Ġdise gni
ac olo
no w
Ġdice ndo
su a
Ġsignificat ivo
Ġb ea
e razione
ni zia
j i
Ġalla r
car do
Ġfatt ura
Ġca vo
Ġsa tellit
Ġrifle ttere
Ġ4 6
Ġattent a
e va
del lo
Ġsostitu ire
Ġcompleta t
utat a
Ġgu sti
A lle
Q U
Ġ porre
Ġta voli
mb le
Ġpr eli
Ġba rr
Ġ istituti
Ġde ca
u le
ĠSal vini
av ia
Ġintensi tÃł
agir e
Ġspe ssore
nat iva
sir e
Ġcol pe
ĠNuo vo
Ġmut uo
e ngono
Ġmet e
Ġfe rmo
Ġpubbli cata
a lba
Ġuscit o
Ġconcr eti
Ġspia gge
Ġtr ap
Ġcurat o
Ġcorrer e
all y
Ġcominciat o
Ġri carica
Ġvalori zzazione
Ġ sve
9 6
ncia r
t ile
Ġe colo
ne nza
Ġcor ona
Ġk it
Ġele n
Ġpar all
Ġsta rt
Ġdetermi nare
ĠCo stituzione
Ġdotat a
Ġdina mica
ndi ng
Ġvilla ggio
ellat o
ĠSta r
so lo
oni e
Ġassa i
ĠTo ur
Ġequ iva
Ġattrezzat ure
t he
ĠC E
ipot esi
ĠMo ndiale
Ġpe sante
Ġspetta tori
Ġrisa rci
Ġ asce
Ġann uncia
Ġb ic
Ġpunte ggio
Ġchie se
Ġro ck
Ġsed i
ĠAd esso
Ġma li
Ġquadra t
o ppo
ese cuzione
ĠVen t
uma nitÃł
Ġstipe ndio
Ġpra tico
Ġcerti ficazione
ĠDa vide
Ġmo neta
Ġimpeg nati
zia li
201 4
t oria
Ġing eg
mi n
a mare
i nuti
Ġpu lito
Ġfac oltÃł
ul li
Ġintegrat o
pet e
Quant o
Ġini zi
Ġme zza
Ġvali d
Ġconsulta r
integr azione
Ġinc ro
inda gine
Ġsf ondo
Ġte nendo
inuti le
f ono
ĠBr a
Ġguada gnare
Ġ4 7
Ġemi ssioni
Ġman cato
Ġmanife sta
Ġdimagr ire
Ġdispo sto
Ġha ve
Ġcast ello
Ġbirr a
ĠSal ute
ĠB ol
Ġprezio so
Ġsoste nuto
Ġbr itanni
Ġsa lire
Ġrivol u
op zione
Ġrallen t
Ġ abilitÃł
Ġav rai
Ġfu mo
Ġrelativa mente
cie r
par si
Ġsent i
Ġavvent ura
Ġfar ci
Ġu ova
Ġso gge
Ġh ttp
Ġconsultar e
Ġinizia lmente
Ġdefinit ivamente
Ġappro pr
it alia
Ġalun ni
Ġsport ivi
Ġfr azione
Ġricche zza
r do
accia t
Ġspirit uale
ĠLeo nardo
ne tto
Ġstabili r
att acco
lier a
Ġdo mina
Ġo nde
ĠDani ele
ĠBer gamo
t ea
uti ne
ĠBa rc
iva no
Ġe so
Ġfotogra fie
Ġcompre nsione
pia mo
Ġcir colare
Ġso nda
ĠM ir
ttr averso
Ġde stro
Ġstabilir e
ca mere
mir e
ib ut
Ġcoinvol gimento
ga zioni
Ġpale stra
Ġ ela
Ġepisodi o
event uale
ĠSer gio
Ġcostre tto
asse nza
Ġtalent o
Ġma gazzi
Ġim ple
Ġfu me
201 3
ĠC har
Ġosp itare
Ġto cco
Ġspi na
ĠGe n
Que sti
N oi
Ġattraver sa
car d
Ġfinanzia rie
ĠM olto
Ġ pp
nni s
Ġso glia
Ġ insa
ndro me
Ġesclud e
qu irent
Ġpaga menti
im pre
ĠFr i
Ġr adi
Ġde gu
Ġ ista
Ġrichie sti
a ir
Ġsembra va
gina ria
sho p
ssio n
Q ui
Ġri com
__ __
Ġper altro
Ġalte zza
gra fiche
spi r
Ġcura r
cca demia
nsi vo
indi vid
na ca
Ġuma ne
Ġfor nitori
Ġ ple
ĠSe nato
nse r
Ġve ttura
Ġcontempora neamente
ol f
Ġconcentr azione
n tiche
ĠMo vimento
Ġcer chi
itan t
Ġcompet izione
appunt amento
Ġcoi nci
s har
li ci
or namento
inf anzia
Ġraccontat o
N E
pola r
st ita
Ġvice nde
Ġcompetent e
ĠCa gliari
U L
r ce
i onal
Ġconsider ando
Ġindividu i
7 7
Ġdr i
Ġfra gi
Ġsa nitari
t ini
zzon t
Ġm it
ĠPa rte
tr ica
Ġd uro
Ġtrasforma r
sti na
Ġdetermi nazione
Ġautono mia
Ġriuni one
nciar e
Ġre port
U fficio
d ro
Ġpre parato
Ġ 01
Ġva sca
uar i
Ġlavora no
Ġdigni tÃł
Ġcolle zioni
il lu
uta mente
H ome
Ġecce zionale
Ġorgani zza
Ġav viare
Ġlo go
da y
ĠGia nni
Ġfanta stico
Ġtra ns
p sico
tica mente
I F
ĠPont e
Ġcoinv olto
Ġqua rta
Ġm ore
a mato
b el
orar i
Ġnat ali
ea k
ĠR affa
eler a
Ġvirt Ã¹
bru zzo
ma nu
Ġpe nali
Ġpersona lmente
Ġmet allo
Ġvisita t
Ġoste o
Ġinstalla zione
Ġper che
Ġav rete
Ġsal ve
Ġspe ndere
Ġesegu ito
Ġri per
ĠSe gr
Ġsa cer
Ġpa vimento
im pie
ele ss
nd itore
Ġg om
pa le
pro no
ci ni
Ġcondivi so
Ġcre scente
Ġ3 60
Ġpelli cola
Ġcampa gne
po ne
ed iamo
tt ualmente
da m
Ġregistra r
ĠGi unta
ne rÃł
e vo
ĠTe am
Ġapert e
ĠS S
Ġlim itato
B B
Ġterr emot
Ġw ill
Ġro ssa
Ġti n
Ġmer ita
a ntiche
Ġgino cchio
Ġ ph
ndo li
Ġassi ste
Ġesa ur
Ġri parazione
n tenere
ell azione
x el
Ġfaci li
ĠCl assi
c oo
Ġcurar e
Ġconve niente
ca cia
Ġtra nsa
Ġman cata
ĠUni versitÃł
Ġbia nche
iss Ãł
Ġnotifi che
Ġevent uale
ĠO vviamente
ĠFr e
s pro
c ongr
ttent e
Ġvol umi
ĠTe rr
Ġinclu so
i cor
Ġta gli
Ġanima le
Ġcentro ca
Ġtal volta
Ġesc ursioni
i ntorni
-- --
a glio
Ġimmagi nare
Ġter mo
Ġener gie
Ġo ssi
Ġsba gliato
vet e
Ġved rÃł
Ġcollega menti
Ġgui data
ĠSt oria
ĠRe gola
Ġimmed iato
Ġma g
sit amente
a gente
uter e
a a
ilat a
Ġmili one
Ġbic chier
ĠInter national
6 6
Ġsu olo
Ġallu minio
Ġrin unciare
Ġferro via
Ġtrover ai
ĠPart ito
Ġtipi c
Ġfe sti
Ġtipic o
iti vi
Ġraggi ungi
Ġpar ziale
ĠPar k
Ġman care
ner gia
Ġsorr iso
vera t
o nversa
sce nza
c onversa
Ġesser i
ĠDi g
Ġdeli cato
ĠS ol
ĠUS B
Ġraggi un
m ori
Ġrie sco
ica li
Ġregistrar e
Ġrichie dono
e uro
Ġquot e
polit ana
ĠBr asi
Ġsce ndere
Ġbia nc
ze r
n utili
Ġse parat
b ita
Ġrisu ltano
Ġpre sta
ĠCam pi
i nutili
ĠS I
Ġso ttr
Ġsuccessi ve
Ġconda nna
Ġri nf
Ġconforte vole
Ġd intorni
rol a
Ġtrasformar e
ĠUni ver
ĠCom mi
ilt erra
Ġsi gnor
ggiat i
Ġr ita
intro duzione
Ġsta nze
am ma
Ġcomo d
Ġprovved imenti
tt orie
giat i
ĠM ado
Ġvole va
cce ssi
Ġre gia
ĠA D
r ina
ĠDesi gn
ĠC D
Ġammira r
ĠVi ttorio
Ġre cl
Ġimpo stazioni
fi cate
d ici
Ġcompie r
Ġm l
ĠI sraele
na lmente
Ġchia mate
Ġtar iffa
cchiat a
Ġmotiva zione
Ġro tta
Ġarti sta
ĠGre cia
Ġoma ggio
t ensa
ĠCo nc
ĠPer u
Ġcompier e
ibu zione
bilita t
Ġreli gione
ru zione
Ġ conversa
ĠI nsi
ĠU nito
oran t
Ġd im
Ġve ngano
ĠCro ce
Ġ congr
Ġta ssi
Ġpu ro
Ġorari o
Ġsessu ale
Ġammirar e
Ġcar ro
Ġgam ba
dat ura
organi smo
Ġese cuzione
Ġpromo sso
ĠD ispo
oria si
Ġdo minio
Ġ psico
Ġfelici tÃł
Ġcom pe
n tensa
ello na
nzia mento
Ġaccu mula
iari o
u gh
Ġinve stit
Ġdiab ete
sa le
s vi
Ġpe ccato
ĠCon su
M E
ĠC oro
Ġinc ora
ĠAc qui
Ġsugger imenti
Ġr ito
i ntensa
Sa n
ĠM olti
S P
ĠP RE
S C
pi no
ni bili
Ġba nda
Ġpo veri
au si
Ġmi sc
Ġpre par
Ġvor rebbe
Ġeffett uati
Ġconfe zione
po sto
Ġspa gnolo
Ġm el
onda t
Ġparl ano
IN I
ira r
A D
Ġha rd
ĠPu Ã²
Ġ arb
ĠO tto
Ġconsi gliato
lit i
Ġve sti
strat e
Ġme ttono
Cos Ã¬
Ġruot a
Ġvicina nze
Ġcriti che
ĠCr ist
Ġtanti ssimi
Ġ iper
ndo ci
ĠB ur
im pro
Ġw o
Ġre d
Ġ- .
Ġrite nuto
Ġfi nita
shi p
Ġappre zzato
Ġla rgo
Ġsa li
ĠRe gi
Ġfr ui
Ġattiva r
ĠO pera
Ġre visione
ven ne
n venzione
Ġcor d
201 2
Ġ antiche
Ġdedi cate
Ġfi sso
Ġfine stre
ke n
Ġbe ns
Ġver e
Ġ inutile
Ġanali zzare
Ġcostit uiscono
ĠU tili
nd um
vi sor
Ġpregi udi
ĠS ac
o ntenere
c ontenere
Ġgarant endo
Ġre mot
Ġ18 0
ĠSi stema
Ġtrad u
Ġperma nente
Ġtor neo
Ġsa no
elar e
i bili
Ġcu o
Ġconve gno
Ġsoste nibilitÃł
Ġtra g
Ġattivar e
A ssi
vil tÃł
Ġpre c
ĠBru no
Ġsoggi or
Ġpubbli cati
Ġestre ma
ĠDo tt
ĠM O
ĠL av
lue nza
Ġinfra strutture
Ġ contenere
ĠP ol
Ġmedesi mo
Ġu sata
Ġdomici lio
Ġba lcone
Ġe videnza
Ġla ser
o ggetto
Ġse ssione
Ġg od
Ġide ali
Ġmusc olare
oter apia
Ġmont e
Ġrima sti
Ġpo mod
ngua rdia
Ġlie v
Ġfis cali
ĠAng elo
ttant a
Ġprenot azioni
o nge
Ġri si
Ġchia mare
ĠV I
ĠI P
ff o
ĠFil m
ĠJ ack
Ġtrasc orrere
b oli
Ġrima sta
qu ila
mentat i
Ġutilizza no
Ġe str
Ġcomp iti
Ġatte ndere
Ġ199 9
lo n
Ġt Ã¨
Ġregi strati
ĠC ali
ag ne
Ġnotat o
i gnora
Sc o
Ġsegr eti
Ġforma r
Ġpercorr e
po n
Ġlat i
ellat a
Ġme sse
Ġro bot
Ġb urro
Ġconqui sta
n tempo
Ġaiuta t
ĠC ore
Ġsoddis fa
dr a
Ġindividu ali
B A
Ġregi stro
Ġoccide ntale
Ġe m
ica mente
ul d
20 20
Ġdesi gner
Ġqualit a
Ġsho pping
t one
gia no
Ġve ge
a nne
Ġde se
Ġu ltra
ib ilmente
Ġo sse
n cu
Ġprofi li
Ġformar e
Ġeffi cienza
ĠF oto
Ġservi r
Ġpla y
Ġsta gioni
c ot
Ġasci u
Ġstudent e
orari o
ĠTru mp
cr eto
Ġ nati
Ġchia mati
e tte
urr a
Ġasci uga
Ġlim itata
i ntendo
Ġvi vi
A rt
ĠDe mo
Ġsco pr
pr attutto
ment ica
ĠFa n
Ġiden tifica
inge r
Ġrilasc iato
gu ali
n test
orma zioni
t erali
Ġgiappo nese
ĠE U
sto n
ĠâĢ ¢
Ġpa vi
Ġacqui sta
nsi va
Ġchiar ezza
Ġsa lita
br ale
Ġott iene
Ġreci pro
Ġali mentazione
Ġfor nitura
Ġsvolge rÃł
Ġcu ci
Ġma rca
A i
Ġacco n
Ġbens Ã¬
Ġpote sse
Ġrig ore
le x
Ġadd etti
Ġre dazione
Ġbr accio
Ġvid e
Ġgra fico
od y
Ġriguardant i
ĠNe gli
Ġaveva mo
oro sa
Ġaccon t
Ġsan zioni
Ġvalori zzare
l f
ĠMa ggi
Ġcusto d
Ġca vi
Ġlasc iar
Ġab usi
giat o
Ġfu mare
Ġampli a
ĠG l
ĠFili ppo
Ġcomple anno
o ntempo
Ġmodera t
Ġae reo
c ontempo
es Ã¬
ĠV ir
Ġ contempo
ĠS O
ĠE s
gi orno
ĠCam po
Ġevol uzione
elat e
Ġ inventa
Ġincident e
Ġ6 4
lu m
Ġfrequent i
Ġmet eo
ap pre
Ġscompar sa
Ġele vati
inent e
Ġresta no
Ġ inutili
Ġm uta
ĠMa uro
Ġado ttare
Ġim pu
ĠR E
Ġec o
Ġsva riat
Ġsim pat
ĠCe rto
ia mma
Ġoffr endo
Ġtras porti
f oni
Ġse bbene
Ġidr a
Ġcor nice
e rs
Ġsu bi
im mobile
rient e
nit ure
ud ica
Ġbro ker
Ġcolpi sce
Ġcampi oni
ĠO ut
Ġvi sti
Ġpe tto
Ġequi pa
Ġstatunite nse
Ġcollabora tori
Ġpi ttura
Ġauto bus
b it
stre tto
Ġsoffer enza
nn y
sio nale
ĠH ai
ĠF ac
Ġtranqu il
Ġalber go
Ġdo no
Ġsor ge
LI A
ĠFa bri
ĠMa ggio
ge ni
ssant e
tte zza
ĠP urtroppo
Ġpar adi
Ġ coo
Ġnorma lmente
Ġre pert
Ġpre sen
i cati
Ġpre sci
Ġsa nitÃł
Ġrimo zione
si s
s pu
Ġterra zza
Ġeffett uate
r ve
. :
Ġmed iat
nac o
Ġcomple ssa
n chiesta
ĠPa n
eg he
Ġstud iato
Ġpa gato
Ġpar liamo
Ġalle r
G B
ĠR ap
ĠDo ve
ĠRoma gna
ngh ilterra
Fr a
Ġobbligat oria
ĠMod ena
ĠMessi na
ĠG old
Ġ svi
Ġrila ssa
o ntest
ad ing
i nchiesta
Ġespo sit
o ng
ĠMe ssa
Ġpiena mente
Ġqu adri
e p
Ġcomuni cazioni
Ġsent iero
ĠT rie
Ġsti pula
ĠA sse
sta l
hi p
Ġcava llo
Ġgro sso
Ġbr accia
ĠM osca
Ġci bi
Ġtelevi sione
Ġesem plar
Ġav ver
uro cra
Ġfre tta
Ġotti me
Ġdivent ando
i rti
riat o
ap h
ĠPro cura
IC O
zio nari
Ġ ignora
ĠO ffi
Ġu sci
portat o
c oda
am pi
Ġaff ian
ver y
Ġparent i
ns ori
Ġcondi zionata
ment s
Ġav vale
is ca
Ġprote gge
ZI ONI
el ia
Ġ amo
ĠSem pre
Ġb ianchi
tti na
Ġba sata
H ai
ud enza
Ġdisc utere
Ġpat a
Ġsc ontro
Ġfr esca
id r
ĠA ncora
Ġgui dare
Ġsa na
Ġconsiglia mo
Ġinv ita
et iche
Ġe conomia
iet e
Ġdiminu zione
Ġ4 9
Ġpap Ãł
ggia menti
Ġcondu ce
Ġpresentat i
Ġincontrat o
ĠClient e
Ġprote ine
Ġrifer isce
Ġdete r
Ġtras mettere
Ð »
Ġfarma cia
Ġarticola zioni
Ġbancari o
Ġlon tana
Ġ â
Ġtor nato
Ġperd ite
citar i
Ġfav or
Ġb ui
Ġturisti c
Ġiti nerari
Ġpro gr
wo od
Ġisola t
Ġd ita
ĠR ome
Ġturistic o
T TI
Ġinclu si
ĠMed iterraneo
nchi na
lu d
ĠCent e
gne rÃł
lo gia
c over
cat ivi
lo tto
Ġsistema zione
Ġpe sca
Ġbr avi
Ġprovved e
ĠC olo
ĠSma rt
Ġau spi
ront o
a ste
ĠS vil
Ġbud get
pe d
e stro
Ġsta nd
Ġdivid e
ĠAnd r
Ġt oller
ssi amo
Ġaffar i
uni versitÃł
Ġnucle o
Ġacco gliere
T RO
Ġe bbe
Ġacco glienza
ĠG lo
c ella
isti n
ami ci
ir eless
Ġps oriasi
ll y
Ġsi gnora
tr ico
Ġe B
zzant i
Ġmette rsi
liar i
Ġsor ella
Ġeffica cia
Ġfun zionare
ustr alia
orr i
Ġ amare
Ġbenefi cio
Ġsele ziona
Ġve rte
Ġistitu zionale
Ġfa me
ĠCo ngr
Ġconsulta t
ci nio
e nute
Ġt orta
Ġav venuta
s li
Ġrat e
Ġprofu mo
c ontest
Ġbambi na
Ġsembra r
Ġpo ca
Ġchi usa
iet i
ĠG B
Ġpo p
Ġimmobiliar e
ĠPre zzo
Ġcom pensa
Ġaltr esÃ¬
m iamo
ĠI T
Ġtranqu illa
Ġper no
Ġgi Ã¹
gra fici
Ġ 00
Ġdiff o
Ġdeb oli
Ġser e
Ġgior nale
Ġcontribu ito
Ġprofonda mente
ĠBia nco
Ġvole vo
Ġappo sitamente
Ġtu more
Ġconsiderat i
stra le
Ġ( âĢľ
Ġpasse ggeri
Ġfar anno
Ġfida nzat
Ġottima le
Ġprevi sione
ĠSt ore
impie go
Ġme st
iver si
Ġservir e
Ġattent o
Ġsini stro
Ġcontinua mente
Ġripre se
Ġquotidiana mente
Ġequ ili
trat e
Ġho use
nza r
Ġintelli gente
Ġcol or
Ġsempli citÃł
Ġmodu li
a rsi
Ġstre ttamente
Ġsembrar e
u ci
a nteriore
ĠLa ura
Ġabbi gliamento
ssat i
Ġmer ci
Ġpata t
Ġinser iti
Ġmi stero
Ġsca le
Ġted esca
Ġma ssimi
pa l
Ġai utano
Ġpasse ggiata
Ġpoter i
Ġnecessit a
Ġconced e
Ġtrad uzione
ĠT ime
Ġpensa ndo
ĠA nn
A lcu
Ġospe dali
elle s
8 6
ĠD ivi
Ġscar sa
mb ria
Ġcal ci
Ġinc or
ig ori
Ġliqui do
c onge
b li
ĠM att
Ġdiv ul
Ġsce gli
ĠA frica
ĠChiar a
Ġdife ndere
c ogni
nda li
Ġfut ure
Ġaggi unta
E TA
Ġvota t
Ġpa usa
Ġpu lita
nziat a
u do
zze tta
Ġ ic
Ġruot e
Ġrac chi
Ġsici lia
Ġg el
cr ai
Ġai uti
or ient
Ġab itudini
Ġsce nde
Ġ spro
ĠK m
Ġve nuto
ĠE se
a sta
Ġtransi t
ro d
Ġst ore
Ġconvi nce
ĠP A
ĠE manu
Ġb om
EN TI
ĠCo nce
insi eme
Ġtempe sti
ĠS ele
ĠT om
Ġaggior nati
Ġtro var
o pini
fa st
Ġspeciali zzato
m mi
Ġde s
ad ini
ria li
Ġtrime stre
Ġrima ngono
Ġim porto
edu cazione
it iva
Ġpresu ppo
Ġst ia
ĠMar e
ap pe
Ġrivolge rsi
Ġca rdia
Ġd ure
o tta
Ġlice nza
Ġpann elli
ĠF ino
Ġclient ela
Ġu sate
Ġpo ve
Ġo cchio
Ġavv iato
ĠBrasi le
ttar i
Ġcervi cale
ĠH u
Ġro om
Ġimpe gnato
Ġsalve zza
ĠBarc ellona
Ġu ccide
Ġac u
Ġ contest
nso n
s ort
Ġderiva t
ĠRe gioni
Ġm orire
Ġcausa r
rr y
ffi cienza
Ġpunta r
8 9
Ġtranquil litÃł
Ġma nda
Ġdor mire
Ġ conge
Ġfred da
p neu
Ġallon t
ĠRic cardo
ura le
Ġallu nga
Ġprezio si
el abora
ĠCe ntr
Ġdis per
Ġabita zione
Ġassunt o
Ġcoer e
Ġstat istiche
Ġrig he
Ġba sse
ĠF ondo
unt e
i bi
F or
Ġ <
Ġsegnala r
itali tÃł
ĠTar a
Ġ smo
ndant e
Ġda rÃł
p sic
Ġseg nato
Ġca ut
ĠGia como
ĠTrent o
Ġrie ntro
i ssima
Ġamministra tiva
Ġno mina
Ġcor pore
ordi o
Ġapp ello
Ġ intendo
Ġ stri
va mento
Ġdina miche
pi Ã¹
ba sc
Ġdistur bo
Ġconfor mitÃł
ro om
ĠMado nna
Ġr uoli
i OS
sc oli
Ġperce zione
t ima
bb ie
Ġcausar e
mu nity
ĠO p
Ġav vol
Ġta st
Ġchie do
Pa r
ĠR ete
Ġra g
Ġve t
Ġri du
Ġtraccia t
Ġsche ma
Ġpuntar e
Ġro mano
Ġecce zione
Ġ coda
ĠPe rtanto
Ġinf ortuni
Ġdidatti ca
sti ng
Ġsuper mer
Ġna so
ĠCon fer
eno t
IN G
ĠPal a
Ġassi stere
lier e
Ġcontra stare
Ġinstallat o
8 7
ĠBo ok
ppa rtamento
illi am
Ġconce ssione
Ġinnovat ive
Ġveni vano
ĠPro f
Ġis l
Ġriser vato
ĠFor za
Ġespo sizione
Ġnucle a
O rdine
Ġdo ttore
Ġpensat e
Ġcar a
Ġgiovani le
ĠP S
ĠI V
pa rti
i ciamo
Ġcaratteri zzata
Ġcollo qui
Ġac cred
Ġba nco
Ġinclu dono
Ġvari o
Ġvisi bilitÃł
Ġb urocra
ĠCar abinieri
Ġacqui sire
Ġdisce sa
n ui
Ġim p
scar a
e prima
ĠSale rno
Ġintro dotto
Ġaffi tto
Ġada tti
Ġnuclea r
ĠAll ora
Ġtrasparent e
i ons
Tu ttavia
inser imento
Ġaccolt o
Ġmeraviglio so
ut ico
abb r
Ġproge ttato
Ġba rca
Ġpubbli citari
ing a
Ġdife tto
Ġcopert o
isol amento
Ġsegnalar e
Ġm ela
Ġallea t
Ġrende ndo
Ca sa
ggi r
ĠBer lino
Ġu nd
Ġfondat a
k u
ĠSo tto
Ġav versari
9 1
ĠPa ola
Ġfaci litÃł
Ġallont a
Ġri na
ĠU E
atta r
Ġd ime
Ġavve rt
ĠU ffi
veglia nza
c uta
Ġmeccani smi
Ġprotocol lo
ss or
Ġevide nziato
ĠP lus
ng he
Ġsu oni
âĢ¦ âĢ¦
Ġer ed
ĠQuant o
Ġinnovat ivo
Ġgiard ini
Ġverd i
Ġma gia
ĠCo ntr
Ġamministra zioni
Ġd iscri
ĠG I
ĠGala xy
ĠSpir ito
ĠSo ci
oli no
Ġricord iamo
ĠM I
Ġfedel i
Ġling ui
atte n
Ġconver sione
Ġind ire
U lti
Ġsele zionati
olat e
Ġse zioni
Ġfo cali
vat ori
Ġci fre
EN TE
ziona lmente
Ġacce ss
9 2
I r
Ġsb lo
Ġdisa bilitÃł
ĠGro up
Ġtra ge
Ġappa rte
colo gia
ang olo
Ġhe r
gi no
Ġ pneu
L U
Ġfin t
Ġcoo perazione
Ġinfer iori
Ġsfor zi
Ġpro mette
Ġesclusi vo
rd ini
5 7
Ġaff r
B o
Ġaffida bile
e rva
E x
ĠSie na
Ġespre ssi
Z Z
i ste
ĠDat a
BI LI
sia mo
Ġelettro nico
Ġpa ll
uri o
Ġfisi che
ĠSe i
ĠD all
ĠDome nico
ĠV ideo
Ġu nder
Ġna polet
N onostante
Ġgira r
ĠC lo
sce ndo
g uono
itar i
tto ni
Ġbeva nde
ali mentazione
Ġpat ologia
Ġletter almente
Ġsto p
ava nguardia
ĠM ore
Ġ incol
ĠN or
Ġpove rtÃł
Ġt ort
sta nze
o gliere
Ġb allo
Ġli mone
Ġver sat
Ġmode rne
ĠCal cio
Ġchied endo
Ġag gressi
qua r
p pur
cciat o
cid i
por si
Ġroma na
Ġe ma
vo ce
ĠRoma no
ĠE ppure
Ġga l
c ons
Ġmo na
H E
Ġ amato
Ġvaluta zioni
ing s
ssa no
p m
ĠA b
Ġug uale
Ġfinanzia t
ga s
Ġdele gato
id ge
Ġag gra
Ġeccelle nza
Ġlegi tti
Ġtap pe
Ġresi stente
Ġma ssi
Ġfut uri
Ġasse gnato
Ġimmed iata
par i
orr a
Ġstruttura t
ĠTe ch
t erva
ĠTrie ste
Ġ0 8
nge n
Ġindo ssare
Ġcostitu ita
Ġedifi cio
e rce
Ġau str
Ã §
Ġri cr
Ġester ne
Ġpolli ci
ĠCente r
inc r
Ġassociat i
Ġteatr ale
ct or
ĠMich ael
Ġprima ria
ĠA M
elle r
ĠMar a
n terva
le tter
ĠPr inci
Arti colo
Ġaggi ung
Ġuni versitÃł
Ġprecedent emente
Ġma d
Ġstra no
Ġinvestit ori
Ġvincent e
pen t
ĠS oli
Ġistitu zionali
Ġderivant i
Ġrad do
usi ness
Ġdia lo
Ġdotat e
Ġme da
Ġm y
grat i
Ġ psic
t erce
Ġu s
ĠM adr
irar e
Ġvaria bile
om bo
Ġ ipo
Ġma glie
n terce
Ġarriver Ãł
G o
ĠTre vi
Ġreat i
Ġsacer dot
ĠM em
Ġfra si
Ġraggiun gimento
opini one
Ġgirar e
i nterva
Ġre azioni
Ġtot ali
ĠCa rta
Ġraccolt e
i nterce
impo sta
Ne gli
Ġbor go
br azione
fe tto
ĠBa sta
ĠW h
5 6
vo ca
Ġcolle gato
Ġadeg uato
Ġ inverno
. ).
Ġ Ãł
v elo
ggir e
ĠS ea
Ġge ome
za r
Ġgenera r
esi ma
A I
ĠR os
Ġdotat i
Ġporta fo
ĠUniver sity
Ġmant enimento
R AN
Ġscat ola
mati o
ler e
Ġobbli ghi
Ġincre mento
Ġfr am
ĠB atti
ĠPeru gia
or ali
Ġcu sci
V D
S Ã¬
ĠSt elle
Ġod ier
me m
Ġvaria zioni
Ġappart iene
Ġvolt i
Ġgenerar e
Ġinv ito
Ġta lmente
c ilmente
Ġ199 8
Ġimpe gna
ĠFor um
Ġdetermi nati
ĠNe ws
ĠCom unitÃł
Ġgi unto
Ġentrat e
pert o
ĠAp p
Ġiso le
Ġrum ore
Ġecce sso
T M
ma ndo
ing t
uo so
ĠLa go
Ġmont agne
Ġ iOS
ĠMa ssa
t ona
Ġfatt urato
Ġesse nzialmente
Ġge m
Ġacce ssibile
Ġcompi uto
âĢľ ,
Ġspe cchio
Ġ shar
cchia li
Ġve cchie
Ġl ombar
Ġrinno vo
Ġfa rti
Ġrapi d
gu i
Ġim pli
Ġsa bbia
Ġpla ce
matio n
Ġta sto
otti ca
Ġcompa rto
Ġ anteriore
Ġgiud ici
Ġpi zza
Ġbo sco
N elle
Ġre da
it ch
Ġscri tte
sua l
ĠO l
Ġlon tani
Ġalber ghi
ĠE N
ĠMont i
En t
vi ng
Ġstori che
ĠR eal
Ġgi rone
Ġge stito
Ġsvol gono
Ġpro pa
menta zioni
y pe
Ġmer idi
Ġrido tta
ER O
Ġgi nnastica
Ġtranqu illo
Ġ sy
Ġci ma
Ġse cco
s w
Ġtur istica
o prire
ĠOr gani
c oprire
Ġpanor amica
Ġav r
ico na
Ġconsi glieri
Ġmi ele
Ġci viltÃł
atti mento
Ġscri tti
Ġris orsa
Ġpad roni
ann uncio
Ġprospe ttive
ĠDome nica
ĠH anno
Ġentrat o
ĠI VA
gi nale
n tia
ĠGr een
archite ttura
ĠPr imo
ĠFabri zio
Ġcod ici
tto ne
Ġpa sser
âĢĿ )
Ġtende nze
Ġconsu matore
Ġcompli menti
Ġpat e
Ġcontr att
Ġb ed
e ndere
ol fo
Ġg ir
Ġdice va
Ġamb iti
Ġfin chÃ©
Ġbicicle tta
Ġre se
Ġsi ndrome
vo cati
Ġcar bo
Ġfavore vole
Ġnegat ivi
Ġpa pa
Ġcirconda t
e stre
fica zioni
Ġfore sta
pu s
Ġt ira
Ġcucchia i
et ici
tt uali
Ġrappresent azione
Ġcine si
Me ntre
Ġperi fer
nd or
Ġgalle ria
c d
Ġriser vata
Ġabbonda n
Ġspint a
Ġrisulta r
Ġabbondan t
Ġrisa le
Ġse me
Ġn ut
ĠCo nsor
ĠM ili
Ġmen Ã¹
u g
Da t
att ivo
ĠF ami
Ġstu pi
Ġ coprire
Ġ iscrizione
Ġte ori
tti c
isti ci
Qu ello
mat ure
rde n
Ġrisultar e
n tano
Ġfoto camera
Ġappar ire
Ġve stiti
Ġtipi ca
Ġtab ella
ĠMe tro
Ġiniziat a
Ġini zie
P E
es pressione
Ġipot i
ntrat e
Ġcrit ico
Ġcli ck
Ġamministra tivo
C l
Ġev itando
Ġprefer iti
Ġtras fe
Ġcade r
r ed
ĠG as
Ġmotiva zioni
el ie
Ġripre ndere
A v
et ano
5 9
ffer e
Ġinna nzitutto
Ġcomo da
Ġcro ce
ĠL ED
Ġsu r
Ġgira t
Ġre stri
Ġve tr
Ġtrag uardo
Ġpensi oni
Ġriscontra t
ver ai
Pi Ã¹
Ġcol t
Ġpre ser
Ġgiu nge
effi cacia
appro vazione
Ġdisa bili
Ġes per
assu nzione
Ġantici pa
ce a
tte ria
Ġdis pia
st ia
Ġentusias mo
cia n
Ġ( -
Ġuni versale
i pe
Ġfalli mento
Ġcader e
Ġdefi nita
Ġsent irsi
Ġidentifi care
it ness
pd f
ĠFe ed
Ġstre tta
Ġfrequenta t
ĠTe rmi
Ġt ono
Ġg iri
Ġscom messe
Ġgua rdia
Ġcar e
dant e
Ġtap pet
ĠCo mo
Ġfrance si
Ġchie dono
CH E
ĠH y
Ġb iblioteca
no t
Ġsa lto
Ġtempora le
Ġ cogni
a frica
Ġdove t
Ġrappresenta nza
Ġdivi eto
Ġopera tiva
Ġdovet e
ingt o
Ġade mpi
olo gio
za no
ĠHe r
nere n
ono mia
Ġ cot
Ġprende ndo
ĠG RA
zzat ori
Ġsco pre
Ġmi sur
Ġfo glio
Ġpe do
atta t
Ġstrate gica
N uo
stru zione
Ġindipende ntemente
Ġconfigura zione
avvi o
Ġcomo ditÃł
Ġpensi o
O O
Ġsig l
Ġria ssu
one s
ndi ci
Ġcostre tti
Ġfor mati
Ġcer c
Ġcent e
neren t
pie n
ingto n
Ġfr igori
t enute
e ale
Ġcostitu zione
Ġtr ibunale
cit i
Ġter ze
cia no
Ġgarant ito
c ogliere
Ġ nic
Ġcor pi
Ġd orsa
ĠEli sa
Ġpresci ndere
Ġd iciamo
Ġconser va
ĠMadr id
A rte
Ġv iti
cid e
u lt
Ġur bano
n tenute
o ordinamento
Ġpromuo ve
o ntenute
c oordinamento
c ontenute
Ġgui dato
Ġatte nde
nolo gia
Ġmuse i
fi sti
atten t
Ġnormat ive
In somma
ĠLe cce
Ġla d
Ġconsape voli
aggi ornamento
Ġmorbi d
ve se
p ut
Ġmano vra
Ġaci do
Ġlibre ria
se ne
nf a
ĠB ambi
Ġtin t
Ġriporta r
Ġconsu lt
Ġcitat o
im mi
ne ria
Ġ ane
Ġacc elera
Ġtro vati
Ġpericolo so
ministra tore
c ontami
agri coltura
Ġ contenute
Ġconosci uta
polar e
Ġre tta
i ncu
cat iva
Ġabita zioni
5 8
Ġ cogliere
Ġdefini sce
Ġcostitu zionale
ese mpio
as ma
ĠPer Ã²
se d
ĠA gri
Ġvola n
Ġtenta t
ttr ici
ĠScie nze
Ġtestimonia nze
ĠRegola mento
ĠTe rme
Ġmusici sti
Ġgra t
Ġf iera
Ġpazie nza
ĠMar ino
IN O
Ġprevede r
alber go
ĠCH E
Ġpala zzi
ver d
ĠS im
Ġconce tti
ni zione
Ġha s
Ġva i
vant a
pien t
uni verso
Ġmat ura
Ġte sser
Ġ0 9
Ġcontrib uent
ĠM AR
ĠO pen
201 1
Ġtar get
Ġavanzat a
Ġim bo
Ġver go
Ġlavora tiva
Ġintr e
Ġpreveder e
Ġpad rone
Ġri quali
del li
T TO
Ġcoere n
Ġcoeren t
ge s
Ġ coordinamento
Ġfonda tore
Ġrile vante
Ġspeciali zzati
Ġto glie
Ġdata base
Ġpote nziali
t eprima
pre ss
n teprima
Ġappartenent i
p pie
cula r
Ġquant e
Ġrappresentant e
Ġvita mina
ĠB itcoin
Ġtecnolo gica
Ġstrat o
Ġca na
Ġmassa ggio
ĠSu lla
V o
Que ste
pre sidente
Ġd roga
A le
Ġpa tto
Ġadeg uata
EN ZA
ĠProt ezione
sc olare
9 4
Ġconcorrent i
gat ore
a sia
Ġatte so
a nteprima
ne tti
Ġsu cco
commer ce
nn ellate
Ġterr eni
v olt
Ġasse n
Ġatte ggiamento
Ġdivi sione
. ),
Ġg omma
Ġassociat o
elat a
Ġpermette ndo
Sta t
Ġbui o
zio si
Ġro bu
ur itÃł
C onsi
lia t
Ġb is
Ġoper ano
Ġfe ed
Ġ intensa
Ġequili brat
Ġcreat a
ĠInf or
ĠRi mini
! )
o nia
Ð º
i nerent
Ġriportar e
P O
ĠRo ck
ĠA ssociazione
Ġdiment ica
Ġas pira
Ġde va
t engono
ĠM ad
ĠI sl
Ġampia mente
Ġ199 7
Ġrica d
Ġsala t
Ġcrist iani
Ġcrea tivo
ĠLig uria
Ġder mat
Ġamici zia
Ġvi ttorie
Ġesi stenza
hi o
Ġcompetent i
A ccademia
Ġde scritto
ĠM et
p lu
vvi o
Ġcapol uogo
ĠW hat
Ġj u
ĠCine ma
ĠDa y
Ġdiver samente
Ġprima r
Ġirr i
Ġfun zionali
ac chi
Ġsegr ete
Ġappli cata
ro me
Ġaffasci nante
ĠCa ro
Ġ inerent
ĠFeder azione
P art
Ġpra tici
ĠDo nne
Ġcr edi
n uato
Ġrivi ste
ĠGi Ãł
Ġripri sti
mi d
Ġved remo
Ġ5 2
Ġcomplessi va
Ġindiri zzi
ĠSar a
ward s
conomi c
Ġpotr emmo
ĠSvil uppo
i nui
cita t
atte sa
Ġ cle
ĠX V
ĠGui da
Ġbu sta
Ġage v
Ġghia ccio
t esi
r ite
Ġu si
rd ina
Ġsco pi
Ġcult ure
Ġro m
app ello
Ġsettima nale
?? ??
Ġcin quant
ĠeB ay
ĠA ltri
gi n
i gie
Ġamministra tori
ĠCam pio
ĠP I
Ġsotto val
Ġdocu mentari
ba bilmente
Ġ interr
Ġarr ivi
e sta
ĠRo sso
Ġmostra no
ĠS TA
Ġcau sato
Ġconi u
ĠE si
ĠPo wer
Ġcom bu
Ġprimar i
Ġg atto
n tima
Ġmar gine
nc y
Ġbatter i
t es
Ġper fino
E le
Ġfore x
ffa r
Ġna zione
sto ne
Ġcontempora neo
Ġcolle ttivo
ĠB usiness
Ġchita rra
ccelle nza
esi genza
Ġesser si
acco glienza
Ġ contami
ĠP or
mb o
Ġpreoccupa zione
t erazione
asse mblea
Ġpod i
it oria
Ġsperi mentazione
mar a
Ġfa sce
Ġvi sit
Ġo ffi
b all
Ġprinci pe
Ġconclude r
ab itazione
G A
p ella
o ccupazione
Ġop zione
Ġcap itano
Ġcirco stanze
vid i
Ġsotti li
Ġpred e
Ġcompra t
Ġopt a
ĠCe rca
ĠTur chia
ello ne
Ġ5 6
G E
n terazione
ĠU m
Ġ air
u sto
ĠB isogna
Ġ iro
Ġcant iere
it or
Ġsoddisf atto
n tengono
zi na
Ġfor nite
Ġro ve
Ġsc usa
Ġandat i
ĠDa n
Ġpotent i
cci ono
t inui
Ġuscit e
ggia ndo
Ġconso le
Ġpropo sti
ĠMo nza
Ġmant iene
ur ce
o ntengono
Ġpiaci uto
c ontengono
Ġconsu lente
l do
Ġglo bali
Ġrit orna
i nterazione
Ġ9 5
Ġori ginaria
Ġcal orie
port azione
C ol
Ġindi mentica
Ġdiffi cilmente
ado zione
ĠP AR
Ġfaccia t
Ġopini one
ĠMo bile
Ġage nzia
Ġaccont e
ciat i
s ella
ĠM unici
Ġsuper fici
Ġora le
âĢ ĭ
gua glia
Ġ contengono
Ġschier a
ut h
Ġpa nchina
c oste
Ġdov uti
Ġconcluder e
Ġcos me
h t
Ġae rei
Ġcor o
ĠDEL LA
i nuato
ĠWa r
Ġprodu ttivo
ĠW illiam
ĠGiu sti
Ġsigl a
ĠFan t
Ġnote volmente
Ġpr ele
Ġsensa zioni
cci ni
Tu tte
Ġsosta nzialmente
D ue
o cco
Ġdifferent e
Ġpara t
Ġ africa
tt u
ĠCap itale
Ġonor e
n tinui
t inuato
ĠSir ia
ĠM oli
n tinuato
Ġconc rete
Ġsa remo
ĠSt iva
o ntinuato
c ontinuato
Ġindi cata
ĠT E
Ġsa pr
e ma
7 6
Ġvi etat
Ġorienta t
Ġcoinvol gere
Ġmuo versi
Ġcomplessi tÃł
eserci t
Ġcolla terali
Ġ continuato
ĠMan t
Ġmang ia
invi o
P ER
f it
Ġchiar e
ĠA da
ĠN A
cian t
tr y
Ġpo poli
pa rte
ĠInve ce
t amente
e sito
Ġeli mina
Ġrespi ro
Ġcor se
tte nzione
ĠRice rca
Ġappli cato
Ġcosidd etto
cat ura
Ġfer mata
Ġim parato
R ice
R a
Ġmetro politana
gat ori
Ġca rto
Ġport iere
Ġcri pt
Ġlim itare
Ġmodel l
ci ng
201 0
Ġci li
Ġprove niente
Ġfo ssi
Â ¨
se m
ĠCentr ale
Ġmad e
ziona n
zionan t
ur go
na ria
S olo
Ġrefere ndum
ol ly
zze ria
po i
Ġma nche
ĠE sse
Ġvinci tori
Ġdetermi nata
Ġgram mi
Ġdefinit ivo
Ġam pie
br ai
Ġ interce
Ġcontatta t
Ġsent imento
part ment
Ġinaugura t
Ġpote vano
Ġ coste
itr ice
o nali
Ġtro ppi
Ġsit uata
Ġpre mia
ĠPa t
mo l
f l
i ba
Ġdife nsore
Ġgover ni
Ġmodifi cato
ĠRe sponsa
Ġassen t
Ġna rr
ĠA rte
rd Ã¬
ĠP O
Ġfina nza
o ck
pre ssi
Ġdorsa le
Ġru sso
Ġpro d
Ġrispe ttivi
s m
istru zione
ĠT op
Ġliber amente
ĠGue rra
ad y
rr u
Ġsal uto
for nia
ber i
Ġcam bi
Ġmatti nata
ĠS Ã¬
Sa rÃł
ĠA llo
Ġpi ttore
Ġinv itati
ĠFr ee
Ġindi cate
Ġrifer ito
ĠS w
o ntinui
Ġed izioni
c ontinui
Ġprodo tta
uari o
Ġlie ve
Ġpre ndono
Ġimpo ne
sti ni
Ġo ur
o pie
Ġnuo t
ĠStre et
Ġuni sce
Ġced e
.... ....
Ġsegu ita
Ġcom mentato
ttic o
ĠBia nca
f atti
emo n
Ġcom itato
Ġra ramente
Ġprono stici
Ġadole scenti
Ġlar ghe
c orto
Ġconce sso
Ġfred d
effi cienza
Ġsensi bile
Ġpreve dono
Ġpromo zioni
Ġsi nce
Ġmant enendo
ĠFerrar a
o ca
mi nati
ĠCivi le
nd s
Ġ continui
Ġma x
v iato
ĠAl ba
ĠCo vid
Ġincident i
G O
i nteriore
ĠPa squa
via zione
Ġso stit
Ġriv elato
ĠU RL
Ġro ssi
Ġcart ella
Ġirr eg
Ġrafforza r
ia nca
Ġpiani ficazione
Ġli ste
Ġscene ggia
ro idi
Ġritro vare
N essu
ingr a
Ġaltro ve
ĠChr ist
Ġimpo ste
nda lo
Tu be
Ġricorrent e
Ġprefer enze
Ġv ille
ĠR es
ghe se
Ġobbligat orio
ĠF un
Ġinf lu
Ġusa no
Ġappre zza
ĠI mma
Ġposit ive
c ou
ca p
Ġlo w
Ġpre parati
Ġintegr ale
Ġdo dici
Ġw i
T C
Ġprote sta
Ġpre scri
x elles
Ġrafforzar e
Ġprodu zioni
Ġri no
Ġw ireless
Ġintro do
Ġcopert ina
Ġpresen ze
Ġpresentat e
p ila
Ġimped ire
Ġvole ssi
ĠDe creto
her e
Ġmont aggio
Ġfle ssibilitÃł
Ġfondat o
ĠOr i
ĠiP ad
Ġaff accia
Ġminer ali
Ġchia cchier
Ġsolar i
or do
Inf atti
ccessi vamente
Ġabb assa
Ġado ttato
Ġbi sco
Ġotte nuti
gr uppo
ĠNi ke
Ġtutela r
ĠGar a
Ġespl orare
Ġac t
Ġfar l
ĠPa ul
ĠBene detto
Ġlegisla tivo
Ġesi stente
c elle
Ġpro ssi
Ġchirur gia
nar ci
si na
Ġde pressione
fer a
ĠMo naco
n tali
Ġaiute rÃł
Ġucci so
Ġvend uto
Ġfarl a
Ġ ace
Â ²
Ġ5 4
9 3
ĠD ella
Ġmina cce
eat i
Ġpi r
ĠU r
ĠAr gent
Ġpro stat
Ġattr azioni
Ġeno rmi
Ġ interiore
Ġfer mato
m pia
Ġsperi mentare
t eso
ĠA C
ĠGiova ni
Ġno tti
Ġsta zioni
Ġrifi uto
Ġcot one
ste i
Ġconne ssi
c ong
Ġconfer mare
Ġorient ale
o per
Ġva da
Ġbos chi
Ġst ella
Ġsplendi do
Ġw hi
Ġsa nitarie
Ġra bbia
Ġvi ste
Ġpa sto
esercit o
Ġfrequent e
ĠConsor zio
vi no
Ġdisa stro
b et
idr a
ndr i
av ventura
ĠJu ve
Ġallo ggio
gno li
ĠEle na
Ġimpie gati
Ġo b
Ġpil oti
rrat a
oro samente
d ina
G LI
anda mento
Ġver si
5 3
Ġrile vanti
p lus
affa r
ispe tto
Ġpo sa
Ġche f
Ġd ile
Ġdis chi
A zienda
m l
Ġasc olto
ĠAng el
ĠFi n
Ġcolle gati
Ġalle natore
Ġseg uono
Ġfisi ci
uti ve
cura zione
Ġ corto
ĠM oto
Ġ @
Ġap pi
ĠPie ro
Ġtutelar e
Ġricorre r
Ã º
Ġfi bra
Ġne mico
ĠSan remo
Ġle va
Ġarchite ttura
ĠCoro na
w ei
ĠCont i
Ġinca pa
Ġricorrer e
Ġlent i
e ntrata
Ġdescr ive
Ġm iti
Ġvisi bili
Ġacconte n
5 2
Ġpe da
Ġcompre se
Ġ igie
Ã³ n
Ġacconten t
Ġdetermi na
cci oli
Ġscontat o
isti na
Ġterremot o
Ġsottopo sto
Ġiscri tto
Ġcan tina
5 1
Ġ7 00
Ġtrent a
ĠGr i
Ġalli evi
Ġ5 7
ner azione
Ġorgani zzati
Ġac cede
ora no
Ġb ut
Ġag gr
a pie
per so
a rci
Ġconcr eta
tt urali
mentat e
r ing
Ġcaratteri zza
ba sso
Ġmilli metri
ĠPre mi
Ġvicina nza
ĠL ive
ĠS A
Ġga strono
Ġascolta t
Ġdr a
Ġle sioni
Ġscr ivo
ĠS cal
Ġpubbli care
Ġmagazzi no
Ġria l
olla t
d estra
Ġirr e
Ġ sch
Ġ cons
Ġnu volo
6 4
Ġmar che
Ġfis sato
Ġfa ma
Ġpiace rebbe
o gno
ĠI TA
Ġmeraviglio sa
Ġdetermi nate
Ġdestinata r
Ġgr eco
Ġ ort
ĠJa mes
ĠS cr
Ġdestinatar i
Ġdo tazione
Ġcontenent e
Ġcoltiva t
ga l
Ġse parazione
Ġpropo niamo
Ġsacr ifi
Ġla lc
Ġtr ado
we et
ĠProge tto
ĠB os
Ġsom me
IC E
piant i
ĠMa nu
Ġevide ntemente
sti menti
Ġgesti sce
Ġsom ministrazione
zio sa
gua rdia
zia r
ĠNe r
Ġpodi o
5 4
ndat e
Ġcrist iana
Ġcostru ita
Ġlasc iano
8 00
Ġlancia r
Ġespo sti
Ġpri vo
up pe
Ġn Ã¨
Ġlasc iate
Ġfr esche
ĠSo ciale
Ġpre parat
Ġto nalitÃł
Ġca nna
Ġintegrat a
llat o
Ġav via
r ael
ĠRo bert
ld e
ndi bile
Ġpann ello
G I
Ġ apo
Ġverd ure
Ġu guali
Ġespo sto
irat o
ĠS aint
Ġre p
Ġacce ttato
Ġidra t
8 2
Ġse ppur
u be
Ġimpre ssio
ani mo
alt h
Ġorgani smo
Ġchia vi
Ġformat ivo
Ġrimedi o
Ġ spu
Ġand iamo
Ġera vamo
a uti
Ġappare ntemente
Ġfi bre
Ġvive ndo
ĠK i
sulta t
i oce
e remo
ila nza
sta mento
S ei
ĠMar zo
ggiant e
a rdo
Ġsv olte
Ġgiurid ica
Ġsplendi d
ĠD ice
ĠTro va
Ġb ron
Ġesa lta
ĠBor go
ĠF iat
Ġpare ggio
nda no
ma d
Ġsorpre se
Ġim men
per Ãł
Ġeste tico
Ġsinda cati
Ġvi nc
Ġordina ria
Ġprossi mitÃł
Ġlent amente
Ġsoffr e
ria na
Ġsotto line
r is
Ġsu ici
Ġsa cche
Ġfu l
ĠPra t
Ġtermi c
Ġb alla
Ġdiri ge
Ġtermic o
Ġintelle ttuale
Ġcono sco
ĠAr ch
Ġclassi che
sti r
Ġimpo stare
Ġtrage dia
Ġresta uro
Ġatti mo
o a
? !
col osa
ĠGe r
tti ca
Ġe ppure
Ġispirat o
onie r
ĠCana da
ne s
Ġgioi elli
Ġconser vare
8 3
Ġ5 1
Ġprovi nce
ĠLu na
Ġeste tica
Ġve ste
Ġv orr
ĠVa n
Ġm ito
Ġma chine
c opie
Ġd orso
iant o
Ġraffi gura
ĠD ai
Ġand ranno
uot a
Ġgrad uat
Ġmir acolo
li nk
Ġconse gnato
ill amente
Ġesti vo
Ġscola stica
ode r
Ġomo ge
Ġconsultat o
Asse mblea
Ġde sk
od r
ro t
U M
IN E
vvi so
ĠPo sso
ĠVe rde
Ġ sli
Ġpia cciono
ĠPr i
Ġf ollo
ĠF ai
Ġg atti
Ġtru ffa
Ġmo ndiali
ĠU lti
Ġlo c
Ġcam minare
Ġstra ni
ĠSt azione
ĠA ero
Ġport i
Ġmem ori
za t
Ġsa rai
Ġbrillant e
Ġl itri
urat i
ĠAm ministrazione
Ġ plu
Ġcontr asse
Ġba rra
Ġlegge nda
eat a
aut oritÃł
talo ni
Ġsignificat iva
ĠBe rt
Ġpubbli cazioni
Ġre pli
Ġ af
tti ni
Ġtecnolo gico
Ġnomi nato
Ġattent i
ĠBru xelles
istin t
se ssu
Ġsu scita
mi glia
T S
Ġtit olari
Ġautono mo
Ġtra mont
Ġsfer a
gram mi
ĠB ona
Ã© e
Ġcorrisponde nza
Ġcerc o
Ġtranqu illamente
Ġartifi ciale
Ġani me
Ġmonit orare
s rl
Ġgaran zie
e nitore
Ġconqui stare
Ġelettro dome
Ġavvi o
o sser
V ER
Ġpar ago
Ġre sti
atte nimento
olo n
AR I
Ġmila nese
up pa
Ġatt ore
Ġcusto dia
Ġpie tre
A ggi
mar i
i nvo
Ġne mici
Ġlanciar e
Ġ199 6
lcu no
c ogno
Ġper dono
Ġconqui stato
ĠMu sic
ĠInt a
Ġbim bi
mere voli
oro si
acqui sizione
ON O
ĠF A
Ġcono scono
Ġverti ci
Ġdire ttiva
Ġanzi chÃ©
Ġt orre
EN TO
Ġele vate
bi c
Ġsa ni
Ci Ã²
Ġpole miche
tt le
ĠSpe sso
ĠPa y
perat a
Ġpar ado
ĠH am
ĠE t
t enitore
n teso
oria l
st iamo
Ġcresci uto
Ġ %
C D
z y
Ġaffer mare
Ġelettro nici
Ġpr oro
Ġam ma
Ġele tto
nat ivo
s no
Ġ cuta
Ġterrit oriali
Ġripro duzione
ĠGua rdia
Ġvideo gio
fa l
Ġrive ndi
iat ore
Ġ aste
Ġcosidd etta
Ġe stratto
Ġinteressat e
i nnu
ĠE gli
Ġarriva ndo
A rr
g il
a ny
Ġav remo
av vocato
qu et
Ġro ttura
Ġclo ud
ĠN E
p el
Ġ- ,
Ġva ni
ome r
o ach
s messo
Ġbatte rie
ĠS he
Ġedu cazione
Ġ199 2
Ġblo cca
ĠHo use
Ġm unici
Ġaut unno
Ġesti va
abb iamo
Ġ smesso
cchia mento
me ttono
Ġrin uncia
br ica
Ġspa lla
Ġimpeg nata
ĠT omma
volt ai
Ġfo od
Ġavve nire
ĠGiu lio
el y
ĠVa tica
Ġimma gina
ĠDemo cra
oppo sizione
Ġo pen
ndo le
Ad visor
Ġonor a
gre ssione
Ġrileva nza
Ġe book
Ġlegi ttima
A cce
Ġripre nde
rta r
Ġdov ute
Ġintrapre ndere
Ġmate matica
tiva mente
ĠCa nc
ĠE mi
da d
Ġpa tria
Ġtri onf
ebbe ro
Ġinnovat ivi
Ġla cr
Ġpre ga
Ġre gno
ĠD VD
Ġringra zio
Ġbr avo
ĠCa mere
ĠZ u
Ġsec ca
Ġpetro lio
bbr a
c oach
enot a
fi na
Ġstupe fa
Ġdife tti
ur sione
Ġbr asi
ab bi
F orse
ĠPe scara
ĠMedici na
ĠBuo na
Ġcapi sce
Ġk a
n tenitore
Ġ cong
Ġapprofondi mento
ĠMarti no
ĠKa r
Ġdov rai
Ġreli giosa
U RE
Ġpall one
o ntenitore
Ġ0 6
c ontenitore
Ġted eschi
ade rs
el p
Ġquint a
Ġriser vate
pr udenza
Ve r
Ġspettac olare
M olto
Ġesercita r
Ġimpo sta
ash ington
ĠA sia
ĠTh is
inf or
uti o
Ġna zioni
Ġ orto
equ ilibrio
ĠYou Tube
fica n
ur y
Ġgra zia
ĠCi nque
Ġtru cco
Ġde bb
Ġ innu
S ce
Ġpersonali zzato
V ia
ĠU nite
Ġesercitar e
Ġsa ggio
Ġte ne
Ġperfe zione
ga le
Ġfeder ale
fican t
Ġunica mente
k t
ĠGr and
A ncora
Ġperma nenza
ĠA mb
ĠStr u
Ġge no
Ġnarr azione
Ġcro naca
Ġtr ia
ĠLa tina
Ġalcoli ca
ĠFiore ntina
Ġtanti ssime
Ġra ssi
Ġuni che
7 2
i pert
Ġcompar sa
Ġmedesi ma
ĠTara n
Ġpo eta
Ġgene ro
o cchiata
cor so
Ġvi ssut
bb y
Ġrisarci mento
ve s
Ġcasi no
Ġto nnellate
mb l
Ġfanta stica
a ntro
Ġva sto
Er a
Ġdimostra zione
Ġri copert
Ġ cole
Ġpara grafo
8 4
Ġaver lo
ki pedia
ĠP ed
Ġappre zzare
n zioni
Ġcomuni ca
ĠInta n
Ġgra vitÃł
ĠIntan t
Ġsc el
Ġina spe
ĠIntant o
dant i
Ġosta coli
Ġvali ditÃł
Ġinterpre tazione
Ġsopravvi venza
Ġbotti glia
Ġent e
Ġaffe tto
ĠGabri ele
vi nce
Ġfotogra fica
Ġpotenzia lmente
e rlo
Ġstud ia
Ġre ndimento
zza rsi
c urri
Ġdiplo ma
Ġo mici
Ġcam pe
ĠPu bblica
Ġ5 3
Ġforma zioni
Ġlinea r
ĠMont a
ĠPo st
Ġfonda zione
Ġsangui gna
Ġpa nni
ĠL os
Ġinver nale
Ġam m
r se
Ġinfer mier
Ġro sse
Ġindo ssa
f one
Ġnasco nde
Ġd ipe
ĠAl pi
ĠL ice
Ġcent ime
ua n
Ġvita le
Ġd iale
rl ando
ĠG uarda
Ġto ccare
Ġparro cchia
Ġsinda cali
Ġ cogno
illar e
cu ltura
bat e
Ġinterpretat o
Ġaffi dato
ĠB ella
a per
a nci
este nsione
Ġdeb iti
ĠPre sent
Ġma ke
d y
Ġfrigori fero
ing lese
ĠLa r
k m
ĠBe ni
Ġidrat a
Ġconvi nzione
Ġbicchier e
s orte
ĠEmanu ele
Ġer be
Ġme ga
Ġantici pato
ĠPe n
a nello
it iamo
lier i
Ġu niti
Ġdiscipli ne
s ky
ĠDire zione
Ġraggiungi bile
Ġami ca
ĠF ro
Ġ anne
Ġe nd
ip Advisor
Ġdistr ibut
Ġcompati bile
Ġben zina
V ene
Ġintro duce
ĠSt ampa
Ġtro vata
Ġsotto scritto
var a
ccia r
Ġindipendent i
ĠMate r
Ġscie nziati
Ġesi genza
Ġg onf
Ġcrista lli
Ġr am
ĠFe sta
pa ni
A frica
e nuta
cant i
ele s
Ġ cou
ĠA prile
Ġscu lt
s cato
Ġopera tivi
cat amente
Ġsegnal azione
Ġis rael
Ġmecca nica
Ġcolle ttiva
inger e
Ġdiff usi
Ġcur va
Ġ coach
Ġspeciali tÃł
Ġinizia no
ĠBi o
sa na
ud ia
B O
Ġprovo ca
Ġcurat a
Ġ pdf
ĠU e
ĠGui do
Ġfra nchi
Ġgi unti
Ġpar chi
Ġ srl
Ġpare cchio
Ġpi zzi
Ġma cro
Ġsa lone
Ġconf usione
Ġarr edi
Ġfor nitore
avvi so
ĠFra nci
] .
Ġsere nitÃł
ĠM os
net o
Ġelettr iche
a stro
Ġga me
Ġaug uri
Ġregala r
che n
Ġsap ori
Ġvo lent
Ġmi ster
Ġdeb utto
Ġpre fi
Ġdista nze
rd ino
ĠSe n
impa sto
aut orizzazione
Ġparla mentare
Ġspeciali sti
Ġsce nari
Ġcorrispo ndente
Ġpericolo si
Ġcava lli
Ġ sorte
su s
litar e
ĠFe rra
Ġ199 5
chiar e
T h
Ġsom ministra
Ġdimostra no
Ġ contenitore
Ġcostru zioni
D ispo
Ġobbli go
ĠNat ional
Ġaccompa gnati
Sem pre
Ġinnu merevoli
Ġsele zionato
Ġ pm
Ġspunt i
Ġassi stito
nn ello
appro ccio
ð Ł
Ġeste nde
Ġcor ruzione
ĠTaran t
Ġrifer imenti
Ġri cond
Ġte ndono
Ġtenta tivi
fa n
indi ce
Ġgara ge
Ġt ela
ĠMo stra
da menti
nsi bile
Ġferma r
Pro prio
f att
Ġlu na
li azione
assi t
Ġdia metro
Ġim mu
lter iore
Ġfar ne
i pertensione
P urtroppo
Ġmorbi do
Ġfe rti
Ġpassat e
Ġpa ncia
Ġnasco sto
Ġe poca
Ġ199 4
Ġca ttivo
ĠCe sare
Ġta gliare
Ġno ci
pul so
card i
Ġ curri
Ġindi ce
Ġva do
Ġ sno
Ġo mbre
Ġho c
Ġben venuto
o tte
Ġriconosci uta
Ġblo ccato
Ġdo si
Ġpartner ship
si bile
Ġpassa no
P uoi
nzia r
Z ZA
Ġbr eak
Ġpo ker
ĠA nzi
d is
Ġann uncio
ĠS ci
Ġcol ui
l g
Ġperce pi
es pa
Ġarre stato
e ca
ĠFore x
insegna mento
Ġwee k
tr as
Ġdim ora
tr u
ĠDo wnload
Ġfal so
tu s
Ġgr ano
200 8
Ġprove nienza
Ġrifu gio
l col
gge ro
istitu zione
Ġ intesti
Ġvi gente
Ġscola stici
ft e
' '
Ġbo tte
Ġis pe
zzont e
6 9
Ġfermar e
Ġvend itore
Ġpa trimo
ssat a
fe o
Ã ±
Ġconosci uti
ĠCo st
Ġparla mentari
Ġgo od
Ġpercorre r
Ġra ggio
Ġsen z
Ġtrasfe rta
ĠI ndia
Ġespo nenti
Ġte nnis
Ġvolontaria t
Ġsignificat ivi
s ket
ĠSa vo
Ġvolontariat o
ĠLi v
Ġchi usi
ĠW est
Ġpreci samente
ĠX X
Ġcompo sit
p it
Tr e
ga mento
ĠCassa zione
Ġimpro n
ĠMa estro
zia lmente
Ġd ito
3 00
Ġdome stici
ĠA mici
Ġmonta t
Ġfu nghi
Ġ ansia
Ġinfe zioni
Ġaffe tti
Ġmolti ssimi
zzar lo
ĠCr edo
ĠSe rra
L gs
id itÃł
Ġforma ggio
Aut oritÃł
Ġbatt uta
il u
Ġbe ve
Ġappartene nza
Ġimpie go
ĠNa zioni
Ġta sca
Ġamb ula
ĠP ino
ĠFri uli
Ġdiffo ndere
Ġpi ste
ener si
ide r
Ġso fisti
F A
Ġsco pri
elt a
Ġpercorrer e
Ġdat ore
ĠA rma
Ġf urto
Ġestre mi
pert ura
utio n
nsi t
ĠL am
ce t
Ġad esi
itant e
gera t
Ġvici ne
Ġstat ale
gra fie
Ġsup porta
Ġsc uro
Ġ5 8
ĠS ER
c orti
Ġcellular i
ĠCon fi
Ġpre ved
Ġristruttura t
Ġaffrontat o
Ġina d
Ġci po
Ġserat e
Ġvert icale
Ġgiu ste
zi ne
Ġdire i
bo ard
Ġvet e
Ġpuli r
Ġbo n
Ġfir mata
Ġtur istiche
Ġprolunga t
Ġ any
Ġprofi tto
Ġsoli d
Ġvota r
e ch
lu ca
Ġoccupa no
ĠCom unque
Ġu cc
nd ustria
Ġlumino so
Ġo cchiali
Ġfoto voltai
il m
Ġadd i
i nsor
Ġ199 0
Ġcal ma
ĠMarti n
t ed
Ġ invo
ĠO ppure
a lcol
Ġe bre
ĠTre ntino
ĠCommer cio
S ic
Ġpatat e
Ġvolan t
Ġavanzat e
Ġsu bire
Ġvend uti
ĠU dine
Ġgr ade
col ore
Ġme zz
Ġtrasc orso
ĠR ad
Ce rto
Ta n
ĠN ello
Ġaspe ttiamo
ba ma
nzar e
Ġvotar e
ĠE st
Ġforma le
Ġpoli zio
Ġpotr esti
Ġne utr
r k
Ġvariant i
s chio
ven na
Ġgarant iscono
pe a
Ġscar ico
Ġcl a
t erlo
perat i
t omi
crai na
Ġabbando nare
ord e
ĠI S
ĠB y
Ġevident i
Ġattent amente
nde se
Ġpar itÃł
Ġcl au
Ġabbando nato
7 9
Ġloc o
Ġcelebra r
ĠU nder
Ġcre ano
Ġdepo sitat
Ġaggiunt ivi
t ine
ĠLe ggi
Ġ copie
Ġmest iere
Ġaffi data
tter a
ĠW ashington
Ġflu ssi
Ġconsi stenza
interpre tazione
Ġpsicolo gico
Ġoper ai
Ġis pirazione
gue ndo
ĠFa t
Ġ cover
Ġcanc ellazione
ĠT ho
7 3
ĠScar ica
Ġimpron t
ebb ene
B S
Ġreg ali
ya n
Ġj azz
ntr ano
ĠNove mbre
Ġele ganti
Ġrappresentat a
Ġ0 2
ĠVale ntino
Ġcost umi
Ġcelebrar e
Se rvi
ele mento
u lo
Ġseque nza
s ment
Ġimmobiliar i
Ġdeli cata
ncer e
D alla
Do ve
Ġtenta r
Ġb ib
Ġcol line
ĠVice nza
Ġaggiunge ndo
ut iva
Ġtanti ssimo
Ġstrate gico
p pare
or zio
Ġo ssa
ĠÃ ĥ
Ġatt uazione
Ġidr au
Ġfor nendo
el ano
ĠDat i
Ġpulir e
ttant e
ĠM ia
Ġ1 30
ĠC ano
conomic o
Ġdiso ccupazione
o pi
cord iamo
Ġven uta
att uto
Ġtim ore
Ġgua rd
Ġcomo damente
Ġrifle ssioni
Su lla
Ġinterpreta r
Ġfac ce
Ġpr elie
Ġrichiede n
ellat i
Ġrichieden t
ront a
Ġcriti citÃł
Ġcelebra t
O vviamente
Ġtra nne
Ġassicura zione
Ġpromo ssa
t el
Ġra zzi
Ġpro messa
ĠRo cca
opera t
ĠSa bato
monta r
per ia
Ġdimenti cato
ĠM eta
ĠS ing
Ġsma lti
Ġcap itato
Ġspe n
ĠGior nata
Ġdiversi tÃł
ĠS un
Ġaiutat o
Ġpron uncia
Ġdis porre
Ġage vola
Ġband iera
Ġfu sione
Ġm t
Ġmalat i
utat e
Ġim mobile
Ġpotr emo
Ġce mento
Ġrile vato
igi ene
Ġsospe so
ĠS hi
Ġarma d
ĠT im
Ġgener i
cu lum
Ġfunziona n
Ġma ster
Ġfunzionan t
c ker
ĠRe sta
ĠM ulti
Ġripart ire
montar e
8 1
par l
Ġverti ce
aut onomia
g l
Ġfil tri
p per
Ġcollabora r
ĠP eter
ga llo
ĠBa rt
Ġcorona virus
Ġim ba
Ġcollaborar e
Ġspint o
Ġte nuti
ĠMana ger
Ġ sment
ĠF OR
Ġter apie
Tan t
Ġre plica
ĠFe rro
s pri
ide ale
Ġch issÃł
ĠS che
Ġtentar e
ĠB ig
ĠBr i
Ġfunziona no
Ġopera tore
Ġb li
U t
f ord
Ġsel va
ĠSt iamo
Ġlent o
Ġinclu sa
Ġ ipert
Ġvarico sity
Ġbi od
Ġlettera r
Ġconsiderat e
Ġau mentato
Ġterr ibile
Ġca mi
nar lo
Ġomici d
ĠC AL
Ġbotti glie
Ġriso lto
a pri
Ġinterpretar e
Ġcoinv olte
Ġrat a
Ġ0 7
Ġappre ndimento
Ġregalar e
pu b
ĠA bruzzo
Ġu nit
ĠCorr iere
Ġcli ccare
it z
Ġprimi s
Ġoff riamo
Ġletterar i
Ġri chiamo
Ġri nvi
Ġchi mica
accu sa
Ġconce rne
mat ura
Ġautori zzato
Ġpa ci
ni sola
us h
st ore
Ġca tte
Ġcontribu isce
ci n
na nza
dar i
Ġsfu mature
Ġano ma
Ġ ir
ĠA ustralia
ĠK ing
il tÃł
ĠW ord
st s
Ġsic come
un try
Ġcap itoli
Ġpensi amo
Ġcommi ssario
Ġfeste ggiare
oli ni
Ġcult o
Ġbru cia
ĠG eo
Ġquotid iani
Ġdefi niti
Ġcorrent i
Ġsvilup pi
is l
nni tÃł
Ġsottopo sti
ĠB elle
Ġsonor a
p elo
ĠPi o
Ġama no
ĠBea ch
Ġst up
ĠSem bra
it aliano
Ġpopol azioni
Ġrifle tte
Ġader e
Ġ corti
Ġcerti ficati
ciar i
rma n
Ġdistru zione
Ġ cy
Ġva pore
Ġdesiderat o
Ġomicid i
ĠEnt e
Ġdive nire
ple ssi
Ġcano ne
Ġpia zze
Ġe ndo
Ce rca
l k
Ġadere n
Ġstampa n
ĠGe orge
Ġtor nata
A nd
Ġaderen t
Ġregala t
ĠT ali
U TO
Ġstampan t
o nvenzione
o ntesti
c onvenzione
Ġsa t
c ontesti
ĠPa tri
Ġferrovia ria
rc ole
mo zione
A ltro
e qui
Ġve tture
Ġfri go
e rve
ho n
ĠBa gno
Ġguada gno
ĠCol l
Ġgrad ualmente
Ġintervi sta
Ġalt erna
Ġspi cca
Ñ ĥ
A quila
ĠSo ny
Ġtast iera
stir e
ĠMa ni
Ġcal za
et ing
ĠY a
r apia
Ġlegge ndo
Ġcuo cere
ĠA lto
ili zia
o pre
Ġpre ca
C ON
ĠAlcu ne
Ġfut ura
sodi o
Que st
Ġ contesti
T o
ĠA ttraverso
inf luenza
ĠSo cial
Ġpa cco
Ġmodell a
Or gani
Ġfi liera
Ġcondan nato
stei n
ĠA ltro
Ġpre scrizione
Ġspen t
O sser
Ġpensa no
Ġinfor matica
Ġta vole
Ġazz urro
Ġsol dati
wi n
Ġcirco stante
ro cco
Ġli ke
Ġcreat i
tto li
Ġarmad i
ba n
Ġ6 6
pa n
Ġringrazia r
Ġsca tti
Ġcald e
T T
Ġno zze
Ġ9 9
ĠE S
gi or
Ġinevita bilmente
a zzar
ET TO
ĠLi bri
ĠR ES
t ese
Ġvul nera
b s
.. ...
da bile
Ġcostitu ire
sc olari
vole zza
ĠC AR
Ġriuni oni
Ġpacche tti
Ġab out
Ġspunt o
portat i
Ġscientifi che
Ġ istituto
ora mento
olon t
Ġmetab olismo
Ent e
t erve
Ġma cchie
n terlo
Ġsceglie ndo
l so
pre zzo
n terve
Ġve scovo
. âĢĿ
Ġblo ccare
ca bile
i nterve
Ġd ioce
T ipo
Ġrientra r
ici no
D ome
nea kers
ol ano
i nterlo
Ġu bi
Ġcli mati
Ġvi bra
Ġsostitu ito
Ġrientrar e
ĠB ria
ntrat i
Ġav vocati
spir a
r med
Ġaiuta rti
200 9
ĠN UO
Ġ convenzione
Ġ5 9
ĠEurope o
Ġoccupa zione
Ġautono ma
Ġacce rtat
Ġriquali ficazione
Ġnote voli
x a
ĠA ur
ĠI nizia
Ġimpie gato
i ossi
F OR
mal a
Ġcoinci d
ĠT RA
ced es
F o
c opre
ĠS po
ĠRo ssa
Ġcommer ciant
nar a
Ġlad dove
ĠSil via
Ġpercent uali
it olare
da rsi
Ġcond urre
Ġ199 3
ĠDi men
ĠC V
Ġspo t
stica mente
ffere n
Ġrestitu ire
Ã¨ s
Ġconsider azioni
do ni
a udi
Ġ11 0
li x
fferen t
E se
ĠMa gi
Ġvia le
Ġbi g
Ġesclu so
Ġre tti
Ġ9 00
s Ã¨
ĠM P
Ġtentat o
Ġla bbra
Ġamministra tive
ĠSic urezza
au l
ĠTarant o
ab o
Ġripete r
gno l
ĠD OC
Ġau mentano
Ġsci enze
ĠS cri
Ġurba na
ĠNet work
Ġpe dia
ĠRaffa ele
Ġfl a
Ġu nita
Ġvita mine
Ġtesser a
g ma
inci d
ng eli
fficient e
me tter
mu lo
Ġfor mata
ĠB as
ĠCompa gnia
Ġvaria r
ser vi
Ġsopra tutto
unt ain
Ġ interve
Ġinser ita
Ġcandi datura
Ġillu minazione
Ġaltr ui
Ġacce ssibili
Ġdevi ce
Ġriguardant e
Ġringraziar e
pi na
Ġmorbi da
Ġreligio so
i nteso
Ġargent o
Int a
inge n
Ġpresid i
Ġvariar e
Ġw el
e zioni
Ġverifi cato
Ġconclu sa
Ġdeci sivo
quirent e
Ġconfor me
Ġinv itato
ssi no
Ġfaci litare
Ġagr icole
Ġmo ssa
com uni
Ġreg olari
Ġrido tti
Ġdece nnio
Ġbi ologico
Ġinformat ivo
Ġde ma
bi mento
ĠE va
t imi
ir ne
Ġ copre
ziat o
Ġpeggi ore
Ġinde termi
Z IA
Ġabbr accia
Ġ q
Ġsolit udine
bar e
mer si
Ġpor zione
Gi o
Ġporta voce
Ġchiar ire
Ġgiu ngere
Ġ7 2
Ġquali ficato
ĠMar keting
ĠL O
Ġvariant e
Ġcasi nÃ²
Ġintegra r
Ġportafo glio
ĠE ntr
Ġrinnova bili
ut y
ĠI sa
Ġpart ono
incid e
ĠC y
ĠSic uramente
Ġliqu idi
Ġpre stare
ĠL ine
Ġriportat i
Ġso tte
Ġemo zionant
bili tazione
" :
gra nde
Ġespo ne
C OM
iterra nea
zie r
Ġsa ga
Ġma mme
Inta n
Intan t
Ġripri stino
ĠI nno
ĠB iblioteca
Intant o
ĠMar k
Ġcompre ndono
pi enza
Ġcom munity
Ġcontr appo
Ġotti ca
Ġhard ware
Ġavvent ure
âĢĿ ;
Ġconversa zione
unciat a
inve stimento
ĠDie go
Ġd ro
Ġcro cier
ĠBar bara
Ġpar zialmente
Ġscelt i
pa zione
ago n
Ġava nza
ng el
Ġspont a
Ġottimi zzare
Ġcol orati
ze ma
Ġid eato
ĠS rl
Ġn n
ea ns
ad ia
esi e
b ria
Ġstimola r
ki n
e ria
ur iamo
Ġsca tto
Ġsup portare
eta gna
Ġu se
Ġsem bre
ho p
Ġo neri
ap t
a lg
Ġmotiva t
Ġistru zione
inent i
ĠB ila
Ġperi colosa
elabora zione
ĠGr eg
Ġma gico
ĠClassi c
Ġu m
Ġambient a
ĠO N
Ġposi zionamento
ndi na
Ġinnovat iva
Ġcol li
mpi c
ĠOr e
ĠP si
Ġversa mento
Ġtrasfor mato
Ġmini stri
Ġappassio nato
Ġtalent i
Ġstimolar e
7 1
ĠQu ella
e y
chi ng
Ġpart o
Ġ ira
mo lo
Ġwork shop
Ġcanc ellare
Ġripeter e
Ġspie gazione
Ġgent ili
Ġcirco stanza
u lteriore
Ġappa iono
ĠMedi o
Ġdesk top
Ġma fia
Ġcopert a
Ġanda va
6 1
Ġmu sul
Ġsca mbi
Ġre f
ĠPro du
Ġconfli tti
ĠHotel s
ndo mi
Ġ incu
Ġdeci na
ĠT UT
is mi
Ġface book
Ġm uri
ic s
Ġfaci lita
Ġimmi grati
g uarda
Ġfor nita
Ġprefer ite
ĠE c
Ġaccu sa
ĠCat e
Ġvolent ieri
ĠC R
Ġu sar
uni one
aut unno
ĠLu cca
Ġintegrar e
incar ico
Ġto uch
Ġfor m
pli menti
Ġprof umi
Ġconsult azione
Ġre ndi
Ġsalva guardia
Ġtracciat o
r it
ĠCom plet
Ġdis pe
Ġamministra tore
Ġ0 5
Ġsviluppa tori
Ġra zza
Ġtras mette
E si
err ore
w eb
Ġgi gante
ni menti
Ġpre vale
ner anno
Ġfil tro
idra t
ĠS p
Ġdiventat i
Ġdire tte
Ġcondu ttore
Ġreside nziale
V uoi
i venne
Ġgest ore
U RA
Ġcapi sco
inv ito
P l
Ġfal si
Ġartigia nale
Ġindivid ua
Ġlim itro
7 4
I sola
ĠCa nale
Ġadd e
Ġconsent irÃł
Ġcalcia tore
h or
Ġmae stri
Ġnegat iva
i gnor
ĠS ia
Ġra mi
Ġ ale
Ġada tte
Ġrad icale
Ġgiur ia
Ġdispo sti
Ġpreci se
ĠA lta
ĠB orsa
Ġsf r
M ed
Ġespressa mente
M olti
vie w
Ð ²
Ġthe r
Ġsen sore
cat ive
incide n
Ġri vedere
Ġaug uro
Ġla st
Ġtermi na
Ġaggi r
Ġ albero
Ġdr iver
Ġde nsi
tti ng
tra ggio
Ġd ivenne
inciden t
ĠT ab
scr ivere
Ġpe pe
ĠO scar
Ġ apri
t ing
Ġe brai
e rmed
Ġ !!!
Ġsufficient i
t ermed
o oth
F I
aut rice
Ġquali fica
ili tÃł
Ġ intesa
it oriali
Ġclicca ndo
Ġgro ssi
Ġcompletat o
s ha
Ġmi se
Ġcar enza
Ġindivid uo
n termed
Ġchi use
Ġ8 5
Ġsim ul
o f
Ġgu stare
t ooth
Ġbr i
ffe t
Ġris ve
ĠVar ese
ĠMe n
AN I
Ġelettrodome stici
Ġiscri zioni
Ġaumenta ndo
Ġnuclear e
TO R
Ġmolti pli
ĠSa nitÃł
ĠD ub
ni ni
Ġindivid uato
Ġsosta nziale
ĠDis ney
Ġbaga gli
Ġquindi ci
ĠG h
Ġopera n
o ali
ort h
Ġesegu ita
Ġ asia
Ġing a
Ġpa della
Ġcoltiva zione
ĠM aio
ĠSette mbre
Ġaccu se
Ġoperan t
Ġcrimi nali
ĠRe ce
Ġsoddisf atti
Ġanni versario
Ġaccumula t
iamma zione
Ġsa rei
Ġre sidente
Ġemer gere
av ori
ĠS el
ĠO riente
Ġcente r
ĠAt l
Sa bato
Ġcom media
Ġrile vare
ĠVa ngelo
c oali
acco n
ĠSer a
Ġfle ssibile
AN A
Ġdimi ssioni
H z
B C
Ġmar mo
Ġmed iche
ĠGiu gno
6 2
M W
!!!! !!!!
Ġstabili mento
ĠGiusti zia
Ġsa pete
Ġmolti ssimo
Ġmana gement
o cchi
n timi
ĠTomma so
Ã Ģ
ĠFa rma
Ġlavora tivo
Ġ cd
Ġcono sciamo
Ġe vo
Ġle s
ccide n
a ga
Ġdel inea
ie nnio
Ġricev uta
ĠF iera
i ntermed
ĠC iao
gu l
Ġu nire
Ġfotogra fico
ordina nza
Ġprodu ttivitÃł
ĠSe conda
Ġorient amento
Ġval utato
Ġatt ive
Ġinv iata
Ġagi sce
Ġseque stro
Ġing lesi
ido i
mo na
cciden t
es h
Ġsatellit a
pert a
ĠC ic
Ġsatellita r
Ġb lue
Ġsinda ci
ĠV iene
c que
fo nde
gra zie
se a
Ġtramont o
pia no
el ing
Ġspunt a
ĠS ua
olat i
Ġroman zi
Ġseconda ria
gica mente
Ġna zi
Ġoperat o
t ime
present a
Ġintro durre
Ġcontinue rÃł
Ġam pi
6 3
Ġ inteso
Ġfer ite
Ġfare mo
Ġconfer enze
Ġguarda ndo
n tile
Ġrit mi
Ġpie ni
Ut e
ĠSa lone
ĠTur ismo
Ġo sti
ol tre
accon t
Ġce ntra
Ġge nitore
sa ni
Ġsegnalat o
Ġdo na
Alcu ni
g iamo
ma na
A ve
ven ute
Ġma gne
Ġdo ttr
Ġed itoriale
bur go
so ne
Ġdivent erÃł
ĠH arr
sti n
ude r
ĠLi fe
Ġrallent a
Ġsugger isce
Ġdo ppie
Ute n
C IA
Ġsalta r
Uten t
h ttps
Ġprimari o
ĠS ve
ma ne
ac ker
ĠBuo n
Ġprovo care
AR A
Ġdemocra tico
Ġfedel e
ĠCon fe
Ġfe gato
ĠA nni
Ġcas ella
Ġprefer isce
Ġwhi ch
Ġ coali
T TA
Ġcolle gare
Ġmisc ela
ĠP ur
Ġsche mi
Ġfotogra fo
ĠMessi c
perie nce
Ġdese rto
ph p
ĠMessic o
Ġma fi
ci rca
Ġaccompa gnata
ie tÃł
ĠFon t
cidi o
Ġsi nc
Ġfu ll
Ġdome stico
ĠAr e
Ġve stito
i ssi
Ġvig ilanza
Ġsala r
Ġcapol avoro
Ġci m
Ġfamo se
Ġno le
Ġdescr ivere
Ġna scere
S enza
M ilano
a mati
Ġtelef onica
Ġvotat o
Ġgrande zza
rte zza
Ġpropa ga
ĠL I
ĠMana gement
Ġsorpre ndente
Ġge r
Ġac cre
na m
Ġvaria zione
Ġlat ino
Ġgue rre
mi nate
Ġoppo sizione
Ġ ).
ĠS ali
et amente
Ġordi nato
Ġda y
Ġfume tti
Ġtra sci
Ġcompli cato
Ġlat erale
Ġintendo no
Ġconsent endo
Ġorgani smi
Ġsfru ttando
Ġsuo nare
Ġportat i
Ġm orta
Ġguada gna
I t
Ġaggiu ngono
Ġver bale
ba st
ot ola
Ġcor ro
Ġrice zione
nde nza
Ġsc ude
W h
Ġquart ieri
Ġspa l
Ġga y
per iamo
Ġripre so
a mata
ĠN ote
ol li
Ġsal do
Ġad ia
Ġprogr esso
Ġindi ci
Ġmonu menti
ci r
Ġri comi
Ġpersonali zzati
Ġvi genti
ac que
ando si
Ġcriteri o
Ġser eno
n elle
ĠPa squ
va zioni
Ġpr assi
Ġincen tiva
Ġinteressat a
ie d
rma i
pid e
Ġcrea tiva
ĠGalle ria
Ġandat e
ĠM ade
Ġmesc ola
ĠU omini
Ġmar ina
Ġspeciali sta
enne sima
Ġnon na
ĠInsi eme
cciar e
ffe rte
ĠRi ch
ĠLa ur
Ġd iste
ssa ggio
Ġesclude r
alg orit
ĠY o
CI ETA
gio nali
Ġpuntat e
Ġf itness
Ġsi gare
Ġcomple sse
Ġstrada li
Mo n
un ce
Ġdivi sa
cra t
ĠLe one
Ġsed ie
c cate
ĠDo na
Ġabbondant e
pre se
ĠGi ud
ma nn
Ġcommi ssioni
Ġcompet iti
Ġfinali zzato
Ġelett ori
ĠLucia no
Ġpa g
Ġcom pare
Ġtu mori
ĠF ut
ĠMaggi ore
ĠI nghilterra
Ġdov rete
n vid
s d
Ġfront ale
rtar e
f ore
Ġra me
ĠF ort
opera tore
ĠConfer enza
Ġraccont ano
Ġte s
Ġdocumentari o
4 00
ver anno
Ġspetta tore
Ġma ppe
Ġspera r
Ġorganizzat ori
Ġinve stito
Ġsta volta
Ġchiar i
Ġescluder e
Ġrinno vato
Ġstru tturali
ĠB rea
o ple
ĠE mma
Ġstudio si
le rÃł
ĠEnt i
orant e
Ġespa nsione
Ġ ndr
gnol a
ĠA V
mol a
ssant a
ut ivo
liar itÃł
Ġriportat e
VI D
cia zioni
Ġtele camere
Ġgiudizia ria
ibi ot
Ġsa cro
zze rÃł
Ġde bu
Ġnot ifica
Ġdesti nate
ĠT ha
Ġinfor matici
ĠU nit
Ġfl ash
Ġsperar e
Ġ pelo
Pu bbli
ĠItalia ni
ĠDe r
ĠI stituto
ĠA bb
Ġperfe tti
mul azione
argent o
Ġautori zzazione
Ġvaria bili
Ġri sta
Ġcro nica
Ġspo nsor
Ġrive stimento
Ġst ro
t oller
Ġcatto lica
Ġdo nazione
Ġ squa
ĠQ uale
Ġvi sio
Ġserv ito
abb ia
zzat ura
Ġdele ga
Ġrifor me
Ġpate n
Ġprodu ttive
nd itori
ĠCo s
ĠArch ite
incident e
Ġcondivi sa
Ġba sterÃł
nu x
gra fi
Ġ ipertensione
Ġex tr
B i
Ġveget ali
Ġcort ile
Ġabbr accio
Ġsper iamo
attr ice
ĠIr a
r g
ĠDe tta
se gr
Ġintit olato
i su
Ġdivertent i
Ġforza t
i nvid
Ġdiffere nzia
Ġcir colo
Ġmolti ssime
Ġquali ficazione
200 3
Ġtelevi siva
Ġcolloqui o
Ġgenerat o
Ġleg alitÃł
Ġstr ap
MEN TO
Ġlo d
Ġmi ser
Ġpsi chia
po le
Ġassicurat o
C li
Ġscri ttori
Ġg ola
Ġl iti
N u
giat a
Ġcal cola
ee k
ĠE ffe
Ġfebb r
M B
i stant
Ġsta y
ĠS uo
li cata
Ġsi gnore
t ele
6 00
ĠAl do
Ġportat ile
n tine
a nca
ĠSil vio
Ġre cita
Ġforni scono
ĠO S
Ġsaltar e
ĠDar i
Ġprenota t
Ġinda gine
Ġcogno me
Ġno bile
Ġribad ito
appre ndimento
ici tÃł
Ġpi ene
ĠSe zione
ĠBr etagna
Ġcom pr
OR I
ĠFar e
Ġ agente
r est
p ha
ĠCa rr
Ġ sw
Ġfacciat a
Ġcer amica
Ġcoerent e
T V
Ġblo cchi
Ñ ı
Ġso d
Ġpar assit
Ġ3 50
p se
Ġtras messo
rte r
Ġpreci si
Ġtipi che
ĠD uomo
ĠJ ean
im med
ome no
Ġbim bo
Ġprezio sa
Ġconvint i
Ġaccompa gnare
Ġda p
ĠE UR
Ġcompe nso
m it
Utent e
menta lmente
2 000
Ġdiff use
l ga
ĠCr istina
Ġbl ack
Ġsessu ali
Ġri pi
mor roidi
c oa
Ġcu ff
ĠU mbria
Ġadeg uat
ĠS et
Ġpale sti
ĠGa lli
Ġri va
d ori
uti ful
n nata
ĠC le
Ġvirt uali
Ġconsiglia bile
Ġpro fonde
Ġv ele
s veglia
Ġpaten t
ori ginale
Ġorigi nario
Ġv s
Ġproie zione
Ġmar gini
Ġsa pre
Ġsta ndo
Ġim par
Ġ Î
Ġam messo
B ook
or ita
Ġprodu cono
ĠRe ali
Ġvo cazione
ĠI ng
Ġrestitu zione
Ġstrat i
Ġsent ir
ĠWa t
Ġ anteprima
Ġ sÃ¨
Ġcam mina
k r
Ġna scono
Ġsaper ne
Ġtutt ora
g lo
Ġartigia ni
zzi ni
Ġspont ane
Ġva lere
Ġnegat ive
nco na
fi ce
Ġriduce ndo
Ġtel aio
Ġru brica
pro t
e go
Ġbar ba
nesi mo
ch o
Ġadeg uate
ĠL im
Ġconvi ene
t inente
Ġded icare
Ġ6 2
bilit y
Ġallon tana
Ġd istante
Ġspera nze
Ġri sent
Ġpneu matici
ĠSen t
Ġt att
Ġre per
Ġemer so
Ġchied iamo
Ġpreci pita
Ġosser vato
c el
D r
ro sso
Ġstat us
ic ket
Ir a
ĠOtto bre
ĠGa zzetta
Ġagri cola
Ġconce ssio
rosi s
bic o
Ġpre ndersi
Ġro mani
Ġpu ll
n tinente
ĠC ai
ĠPremi um
Pa l
Ġcontradd isti
mi ssioni
vr e
ĠFo od
Ġcomplet amento
Ġim pi
Ġtes oro
o ntinente
ĠUm berto
Ġaspetta no
sini stra
sio nali
Ġca rd
attiva zione
itr a
Ġprima rie
Ġvigi li
pro pr
Ġaci d
ĠG ine
Ġtro ppe
Ġsoli do
le tto
ingen t
a sti
Ġtr ader
ova l
Ġcontr attuale
Dome nica
Ġlo gico
A h
Ġo gge
ĠA ppe
Ġsfru ttamento
Ġmi lita
Ġse sto
f ora
Ġcol onne
Ġca sta
aggi unta
Ġsent ieri
Ġconsi stente
ĠC atto
ĠDig ital
Ġsegnal azioni
sc olo
ĠGiu liano
Ca mera
ĠP om
ĠAr chi
Ġback up
CH I
Ġritor nare
parl a
ya l
inqu inamento
Gi Ãł
Ġsta nche
Ġsacr ificio
Ġdecora zioni
ĠVe rdi
sco vi
ĠP il
Ġaggior nare
Ġdeli cate
e dono
Ġvete r
olar itÃł
Ġdir lo
Ġmonit or
nor e
Ġdistribu ito
F u
c ontinente
ab ia
Ġlavora tivi
tte ro
Ġlega mi
C rea
Ġsed ute
Ġliber e
cciat a
Ġsc ru
ĠVatica no
Ġlarghe zza
ĠS ur
ad ino
ĠNessu no
Ġtrai ler
e nzioni
sca no
Ġcook ies
k es
ĠBa nk
G ia
Ġsed ia
d etta
Ġ sveglia
Ġremot o
Ġimpo sto
ur s
: .
osa mente
Ġfr att
S car
assi curazione
Ġtrasfer ire
ĠKa t
iat ori
Ġta t
Ġsovr appo
ĠTrevi so
f atto
arr edo
l gs
t enzioni
Ġcondo minio
ĠTer esa
n tenzioni
Gr a
9 00
Ġtrova va
Ġindetermi nato
Ġavanzat o
t ibiot
ĠA ltre
Ġr avvi
alta r
ĠCo nser
Ġstabili sce
Ġconfronta r
ĠDan t
n tibiot
ng olo
Ġ199 1
Ġmeravi glia
Ġsen sori
ĠS or
Ġfar vi
Ġdiva ni
Ġcal colare
bi ne
Ġen titÃł
uni or
Ġcomprat o
gia ni
OR A
Ġripo sare
vide r
ĠLiv orno
vi s
Ġvinc oli
ica l
Ġmel od
Ġfemmini li
Ġspo stare
Ġpa ge
Ġ14 0
Ġsa nzione
Ġsa nci
fer i
âĢĿ ).
eli o
a ntibiot
ĠCali fornia
Ġb it
Ġambienta t
Ġcosidd etti
colat i
da na
Ġrinf orza
ĠLa ure
s App
asc olto
Ġcal ce
i ntenzioni
cer i
Ġrila ncio
Ġappo sito
ĠC up
Ġba cino
alla rme
ĠLi nk
n toller
Ġdo sa
ĠB oni
Ġ plus
ĠCal a
zie nde
h ai
Ġdefi cit
e am
Ġcompo sti
Ġbatt uto
i ntoller
Ġav vocato
Ġdovr emmo
Ġpersonali zzare
ccident e
ĠCr emo
Ġinsegnant e
i ur
Ġvisuali zzazione
Ġpratica r
e ccellenza
Ġh ttps
gli oni
ĠF is
Ġcald i
Ġpi g
Ġpecu liaritÃł
ĠRi o
Ġraddo ppia
Ġresi stenti
ĠA ttualmente
Ġfr eschi
ĠN orma
Ġgiudizia r
Ġcl am
Ġab ito
Ġoppo sto
Ġam messi
im pressione
va na
Ġvisitat o
uo sa
Ġdeci se
pera tore
Ġstruttura le
Ġte mpio
ĠCo nve
ngi orno
Ġquadrat i
Ġ intenzioni
Ġo vest
cchi ni
tte rÃł
Ġdecora zione
Ġcele brazione
Ġalter a
ĠNove cento
Ġverifi che
qu attro
Ġacqui sito
fa nia
Ġsent ono
Ġge nu
onor e
epi sodio
nera t
be rta
Ġcamb iano
c ock
su le
ĠE nzo
ĠT av
Ġgiudiziar i
i phone
ĠPi n
Ġele ganza
ĠR ina
Ġno stal
ĠM E
Ġintervi ste
ĠA ca
ia nitÃł
Ġtratta tiva
Ġterrori smo
Ġpr im
Ġsalar i
Ġb ili
Ġgarant ita
ĠMer cedes
nk o
A uto
indi cazione
Ġgo nfi
del i
ĠS pero
pt o
Ġae ree
Ġcomplessi vamente
da nno
Ġprec oce
ttant i
Ġtor nerÃł
fr i
Ñ ĭ
U A
F e
ga me
Com unque
Ġma ne
Ġespre ssioni
Ġpraticar e
Ġva si
ĠL ight
Ġfir me
Ġrico verat
Ġ interva
Ġsu be
Ġarre damento
Ġpubbli cate
Ġscr iva
Ġbarr iere
all ora
col tori
Ġmetab oli
Ġu nite
gna n
R ispo
ĠDi fe
ut iamo
amici zia
zza bile
Ġpe t
ete rmi
Ġrassi cura
Ġliev ito
Ñ Į
Ġlegi sl
stra tura
Ġrig ua
Ġrichia ma
r venuti
tra r
e rvenuti
t ervenuti
ĠAng eles
n tervenuti
am ministratore
i ntervenuti
col l
Ġtras lo
Ġbisco tti
Ġba nale
Ġvarico se
Ġru ssa
be tta
Ġmedie vale
Ġmodifi cata
Ġinse tti
ĠGio chi
ĠDari o
po sta
Ġgo cce
Ġsa lotto
Ġrepert orio
A mbiente
Ġ intervenuti
Ġver sare
me ndo
Ġconfrontar e
odi o
Ġcentro destra
Ġotte nendo
zz ola
ccelle n
Ġgiurid ico
pient e
cera t
ĠNatura lmente
Ġ16 0
ĠS up
GG I
ccellen t
Ġresi stere
Ġor gano
ĠX VI
ĠI SO
Ġprodu ttiva
Ġdesider ano
Ġfavori sce
Ġ ita
Ġr ele
Ġe ttari
Ġcoma ndi
Ġfastidi o
Ġvinci t
Sco pri
Ġsignificat ive
Ġindimentica bile
ĠA lt
Ġasc olt
ĠM olte
ĠCa rd
Ġappare cchia
ĠO bama
Ġas sur
Ġride r
Ġguar i
Ġinqu ina
t erra
Ġaddo mi
Ġ atmosfera
ĠI mpo
nciat a
ĠCa pa
ss orato
S it
Ġinizia li
Ġchirur gico
Ġcol pire
ste d
Ġriser vati
ĠRa venna
Ġprovi ene
ĠAng ela
vi r
Ġopera tive
ga zine
ndi ni
Ġbi ologica
i stanti
ĠCon tinua
illo le
ĠDo bbiamo
individ uo
ca pelli
Ġvege tale
ĠGian luca
Ġe very
Ġt ampo
uo si
Ġnego zia
yr ight
Ġcollabora t
Ġw hat
r m
w een
ndat i
Ġpreoccupa zioni
Ġgiornalier a
Ġsuo na
Ġfar mi
Ġoccu pato
Ġinclu se
ĠPoli tiche
Ġden unciato
Ġattivat o
ĠTe mpo
Ġentu sia
Ġpavi menti
Ġchi li
ĠServi ce
Ġcorr idoi
f azione
itur ismo
Ġnews letter
ĠGe nnaio
ca st
Ġdiminu ire
Ġregola t
Ġsemi fi
Ġpresi ed
o b
Ġsospe tto
O n
ud ie
Ġ6 8
gli mento
Ġmeridi onale
Ġdott or
Ġ agoni
Ġesemplar i
ga strono
Ġgover na
Ġ arco
Ġinerent i
Ġgra fici
ĠSch ool
Ġconve nienti
Ġscio pero
Ġ isolamento
ĠT v
par azioni
ad ina
Ġle d
Ġsolit i
aci do
Ġma ndor
nde ria
Ġrisca tto
Ġdisa gi
Ġpossed e
ĠC ort
Ġuni forme
gul a
Ġser vita
ĠLu glio
t iossi
Ġpelle gr
Ġ6 3
Ġimped isce
i cola
Ġtelevi sivo
n tiossi
Ġconne sso
Ġoccide ntali
ĠPe nsa
ĠF orte
Ġtranqu illi
E st
Ġinser ite
a ntiossi
ifi care
IC I
Ġresta ndo
ĠLa t
h ttp
ĠD ieta
Ġsar a
e rba
Ġarti stiche
Ġval ute
ĠV ediamo
Ġma ndare
c onde
Ġnavi gare
yo ut
uti le
ĠU p
Ġcost ume
P arte
Ġattre zzata
quant o
Ġpresid enza
qu ando
Ġboni fico
Ġsotto stante
esid enza
Ġes ord
ch ond
Ġcro ss
ĠA dd
Ġder by
Ġaggiung ete
Ġte nsioni
Ġrite ngo
Ġri pensa
Ġaggi udica
i cata
Ġeste nsione
Ġlasc iati
Ġta g
ugura zione
Ġconse cut
Ġlat erali
Ġsoste ngono
Ġino ltra
rr anno
Ġinqu adra
Ġcriti ci
ĠBasi licata
Ġw ell
Ġpasti cce
Ġci otola
Ġportat e
Ġcer chiamo
Ġsce no
sita r
Ġaccu sato
ĠV ito
illa t
Ġba ller
Ġmusi che
ĠCampio nato
Ġstra na
Ġang oli
d ito
gge n
c car
li smo
nciat o
indi si
cca bile
ĠB et
Ġindi cano
Ġspa venta
ber azione
Ġpe s
Ġsposta menti
Ġperd uto
k ia
I d
ke y
ĠF lo
Ġeccellent i
Ġillu mina
Ġsca ndalo
Ġmult ina
ĠAssi stenza
Ġinflue nzat
st ite
Ġpochi ssimo
ĠRic ci
ĠCor po
Ġt ie
f oro
ĠMant ova
Ġpro messe
Ġth ro
H I
Ġfer iti
Ġintegra tori
Ġri em
Ġ continente
ĠE ner
Ġmo use
e w
ssat e
ngen t
u is
om b
Ġterra zzo
Ġdovr esti
Ġgr eat
Ġcentroca mpi
ĠP U
Ġesegu iti
D S
Ġm ele
Ġinser isce
Ġassociat a
Ġpa li
bi n
Ġcu ori
Ġrite nuta
Ġcollabora zioni
ĠD ei
Ġester i
Ġcomp ilare
t agio
ĠVi rt
y d
Ġsu sse
Ġ amati
âĢ¦ )
Ġav versario
Ġrica vi
Ġproce ssore
Ġmeda glia
Ġper do
Ġconse gnare
Ġzucche r
gher ita
Ġlegger ezza
ĠR un
Ġnasco ndere
Ġpi ttori
Ġsupera mento
lt urali
Ġlegger i
Ġcentime tri
Ġpre gio
nd ria
a lso
Ġro utine
mi smo
v y
Ġfa m
Ġor r
Ġattac ca
Ġro se
Ġformat ivi
Ġvenne ro
Ġlo ng
ĠLib ia
ĠPolo nia
t ail
Ġ antiossi
rma le
pu bbli
ĠPro gramma
v Ã²
ĠT oro
c fr
Ġo pa
Ġsor veglianza
Ġabit uati
Ġ sla
e ci
ĠBel gio
u sta
n tagio
nere mo
Ġ alba
ĠDice mbre
eli minazione
ĠN iente
ĠL EG
Ġcurri culum
ĠC att
rt h
sc Ã¬
Ġ6 7
Ġri fa
ca o
r le
ande se
? "
p ello
Ġv olare
zo na
ĠPrima vera
ĠC OR
chond rosis
ĠAc qua
Ġcar ichi
Ġalle gato
Ġ antro
ĠA rea
Ġcampio nati
Ġarmo nia
Ġcu l
ĠFor mula
Ġricostru ire
emo zione
Ġpri gioni
Ġsperi mentale
Ġdram ma
ĠPa rti
Ġpe ro
Ġiscr iversi
l pini
Ġd uri
Ġt orrent
ĠTr attamento
Ġricorda no
Ġsped izioni
Ġsposta mento
Ġsta sera
ĠB arr
Ġreligio se
esc lu
ĠE ntrate
ĠT ok
Ġaff ianca
Ġdipint i
ĠC gil
Ġsovr a
Ġinver nali
llat a
ĠL U
Ġacqui stati
Ġvice versa
Ġprove ngono
Ġetiche tte
Ġmensi li
Ġb et
dem y
Ġe sito
ĠA nima
ad eg
Ġindi cazione
Ġb ot
ste mi
otti mo
c ela
eno rme
Ġsinda cato
Ġindispensa bili
Ġspeci fi
ĠVi nci
ĠI M
Ġprovo cato
r agire
ssi ni
e ragire
Ġavver rÃł
t eragire
n teragire
Ġbr utto
irl a
ĠA ge
i nteragire
me tto
Ġpart ic
o ntagio
c ontagio
ni no
Ġalla rme
Ġaffida bilitÃł
ssi e
ĠA ffi
alle natore
interessa t
Ġpiano forte
Ġconce zione
Ġsvilup pata
î ¥
a bilitat
ru sale
arr esto
ĠRes ort
ĠPot ete
All ora
ĠS har
Ġ istant
e nda
Ġne tta
! "
Ġd isu
Ġso me
i ner
Ġreg olazione
Ġe po
Ġd ila
Cr edo
ĠOffi ce
ĠC AM
ttiva n
ca ni
ĠD unque
Ġincre mentare
ĠC ru
ttivan t
Ġdeno minazione
200 6
Ġatt ese
vi glie
cit amente
Ġ also
lud e
del a
Ġosserva zioni
Ġave ssi
Ġadeguat amente
Ġdispia ce
ĠBol zano
ĠSce gli
ĠV ic
olo so
icor dia
ĠFon tana
Ġbenefi ciari
Ġpa ure
Ġbila ncia
Ġrima rrÃł
n chio
Ġpu glie
ĠM adre
n vent
Ġ ola
Ġapparte ngono
Ġstat ali
Ġebre i
Ġvint age
all u
Ġd iur
illu minazione
ccellent e
ge ne
altar e
ĠDant e
t endere
ĠLi st
Ã© r
ĠC ho
Ġpsicolo gia
etiche tta
trar e
Ġdiso ccu
Ġimprovvi samente
Ġw oolrich
st y
. ;
Ġvigi lia
Ġsegu iti
ĠT ipo
ĠCore a
colat e
s he
m ware
une dÃ¬
vi na
ĠSa rebbe
Ġcarb urante
Ġraggi u
nia no
Ġpatro cinio
ĠPa ce
ĠC ur
for m
Ġca os
bbia mente
fte r
Ġod i
nder anno
ĠGara n
ĠI e
ĠRi cor
gna l
ĠCa rne
rde r
a mante
Ġth r
is cipli
Ġcompa gna
âĢ¦ ..
Ġpresente rÃł
Ġrica mbio
t ui
Ġverd ura
si n
Ġrespi n
aders hip
Ġaffida bili
Ġtrover Ãł
ĠSpe ciali
Ġedili zia
Ġvalid i
cit e
o nno
Ġmodu l
op pia
iant i
Ġ abilitat
ĠFra nk
Ġor ologi
ni sta
Ġno d
Ġespo ste
ĠWi n
Ġd issi
Ġsegrete ria
Ġdeca d
Ġvisuali zzato
c occo
ĠTra ns
H e
ĠF ebb
Ġore cchie
ĠL ing
ĠC C
Ġpromo zionale
atti vi
Na t
C onc
Ġutili tÃł
Ġre c
t le
menta ndo
ĠW ish
Ġcro llo
ĠA g
col lo
ĠF ormazione
Ġrespin t
Ġdipint o
Ġinse gu
Ġdensi tÃł
Ġcarb onio
Ġincol l
ĠC ele
Ġsape va
r iori
Ġinde sider
vie r
Ġ interagire
im m
Ġgiuris prudenza
Ġentr y
Ġsi ncer
pla t
ĠB elli
Ġrilasc iata
ĠR ie
pid i
Ġ interlo
Ġcondo tte
Ġwe r
Ġfrui zione
ĠNu mero
Ġgro ssa
Ġauten tica
n tendere
Ġ iphone
Ġconc orsi
ĠS ap
Ġtransi zione
att uazione
Ġmedia zione
es ordio
ĠK u
Ġ pila
Ġv el
e u
Ġminor anza
Ġmusici sta
pende nza
Ġag ro
e riori
ĠO d
E stratto
Ġspia ce
ĠX box
Ġconfer mata
ĠVir gi
Ġbu ffet
Ġedu cativo
Ġb ur
Ġ !!
Ġtermi nato
stit ute
Ġsette ntri
Ġug ualmente
Ġimb alla
ĠAu gu
Stat i
ĠCol ore
Po tr
Ġdomina n
Ġacce rtamenti
ĠTho mas
Ġcollo ca
G uarda
Ġsi nergia
BI LE
ĠM ora
Ġinfor mato
Ġespl ora
Ġora mai
Ġdominan t
Ġdisc ute
Ġognu na
nat ive
ĠS qu
sso n
Ġillu strato
Ġcer chio
cu e
Ġecce zionali
p uri
ĠM ur
I mma
Ġu nito
Ġgia ll
Ġ intermed
Ġuniversitari o
ccant e
ĠU K
ĠPro dotti
Ġpa nde
Ġ agio
Ġliber azione
Ġ1 01
I e
Ġemer genti
Ġindi catori
Ġdidatti c
S cu
Ġdidattic o
Ġordi nario
Ġvi viamo
pe s
ĠD ell
C u
I nc
ami che
Ġim plica
Ġv ill
ure s
r fer
gua rdi
Ġvisi vo
Ġba by
o us
ĠSe bast
fi cio
Ġsta vano
Ġrita rdi
v iti
ĠR A
Ġlu po
ĠMarc ello
Ġcompo ngono
eli n
Ġsopravvi vere
ĠC hat
Ġsta mpo
s bo
Ġro ccia
itari o
Ġpizzi c
ĠA ttivitÃł
Ġcol piti
Ġcucchiai o
ĠFe r
Pu Ã²
Ġaggiunt ivo
Ġproge ttare
ĠE ssa
ince ndio
Ġporta mento
Ġcontatta rci
Ġquant ita
o ia
Ġbron zo
sa ro
n tui
om ia
ĠMich ela
Ġlacr ime
Ġinse gnare
urt i
Ġallo ggi
Ġautori zzati
Ġcomune mente
Ġcoopera tiva
mpic o
Ġgeo grafica
Ġac cen
ilat i
t eriori
Ġpi emon
tr azione
c onno
ĠCa rdi
ĠP R
rl anda
ĠCat eg
n teriori
ĠB ab
Ġavr emmo
cci t
it s
verd e
Ġincen tivi
Ġseg mento
da ndo
Ġorgani c
ĠNessu n
Ġgirat o
ĠF ini
e rfer
t enuta
ĠMo da
Ġ contagio
Ġdiscu ssioni
col Ã²
ĠGr illo
âĢĿ ),
ssol a
Ġ' '
li sta
S pa
Ġscientifi ci
Ġconsegu ito
Ġtrova rsi
y t
i ntui
Ġvissut a
Ġe men
Ġau l
gr aph
Ġther e
t erfer
Ġcompro messo
Ġmat uritÃł
Ġcar icare
n terfer
TO RI
Ġattr ib
ĠJo h
pe i
utar i
ĠAnt oni
ed d
F ino
tene o
ĠRi stora
ĠAlessa ndra
Ġmo ndi
Ġadeg uati
Ã¼ r
P C
Ġca bina
P ON
Ġbatt ute
Ġasse ssore
i nterfer
Ġsmalti mento
intelli genza
Do wnload
ciat a
O ro
Ġriu scendo
lla zione
Ġta sche
ĠB ill
sci mento
ĠB ir
Ġinser zioni
Ca l
Ġdo nare
sura t
Ġaggior nata
Ġcrea zioni
Fr ance
Ġtelef onico
ĠPar is
le i
ite ro
na bile
Ġaul a
Ġturisti ci
Ġwer e
Ġlumino sa
ĠGe stione
Ġconfronta rsi
Ġarrivat e
bi ca
nne s
cari o
ĠA G
Ġattiva mente
ali smo
nsi e
Ġrici cla
Ġvi r
Ġviva ce
Ġbr ac
Ġelabora zione
Ġ antibiot
Ġguari gione
Ġadu lto
Ġ6 9
ĠC F
av vento
vere mo
Ġcarr ello
Ġaddo sso
Ġdetermi nante
Ġ smi
Ġ conno
ffar i
Ġfarma ce
Ġh igh
Ġpro li
Ġcreat e
s ga
ĠMuse um
uti che
Ġre vi
Ġabb o
Ġapprofondi menti
Ġsca ttare
si e
ĠH igh
nat ivi
Ġpotr ei
Ġcoincid e
Ġterre stre
Ġ198 9
Ġdiminu isce
Ġappli cate
Ġil lim
th ing
Ġstraordi narie
hi n
sti bile
Ġsovr ani
ĠC I
Ġpe nna
o ncom
Ġt ir
ur ito
ĠSho w
ben t
Ġcalcia tori
be rtÃł
idrat i
ĠD y
spe tta
Ġo vvio
lu sso
g ali
rni ng
Ġincontr ano
Ġtestimo ni
Ġblo gger
c oncom
Ġcort esia
Ġdina mico
Ġsuici d
I nve
Ġrisi ede
gli sh
Ġalle namenti
au lt
Ã¨ r
Ġfa shi
Ġinclude r
ĠPe nso
Ġrad ice
ĠS m
Ġprovvede r
or iamo
Ġmedici nali
pi ng
Ġlegisl azione
Ġcoer enza
Ġlava ggio
Ġma gica
ĠDE I
Ġmi liar
Ġchi mici
Ġappare cchi
Ġstru mentali
Ġsu ite
Ġper ch
Ġlice o
ĠG T
i ntima
Ġpia str
ĠMa ssimi
Ġh elp
ĠP alla
Ġ concom
i gno
Ġpreli minare
iam mat
Ġappro vazione
Ġrig orosamente
Ġvolant e
ĠP avia
Ġac cide
Ġner azz
Ġcoma ndante
Ġdistingue r
alter nativa
Ġrisu lte
Ġcoali zione
stora le
n tini
Ġincluder e
Ġsta gionale
Ġristora zione
Ġba sket
Ġstre tti
Ġgratu ite
Ġavve rte
ci mento
Ġfisica mente
Ġsa rete
Ġca mer
Ġmed itazione
ĠResponsa bile
Ġasse gnati
b ene
ĠSegr etario
ĠD IS
ĠFili ppi
Ġpizzic o
Ġritro vato
iet o
Ġk now
Ġve tta
Ġabb onamento
Ġdistinguer e
Ġmo sse
Ġmi nu
Ġe u
Ġsal vata
ĠLu ce
Ð ¼
TA N
Ġ8 1
ĠT es
Ġpa ck
tti ci
Ġintelli genza
T ale
ĠH ua
Ġpio gge
T RE
Ġpo esie
ĠT itolare
ag one
Ie r
Ġri nfr
Ġper icoli
orr or
infe zione
Ġquali ficati
Ġand rebbe
qu indi
Ġeccessi vo
Gi or
Ġsc oli
rusale mme
Ġ conde
Ġinse gnato
corre r
ĠCase rta
ur g
Ġfreque ntemente
Ġna stro
ic t
ĠSy stem
e k
Ġcol lina
Ġprodu ttivi
Ġreligio si
Ġbelli ssime
Ġpa nico
e nd
Ġimprend itoriale
Ġno v
Ġevidenzia r
ĠU t
fe ria
tifica zione
ĠA ncona
Ġmalat o
Ġtransit o
Ġrice vi
Ġevidenziar e
a zia
Ġcli nico
ĠSac r
B ene
ore s
Ġho st
Ġso lita
Ġbritanni c
Ġsape ndo
Ġout let
iti ng
ĠCongr esso
Ġcalda ia
Ġbritannic o
nali si
ĠSu ccessivamente
Ġpo lo
Ġorgani zzate
Ġur gente
Ġdie d
Ier i
ĠPh ili
Ġcita r
Ġucc elli
Ġcontrollat a
a partment
gnan t
tec nico
Ġnecessi tano
du i
m ber
ĠZ ero
Ad esso
âĢĿ ?
Ġbianc oner
Ġpunt uale
Ġrapid i
Ġcrist iano
Ġca ffe
ĠC OL
Ġtrova ndo
Ġfo gli
n tenuta
ĠF ede
Ġpe pero
o x
ĠCom pre
Ġsent iamo
Ġste p
ĠF I
Ġmo zza
elli na
Ġentr ano
Ġstam pare
o ntenuta
c ontenuta
t ossi
ĠR O
Ġpl ur
Ġsti mato
Ġdiffere nziata
Ġshar e
Ġcollaborat o
ĠVi ttoria
Ġestr atti
Ġindesider a
ĠA rre
Ġw h
f lix
por ali
Ġindesidera t
gro und
Ġ11 8
Ġdepo siti
Ġr un
Ġpropo ngono
nolo gy
Fa r
Ġesclu sione
Ġsa ggi
Ġchia mano
Ġdebole zza
Ġpo vero
Ġvole sse
Ġgioca ndo
ele ttro
ĠI D
cci olo
ĠS cient
Ġriv olte
L C
a z
Ġincar ico
ĠSuper iore
Ġcontrollat o
Ġformula t
Ġgover natore
Ġqu ad
si mi
Ġrial zo
Ġinizie rÃł
âĢ ³
f iato
Ġre sterÃł
Ġto ccato
ĠGaran t
Ġripristi nare
Ġstraordi nari
Ġcondo mi
Ġseria mente
ĠSu ite
ha rd
Ġscad e
Ġpre da
ro le
Ġdeno minato
ĠFina nza
ES S
Ġalti ssima
Ġinforma r
Ġe morroidi
ro sa
Ġcitar e
Ġvice presidente
ecce zione
Ġatt ua
n titÃł
Gr ande
correr e
Ġpront e
Ġcompo ne
Ġacca ttivant
ina ugurazione
Ġesercita t
f onda
Ġprofe ssor
Ġet ero
Ġcomplet e
Ġseconda r
Ġro tazione
Ġ apartment
cu ssioni
Ġbe i
Ġva so
Ġrila ssante
Ġperi feria
Ġpro pe
Ġru ghe
Ġinventa t
Ġcript oval
Ġsta ge
ĠP OS
ĠP ir
ĠR ivi
vi n
ĠIN TER
Ġse ssioni
ondo n
ĠRu sso
i nvent
Ġmette t
i nchio
E E
Ġprodo tte
Ġprovveder e
Ġinfor mativa
Ġ0 4
ER I
Ġh is
inde x
Ġperfe tte
Ġre carsi
tt olo
Ġ contenuta
Ġ interfaccia
Ġsecondar i
a venti
Ġdista cco
Ġfis sare
? )
Ġbru ciare
Ġposit ivamente
ĠDetta gli
ue r
Ġmisura r
ĠE ssi
ca d
ĠAd ige
t il
Ġtra rre
Ġra mo
att ac
A lto
gia nato
ua na
ĠC N
Ġbon tÃł
Ġmacchi nari
Ġresi ste
Ġconce ntrato
ĠProfe ssio
n tivi
ĠMe zzo
Ġu ser
ĠN EL
Ġla sci
Ġpad ro
ĠSi n
ndo t
Ġprestigio so
Ġmisurar e
Ġfa tico
Ġdram matica
ĠR OM
ndi ce
Ġlibera rsi
Ġfra t
na s
Ġdete nuti
ĠGi ro
Ġrifle ssi
e ntitÃł
Ġpropo nendo
Ġdep utati
altro nde
Ġno bili
ĠD O
Ġrag gr
Ġme ttiamo
Ġad ib
Po sso
GG IO
ĠCo opera
ĠFami glia
attat o
zze ro
Ġforma no
Ġsc ontri
ro s
Ġap pet
Ġamerica ne
ĠG P
Ġoccu pati
Ġcentroca mpo
Ġsant o
Ġf olle
Ġcli niche
ĠQu attro
Ġlalc olismo
ĠF ord
Ġ6 1
Ġconvi venza
Ġrice vimento
Ġinv iati
Ġprevent ivi
t ag
Ġnervo so
Ġverte brale
Ġregalat o
Roma gna
Ġdivi so
alle namento
Ġma cchia
Ġcompati bili
Ġra ro
lli na
Ġpa ssioni
Ġcom messo
Ġla na
Ġri ntr
ĠX I
ĠT oni
ed ito
Ġface vano
rrar e
Ġtr ed
U tili
ĠT el
Ġdete nzione
Ġspeciali zzazione
Ġinva li
uri sta
Ġpan taloni
ĠHa r
vol ge
cola n
Ġappro vata
Ġspi ngere
Ġstart up
ĠCe rti
Ġver sante
ze n
Ġimper me
Ġprot esi
Ġdot i
e rapia
Ġaccor ge
K a
Ġrider e
Ġsvariat i
u k
ĠGar da
ĠWi Fi
Ġyo ga
ĠGa me
Ġcaratteri zzano
Ġforma ggi
ĠPia cenza
o ff
D all
t imo
Ġ alo
don t
ir vi
Ġpa nno
ka t
Ġ7 7
Ġ aventi
ge ria
Ġsimpat ico
ĠTa glia
ola n
Ġni do
P RE
mar k
Ġlimita zioni
Ġpomod ori
Â º
li st
Ġo tta
pi n
Ġverifi carsi
le ss
Ġprote tto
Ġforma li
se s
Ġ sbo
Ġposta le
ĠCatto lica
Ġ auti
viar i
sci ne
Ġsupermer cato
Ġmer cat
Ġpre side
Ġinve ste
Ġinterro m
port e
Ġ invid
interessat o
Ġpossede r
per anno
Ġpericolo se
zia na
zze tto
sti ma
a tore
ĠEx po
Ġ coa
nsi ve
Ġpersonali zzata
st Ãł
Ġd uo
Ġintervi ene
Ġorganic o
ziar e
ac usa
sitar e
Ġlumino sitÃł
ĠE du
ĠMarti na
Ġde v
Ġsma rr
Ġspeci ficato
ĠI nge
Ġagri colo
Ġlo cazione
Ġposseder e
Ġposter iori
ĠUffi ciale
Ġconsu mare
ĠA ssa
c tro
stero lo
Ġspiega no
Ġauten tico
ĠA tti
Ġprefer ita
iden t
Ġba sati
Ġvor rÃł
pic o
Ġpre via
Ġinci n
Ġpomod oro
Ġmozza fiato
Ġcompet itivo
Ġver ni
edi bili
D el
pul sione
ele zione
ua mento
Ġincin t
Ġuccide r
Ġagevola zioni
Ġinfor mati
p ori
Ġrisc ontro
Ġte ngono
Ġsup porti
uot e
st ola
Ġquotid ianitÃł
Ġriconosci uti
ero gazione
ĠA zz
Ġria bilitazione
Ġnod i
is sa
Ġsal uti
nni no
ĠGe rusalemme
ll u
i cia
Ġinc o
ĠE sso
ĠPo ste
Ġfeed back
v ille
Ġslo gan
ĠPrat o
Ġf b
Ġpu b
RO MA
ĠFo ggia
Ġmi gra
ĠM ino
Ġazz urri
Ġinfor matico
ĠO f
ca nze
ĠMic ro
Ġb ordi
Ġvin colo
g gono
ce o
Ġ puri
ĠC ale
esse nza
, ,
200 7
Ġcorr iere
Ġuccider e
Ġd iamo
Ġcarbo idrati
nar y
Ġle tture
Ġaccade r
a ngo
le o
T EN
a tura
ĠSo prattutto
Ġproble matica
Ġcasa li
tt y
Ġscopert e
ĠAgo sto
ĠProvincia le
Ġsod i
ĠWh ite
Ġdermat ite
zzo ntale
ĠNi ntendo
endo si
Ġave ssero
u ve
zzi no
ĠA zienda
ĠR AM
ĠMedia set
ĠDani el
ĠV enere
T RI
ĠPro se
Ġe messo
Ġ12 5
gue rra
Ġlava trice
Ġvetr ina
Ġsal sa
Ġprelie vo
Ġaccader e
zze tti
Th is
ani c
AN D
abb ando
i tte
Ġmusc olo
Ġringrazia mento
un k
s pra
Ġte ssi
Ġfe rie
Assi stenza
t ipo
Ġgraduat oria
Ġpalco sce
ĠA do
Ġinse dia
m ita
Ġosteo chondrosis
Ġma c
Ġri ga
Ġw ho
Ġaggiunt i
olly wood
Ġpasse ggiate
Ġgest ori
Ġintegra n
Ġemo tivo
ga na
Ġe go
Ġfil mati
! ).
Ġquotid iane
Ġmo bi
Ġnat ale
ĠU nico
u sura
Ġsba glia
Ġcontrib uiscono
Ġviola zioni
Ġparadi so
archite tto
Ġgr een
Ġmigliora menti
Ġintegran t
Ġprocura tore
e mento
ex t
Ġrie ntrano
bb ero
ĠFebb raio
Ġospe da
me o
i partimento
ĠItalia n
ori ca
Ġu ne
ĠConsi d
Ġtecnolo gici
Ġconve nienza
m Ã²
Ġcoordi natore
menta rsi
Ġmant enuto
hio n
ne ws
A ppe
Ġrifi uta
ci cli
le gge
Ġtu bo
ET TI
Ġgiall oro
Ġcoinvol gente
ĠM ale
Ġcommerciant i
Ġincr ed
n stata
Re ce
im b
Ġrimb or
ĠG em
O spedale
Ġrar e
Ġguada gni
r tt
ĠCorona virus
Ġrad icali
Ġri muo
Ġd ica
Ġdisi nfe
Ġrad ica
Ġsemi nario
o nstata
Ġd ige
c onstata
ano r
Ġconclu sioni
Ġmu ore
Ġine s
ib o
Ġfar ebbe
Ġliqui da
Ġelaborat o
Ġsuicid i
ĠG ali
Ġinformar e
Ġindi scr
colan t
da fone
a rtt
Ġsoffr ire
ĠR ela
os cano
Ġ19 80
T P
Ġqua rti
Ca t
F ina
Ġregi strata
Ġfinanziar e
sino ne
esi mi
Ġosser vazione
gent o
ele razione
Ġservi ce
Ġrar a
Ġbru tta
Ġ constata
Ġfal se
sse t
Ġingi usti
V edi
Ġlibera r
Ġfunzionant e
chia t
vati o
Ġsuperfi ciale
C ondi
b uo
Ġista nze
Ġbr a
ĠVe ndita
Ġmo nete
Ġconne ssioni
Ġpote ndo
Ġinteressa no
Ġserie tÃł
lza t
Ġauto mati
Ġsc orta
Ġlu ssu
Ġdegu stazione
Ġg elo
ĠC ono
Ġtras portare
Ġfashi o
Ġb eta
ziat i
ed ilizia
Ġgui date
Ġcomplet i
Ġfashio n
Ġcar itÃł
au s
K E
Ġment ali
Ġpsi chi
Ġ api
old id
Ġdispo ngono
Ġpatent e
ghe tto
ĠCr a
tta bile
Ġstipula t
Ġmi ssi
Ġpa y
Ġ7 6
Ġbelli ssimi
Ġpi eghe
Ġprostat ite
Ġlegitti mitÃł
no sa
pre ma
a prono
nk a
ispe cie
ĠH i
istint o
g one
Ġritr atto
Ġ ya
va ndo
ĠB and
Ġmi ssioni
Ġlibera t
r azioni
Ġpo ltro
Ġle adership
Ġistitu ito
or gano
Ġassi mila
Ġgrade vole
d ice
Ġpote rsi
ĠFi glio
i osa
o ntorno
Ġader ire
Ġre pubblica
c ontorno
dati o
Ġcre scono
tti ne
ĠA ustria
u nder
r anci
Ġpar lo
m el
zza mento
Ġeste so
a lpini
ĠR iva
Ġscoli osi
Ġcre me
Ġfun zionari
anda t
A ngelo
Ġcitat i
bat i
Ġrigi d
bur g
Ġtecnolo giche
vatio n
Ġgua n
k king
Ġodier na
po sizione
Ġfar Ã²
Ġese gue
it ed
Ġcomuni cati
Ġcer che
ĠI stitu
A ppartamento
Ġac cent
Ġ aper
arre damento
forma zione
Ġde ge
Mon t
Ġparat i
Ġliqu iditÃł
ĠAd ria
Ġscher mata
Pre sent
Osser vatorio
ilt o
Ġlogi stica
Ġtorna no
ĠD alle
Ġguar ire
a ranci
ĠPa rola
le tta
î¥ ¤
men s
ĠMot or
Ġamministra tivi
ĠCir colo
Ġb ibliote
Ġca ttiva
Ġosp itato
Ġpa ttu
Ġripro du
ccor do
Ġim porti
ag hi
Ġconvi ncere
i nvol
Ba r
Ġatt uare
cchi no
EN E
Ġsti me
ĠRome o
nerari o
ĠC ura
Ġte x
Ġri val
Ġseg nare
u ble
Ġta xi
ĠP RI
Ġapparecchia ture
Ġfint a
Ġriser ve
ild e
Ġd ipartimento
ĠD NA
Ġelett orali
ĠAd idas
nat ure
Ġf olla
Ġprovvi s
ĠM oro
nn ella
Ġfar li
ĠLa va
portat e
Ġatte sta
Ġmag net
f le
s vant
oli na
Ġcompre sse
TE L
anima le
Ġpare cchi
Ġvo n
Ġinno vazioni
Ġfini scono
Ġesi stere
ĠCal da
Ġstrani ero
Ġcli nici
ĠV iva
ild ing
s pr
Ġbaga glio
Ġelabora r
Ġstat istica
ĠS na
c oc
Ġsub ordi
affar i
datio n
i ntimi
ĠLice o
ĠR IS
ĠW ork
s ved
Ġsqu ali
Ġaero porto
ggiant i
Ġelaborar e
Ġarchi vi
Ġ contorno
r venuto
e rvenuto
t ervenuto
Ġpe nisola
n tervenuto
ĠCli cca
ĠSt ella
i ntervenuto
Ġmal grado
iba ldi
A A
Ġlo ttare
Ġbatta glie
Ġpreci p
sa mo
Ġ15 00
Ġcongi unt
Ġrece ption
Ġfia mma
ĠDo v
ĠTr av
Ġgri glia
ĠA ffari
Ġcontratt uali
ĠCon sulta
Ġsensibili zzazione
ĠP ronto
Ġcinemato grafica
Ma n
Ġdivi ene
ilto n
Ġtradu ce
Ġ interfer
BILI TA
Ġfl ore
lf ab
Ġstimo lo
Ġom bra
Ġconde nsa
ĠP op
tit le
Ġcrimi nalitÃł
Ġaccompa g
d ei
Ġcompa tto
sco pio
ĠSE O
ĠB MW
Ġfo cus
Ġinevita bile
Ġimprend itore
Ġcentrocampi sta
Ġguan t
Ġes porta
pre sso
ĠColle gio
s qui
ĠMater a
ĠB ud
ĠS um
Ġo k
ĠLi nux
Ġ cock
Ġcambia ndo
P D
A ero
ĠC ese
ĠVale ntina
Ġle gna
Ġintegrant e
ĠP ub
ndot i
Ġpartecipa no
ĠCla r
Ġ7 8
Ġpande mia
Ġprot ot
ĠAli ce
Ġdesti nazioni
ora bile
ĠFra telli
Ġber sa
o ordina
Ġstanche zza
Ġsonda ggio
Ġbarr iera
Ġpole mica
ei n
Ġ svant
s gr
Ġricr ea
E l
Ġbelle zze
c oordina
ĠR ispo
Ġgiusta mente
ĠIsl and
Ġdeno minata
TI CA
ĠA I
Ġfaci lit
ĠNa vi
Ġ ansi
ĠMassimi liano
7 00
ĠPo c
Ġev ita
ĠV iale
Ġtr uppe
In terno
Ġau gura
tic s
Ġstimo li
Ġesegu ite
Ġpe sa
Ġfis sata
ĠSa ranno
Ġconfer imento
r ena
Ġprote ste
ĠPorto gallo
Ġfebbr e
ga bile
Ġincoll a
Ġfavore voli
ghe tti
ĠAp pro
ĠL IM
Ġraffi nato
Ġconsi gliare
immi grazione
Ġ audi
ĠSem plice
portat a
ĠTr ai
Ġspiega zioni
U D
Ġintegrat i
Ġese cutivo
ĠO ro
Ġpro messo
ĠJ ose
ĠSve zia
Ġe pub
ampo o
Ġina cce
Ġrece sso
attar e
Ġdeli cati
Ġfesti vitÃł
ĠFa l
ĠO ff
ĠPo ssiamo
Ġpur chÃ©
D ire
Ġli fe
i ns
e nce
Ġu ndici
ilo so
ĠI va
c ute
Ġprogressi vamente
Ġrispe cchia
e nitori
do wn
ĠCu cina
!! !!!
ĠIn n
Ġaderent i
Ġ intervenuto
g oni
ĠWhat sApp
Ġpresenta rsi
ĠAl a
ĠRe nato
un nel
Ġgioi ello
Ġposi zionato
R C
ĠBa t
ĠDife sa
fa sci
Ġfedel tÃł
om iti
Ġemozionant e
po ol
ĠCo senza
e ntu
Ġam mette
Ġacce ssi
Ġcorre ggere
Ġse parati
Ġgl oria
Ġfume tto
Ġtras porta
Ġcontenent i
ĠRo cco
" )
Ġh ad
Ġbila nci
Ġsoste nitori
sc ola
Ġ sved
Ġspe ttro
Ġcart one
U C
ĠTime s
Ġe siti
Ġpiace voli
as hion
Ġrar i
t enitori
Ġpoli zza
Ġpla tea
Ġarre do
Ġli stino
ĠVi sita
n timo
ĠLi bera
Ġbi nario
Ġopta r
Ġon ly
Ġ ivi
ne d
ĠW alter
Ġ amata
Ġincr edibili
Ġcrimi nale
Ġfatt ispecie
a tro
ĠConsid e
Ġconsu lenti
Ġoptar e
ndo vi
Ġcorre zione
une s
uo ghi
Ġw orld
ĠL ondon
ĠAm ministra
anche ster
Ġsel vat
ni me
Ġepi d
Ġsolle cit
Ġre spo
ĠMer cato
Z E
Ġesti vi
Ġdisti nzione
sco pi
ĠTr ipAdvisor
ĠAcqui sta
Ġparl ava
Ġsele zionate
ĠSi g
Ġrib elli
ĠPer chÃ¨
mpi r
Ġ sga
Ġb ac
Ġrisa lire
ĠBer nard
Ġfe rmi
fi ni
Ġfrequentat o
Ġcolle gate
mobili a
Ġincor p
Ġpie ga
Ġcano ni
Ġordi nare
ausi lio
Ġstr isce
Ġma sse
Ġrinno vare
guaglia nza
ĠOn lus
Ġsing olare
Ġ aprono
ai d
Ġsmo n
s na
Ġrad ia
V C
Ġcred iamo
do po
Ġprof ondi
a nze
nera n
Ġdeci sa
Ġentrat i
Ġ ....
ĠCate rina
Ġprende rÃł
assi o
Ġ intoller
ttent i
Ġpa lese
Ġcond uzione
Ġ coordina
Ġrica vato
Ġpredispo sizione
Ġne ttamente
Ġsalva guarda
ro tta
a tle
fan t
Ġmisur azione
Ġsfu ggire
Ġfaccia no
el mo
Ġ istante
Ġno w
neran t
Ġvoler e
Ġ7 4
Ġsi mula
Ġori zzontale
ï¿½ ,
Ġb itcoin
Ġ spri
i stretto
Ġlo tto
Ġcu cine
ĠE m
ĠTant o
Ġcom mo
mio n
s elli
C ontro
nsie r
Ã Ĺ
ĠQual ora
Gi ova
Ġsmon t
Ġoccu parsi
Ġau mentata
ĠPoc o
Ġomo sessu
Ġapprofond ita
ĠC AS
G RA
Ġsal utare
Ġam mi
Ġbi ologici
Ġricond uci
IS S
ur l
Ġauto ve
gat ivo
ĠV oi
t im
ĠBila ncio
Ġarchite tti
Ġg elato
asse gnazione
ziat a
Ġmanu ali
ĠIe r
Ġcle a
Ġ0 3
T orna
mpia d
ĠR ia
ĠVie nna
per chÃ©
ĠMigli or
Ġcuci nare
Ġl itur
Ġlampa da
Ġsinc roni
Ġbenefi ciare
Ġrilassa rsi
ĠPro ject
ĠMar gherita
ĠD am
Ġtestimo ne
U I
Ġfr ie
Ġparticolar itÃł
ĠIn ser
is cio
sa pp
ĠM ono
Pr enota
Ġnarra tiva
Ġsic ure
Ġ intima
Ġte stare
Ġstat ua
n tenitori
F O
Ġpersonali zzate
Ġtrasfer ito
a rca
Ġce ssa
Ġb omba
Ġla sce
ho use
Ġlasc iata
ĠH ill
Ġte stata
Ġ ski
ĠQual che
ĠSo ftware
Ġefficace mente
Ġabba ssare
Ġsacerdot e
ĠPro babilmente
Ġfinanziat o
] ,
Ġdefi nite
o ntenitori
Ġfi niture
chi ni
c ontenitori
ve rti
Ġcolle gata
ĠCh rome
Ġcardi ova
ndi ne
fat o
AN TI
ĠV ole
Ġcoll ana
Ġdep utato
ĠW ind
ir ci
Na tura
Ġdivert irsi
Ġstimola n
Ġcore o
Ġstimolan t
Ġesa minare
ĠS ini
ĠD S
Ġdov remo
ĠZ o
Ġsa lu
Ġsoff rono
Ġu rla
Ġdata t
Ġfi nitura
Ġsvariat e
ĠLa bora
Ġnottur na
Ġrispar mi
Ġor ologio
accia mo
Ġ ard
Ac qui
Ġinf il
Ġriempi r
Ġsceneggia tura
ote ca
oli a
Ġcro no
Ġma dri
Ġamplia r
pola t
Ġacce so
ggen t
it ura
Ġfal sa
ĠT O
l linea
Ġsfru tta
Ġcoordi nate
Ġampliar e
Ġno do
ĠRich ard
Ġtut orial
aria t
ĠCh irur
Ġv itali
And rea
Ġser ena
Â ¿
? âĢĿ.
M u
ĠCu ore
Ġliberar e
gia na
o ntano
Ġincar ichi
ali e
Ġsotte rra
Ġde tti
Ġcal coli
I nizia
Ġpo llo
j u
Ġde grado
Ġitinerari o
n ts
Ġdove vano
ĠRo se
Ġinv itiamo
Ġpull man
Ġcat e
Ġaccontent a
ĠPasqu ale
attent a
Ġsa rÃ²
? âĢĿ
Ġrinvi o
W e
Ġrido tte
Ġmater asso
Ġfamiglia r
Ġarr esti
Ġsor elle
ĠD es
i ntendere
ĠBo sco
Ġriempir e
Ġser bat
qu el
Ġae rea
Ġvisi va
Ġcondu cente
Ġinser imento
gnu no
ĠCo ma
Ġvalid e
ffer enza
... "
Ġaggir a
d es
P ia
Ġderivat i
Ġspe so
Ġnu mer
impre nditore
Ġre peri
Ġconne sse
ĠC AP
Ġappo siti
Ġriv olti
Ġ cocco
ori zzonte
v elli
Ġme tto
ĠJ aco
Ġpala t
Ġso gnare
Ġassent e
Ġge nio
Ġaero porti
Ġav versa
Ġcorr elati
Ġsint eti
ĠK it
Ġretr ibuzione
ur rÃł
Ġequiva lente
Ġand roid
Ġveni sse
Ġeffe ttiva
Ġ algorit
Ġinfi nite
Ġpa rru
el s
Ġf iato
fi li
n r
polit ano
i bri
Ġgiud icare
ĠN ic
c ontano
ĠGra tis
Ġpi xel
Ġletterari o
ĠDEL L
ĠU NA
ĠInt el
Ġ alcol
ĠMa y
Ġgio cano
ficant e
Ġca ll
Ġcl ande
Ġadd eb
tem pora
Ġferma rsi
abb ro
ba bile
da i
Ġsomministra t
se arch
ka n
ĠQua lcuno
a str
pi da
ner s
Ġlavora tive
ã ĥ
ĠMili t
ĠE D
Ġgua i
Ġste sura
Ġcomuni one
Per so
Ġg lu
ĠUnit ed
Ġaccurat amente
Ġconfer mano
Ġpersonali zzazione
ĠJ os
---- ----
f ani
mpo li
and r
ĠMa gari
ma rca
Ġpoi chÃ¨
ello ni
cio Ã¨
ĠAnt i
Ġna cque
ĠF ront
ĠBo x
Ġdele gazione
c tive
Ġcere ali
Ġ ker
Ġchi p
ĠGar ibaldi
d ue
Ġve na
w ell
A LI
Ġattr ae
ĠRistora n
Ġpochi ssimi
Ġbicicle tte
Sal ve
scri tti
rient i
Ġ( "
Ġatmosfer e
Ġ7 3
ĠRistoran t
Ġtransa zioni
ĠJo ur
ssie r
Ġ contenitori
impro vviso
Ġrischia no
bat a
ĠSi gnor
ĠJ azz
A u
Ġriscontrat o
ĠU V
b ella
Ġtur ni
ĠPa ci
Ġagri coltura
Ġlent a
Ġlat e
ĠTr ading
Ġ contano
Ġveter i
ĠAle ssio
Ġdeci dono
Ġprezio se
Ġassociat e
ut ici
Ġer ba
ula r
Ġcar iche
Ġ astro
Ġtra gitto
Ġe gi
e z
Ġcu oio
Ġcata stro
Â ½
Ġsino nimo
Co ntinua
ĠFeder ica
Ġmusc olari
ĠTra pani
segr etario
TO RE
Ġpol mo
ĠGian carlo
Ġcomb atte
Ġfa bbi
ĠU rba
Ġasi lo
ĠCo nne
Ġse a
ĠLo ve
iver sitÃł
Ġd icia
azzar do
Ġv ela
Ġpuli zie
ĠQua rt
ma nde
Ġpu nizione
ĠPi sto
ĠChrist ian
Ġintr attenimento
Ġasse mbl
Ġuma nitÃł
Ġcock tail
Ġatt esi
Ġpro ver
Q uale
Ġdetr azione
ĠS MS
Ġfabbi so
Ġeccessi va
Ġdottr ina
Ġintro du
rcole dÃ¬
Ġotte nuta
TU RA
c ori
Ġcresci uta
ng ia
Ġresi dui
Ġclassi ficazione
Ġadatta rsi
Ġcreat ure
gner ebbe
m uni
ĠL y
Ġfi ssi
Ġalleat i
ct s
Ġdig ital
Ġta gliato
Ġopport una
Ġde pura
ĠV ER
Ġmai n
Ġfrequenta r
E milia
Ġpla yer
Ġmascher e
Ġcap sule
Ġb ombar
Ġgiudi zi
a tomi
Ġ20 21
le d
Ġfrequentar e
Ġmedici ne
Ġrib alta
Ġinqu ieta
Ġscr ee
Ġ198 8
Ġgiovani li
Ġscriva nia
Ġcol orazione
Ġtipi camente
be rti
Ġ intimi
Ġappo ggio
Ġsti r
Ġmeta l
ĠMa rte
Ġcoll au
Ġmagi stratura
ĠLa b
anza ro
Ġd istretto
ud ita
ĠMe glio
Ġlinear e
Ġnomi nati
Ġcat ene
a rg
s ms
b atte
ĠGlo bal
ĠAsso ciazioni
Ġprofi tti
quar e
Ġfia mme
Ġaddi o
g urt
ĠMunici pio
os p
Ġpreci sato
Ġlo g
Ġvaria no
Ġte orie
Ġquesti o
ĠC ad
ĠPe chino
Ġrispar mia
Ġmecca nico
Ġraggi unti
ĠPar adi
Ġau menti
Ġl it
pra r
che s
no si
sal a
Asse ssore
Ġautono leggio
ĠOp zioni
ice n
gina zione
Ġinquina n
MEN TE
c orta
ur u
Ġinquinan t
Ġca mino
Ġge stiti
ĠBlo g
ĠV edi
ĠStiva li
Ġrequi sito
abbi gliamento
Ġdiff onde
sul a
ur genza
Ġpent ola
Ġassicura rsi
Ġpart irÃł
Ġsape vo
be tti
ng uono
Ġapr irÃł
Ġfer ita
gue n
Ġmar rone
Ġfatt ure
ĠGa etano
Ġconsu ma
ĠGeno a
Ġapplica bile
Ġalza r
Ġasse t
Ġbl a
Ġcole sterolo
ro ba
Ġalza t
Ġnutr i
dal a
Ġele tti
Ġsoste nuta
Ġstupefa centi
Ġde cor
Ġtem porali
es plo
Ġrifu giati
Ġmedia mente
i ntimo
or n
Ġ cute
Ġcom mentare
Ġmi sto
nd u
i ger
ZI O
citar e
Ġindi fferent
ĠEc o
Ġne ed
Ġchi miche
este tica
Ġdetta gliata
Ġsemi nari
nd ly
Ġcre dono
attac cante
ĠBlue tooth
unciat i
Ġcuri oso
ste ranno
Ġpe si
ĠD ele
Ġpre vide
ge nce
ĠFel ice
Ġaccade mico
ccia i
Ġumi do
Ġriusci rÃł
Ġcede r
Pr ess
Ġtru cchi
Ġanali zzato
Ġdetta gliate
Ġalzar e
ĠV ig
pi do
Ġcolle ttivitÃł
Ġinsegna mento
ĠBrea k
Ġ sgr
quirent i
ĠSpa zio
ĠDani ela
f ila
chie d
Ġdura r
Ġsc onsi
Pro ge
c otto
ĠEd ition
Ġmi d
Ġcostr inge
Ġfol lia
gio va
Ġsco ppia
i oni
Ġcali bro
Ġmodul a
âĤ¬ .
Ġele mentare
icen t
Ġpa lo
Ġregola menti
Ġcele bri
Ġcol pite
g by
Ġrender lo
Ġcanta r
pla stica
Ġprecipita zioni
Ġpaga no
Ġsal vato
gi ng
Ġsinda cale
gi menti
iva cy
zie n
ĠE ste
Ġvill aggi
Ġcoltiva r
Ġdov rei
Ġterape utico
Ġidone i
Ġservi rÃł
Ġdurar e
Ġsodi o
a llinea
Ġrisol ve
Ġomicidi o
Ġobbli ga
ĠVale r
ĠMar rone
s bar
do or
Ġstra niere
Ġaffi damento
ce ndo
Ġcoltivar e
ĠCi o
ĠG el
nce n
ĠMi n
Ġinser endo
impo ssibilitÃł
Ġelen cati
Ġcatto lici
Ġaustr ia
Ġcru ciale
A nn
Ġreali zzando
Ġ inu
Ġmatrimo ni
ĠV orrei
Ġintelli genti
ote c
Ġcompo sizioni
Ġsotto scrizione
V IS
Ġprote tta
f oto
Ant onio
ĠScal a
var lo
ĠCl asse
Ġascoltat o
id imen
H D
P RO
ĠAnn unci
Ġprede fi
Ġd itte
Ġdiet e
Ġeffe ttivo
Ġcli matici
nk ing
cu m
ĠSo ciali
ĠBatti sta
Ġasce nsore
Ġconsu eto
zze se
Ġci ca
sem pre
Ġcontribuent e
ĠA mbiente
Ġre agire
Ġsoffi tto
t erale
h y
Ġpol pa
guen t
Ġprosegu ito
Ġcorpore o
. -
ĠF ine
Ġri ver
sta le
li ght
Ġpri mato
nuo vo
Ġspa ziale
Ġpiani ficare
C od
nu m
Ġvietat o
Ġagr icoli
ĠEsi stono
ĠâĢ ĭ
ĠFro sinone
Ġceder e
tti mi
ndi no
Ġassu nzione
Ġnon no
Ġcha nce
Ġtar da
ĠT ER
n tis
200 1
Ġperiod icamente
ng olare
Ġcaro t
Ġtermi nale
Ġaggi udi
Va l
Ġpir a
Ġci tta
uar si
ado le
ĠStra da
ĠLib ro
S cr
col ano
Ġgest ita
poli no
Ġannu lla
ĠBene vento
Ġinaugurat o
Ġgo ogle
200 5
e conomi
ĠC OS
Ġrispe ttive
Ġscompar so
ĠR ita
ina ggio
Ġrigi do
Ġsta n
Ġris chiare
ĠM anchester
ĠV elo
tte t
Ġarricch ire
ct ed
ĠV ill
Ulti ma
ĠCre ma
ĠSe gu
Ġcau sati
ĠNo vara
e mpi
s mette
ĠMoli se
Ġpresuppo sti
a ntia
orient amento
Ġgia cca
col le
ĠAp pli
w ing
ĠS IM
Ġvege tazione
Ġcuff ie
ĠTok yo
Ġalti ssimo
ĠCh el
A ttraverso
ĠV uoi
ĠB ianchi
entu sias
ĠQui n
bi ni
Ġscontat i
ĠM onda
Ġor ga
net aria
ha ni
ĠB I
Ġmer ite
nde t
Ġ9 8
Ġfarma cie
U nitÃł
Ġvo cale
Ġmagi strati
Ġfront iera
Ġ squi
gu sa
Ġgre ca
Ġ198 5
Ġpret e
Ġvideogio chi
Ġferro viari
Ġ intendere
Ġgi ne
Ġmonu mento
Ġcontr aria
oi n
ĠCla udia
Ġfar le
ĠG or
Ġca pir
ccit a
Ġcresce ndo
Ġsit e
Ġ smette
Ġtoller a
Ġimprovvi sa
Ġt ora
Ġscrive ndo
U e
p ilo
Ġ198 6
ĠO ccorre
ko v
Ġartigia nali
a ba
Ġse po
ori s
Ġdistribu iti
ĠG uar
Ġdemocra tica
Ġsv ela
ĠDi str
Ġner e
Ġnormat ivo
Ġsuggesti vo
sultat i
Ġgro tte
ot os
Ġader ito
oe vo
Ġcosto si
Ġfonda mento
Ġsegu ite
Ġpsicolo gica
Ġviole nze
Ġinstallat i
ilat e
nfr anco
Ġimpe ccabile
enne simo
pl ore
Ġvol uta
Ġmulti media
Ġ9 6
ĠCondi zioni
ĠGener a
ĠS l
Ġtor nei
ĠA ria
Ġte nda
Ġ allinea
Ġded izione
Ġri para
Ġcou pon
Ġis pir
ĠGi nnastica
Ġunit amente
Ġperme ssi
Ġfir st
ĠF ia
ĠSm ith
mb ia
Ġlava nderia
pl y
Ġvi vamente
Ġappre ndere
à¸ ²
que sto
ĠTer zo
Ġinvi o
Ġliqui dazione
Ġ abili
Ġru ssi
ngra t
Ġsu rre
Ġ scato
G P
Ġci lie
far i
Ġassunt i
Ġsotto t
m q
Ġgl utine
Ġarr esto
Ġfavor ito
Ġ ignor
Ġraccoma ndata
Ġsca lo
Ġpensio nato
Ġinterrom pere
ĠAna ly
Ġtra zione
Ġmed iterranea
C ap
Ġd iario
ccia no
ĠArti colo
Ġac quirenti
Ġdestinatari o
mpiad i
ĠGo ver
Ġment alitÃł
ita s
Ġrot a
ĠIer i
ĠE conomia
Ġmete or
Ġele mentari
ivi o
Ġcoopera tive
Ġfer ito
ĠPar e
Ġto ol
Ġd ite
ĠGia rdino
Ġcompetiti vitÃł
Ġ Ġ
Ġgol f
ĠVer gine
Ġfor mativa
t abili
Ġgro sse
Ġf ro
Ġver nice
Ġasciuga capelli
ĠPre mier
Ġstam pe
Ġemo zione
ĠCo stru
Ġsg om
Ġcantar e
Ġ artt
Ġcomp ilazione
Ġic one
fun zione
Ġfor mulazione
zza bili
anda rd
Ġsa cra
ir ai
Ġvo cali
Ġper sa
ĠS AN
Ġ sbar
Ġtrasfer imenti
car ne
ĠConfi ndustria
Ã ª
Ġsor gente
ca ne
ĠVe cchio
Ġsho p
Ġ ðŁ
Ġpresuppo sto
ĠY out
ĠFu ll
Ġatt irare
ap parato
à¸ Ĺ
Ġso und
Ġprefer isci
Ð ´
Ġcit y
Ġfinali zzata
Ġimmu nitario
Ġ3 000
ĠPot enza
ĠBl a
Stati o
Ġpreoccupa n
Ã ´
ng s
Ġcomb attimento
ire s
Ġscoliosi s
Ġpreoccupan t
ir li
Ġba cio
ĠTe x
ĠA gr
Ġlaur eati
ster dam
Ġcant ieri
Ġero i
zzo li
t ane
Ġderivant e
Ġtelevi sivi
ĠM ura
A sia
Statio n
ĠGra zia
lta t
scr ive
Ġte ch
O tto
Ġviolent a
Ġ7 1
Ġvorr emmo
k el
ondat a
p illole
Ġdistru ggere
Ġd igi
uti n
Ġaffida rsi
ĠCremo na
Ġsent ita
ĠL es
nd ite
ĠT A
Ġse natore
e razioni
Ġdiscipli nare
Ġmar a
Ġcostru iti
Ġma trice
Ġ198 7
ĠRo yal
ĠSe mi
aul a
ĠPelle gr
ĠCatt ed
u ffi
Ġpensat a
Ġdivent i
Ã ¯
Ġcol orate
ĠS usa
Ġimmer so
Ġarro t
Ġcer cate
Ġnon ni
am ite
Ġtur c
zzi na
Ġrima nendo
Ġmani fatt
Ġritro vo
Ġpresso chÃ©
ĠValer i
ĠFo x
iti ve
Ġimpre vi
Ġcar ino
Ġsa m
ĠS ede
Ġso urce
litar i
ĠA ppa
n tabili
ĠClo ud
Ġpre ce
Ġturc o
Ġra zionali
ac u
uder e
Ġnasco sti
Ġfi niti
ciat e
ffr e
Ġmini ste
Ġpreci sare
ĠSa ndro
ĠBasi lica
orre sti
inf r
zien t
ac oli
Ġstatunite nsi
gi bile
Ġca suale
ĠSpe zia
Ġmini me
ĠNet flix
cciat i
Ġso miglia
Ġzu cca
Ġcred uto
Ġsatellitar e
Ġcod e
ĠR odr
____ ____
oro se
Ġinad eg
individ uazione
Ġ pel
ĠF au
cu a
Ġper plessi
e nna
i oritÃł
Ġsembra t
Ġvi vente
Ġcorre ttezza
oli c
Ġcivi c
Ġumi ditÃł
l as
Ġparche ggi
Ġassun zioni
Ġcompa tta
ell uto
Ġt ori
Ġfe tta
Ġ coc
nar li
ĠE spo
Ġpalcosce nico
chi d
Ġrima ste
Ġelaborat i
Ġavanzat i
Ġtras messa
ve scovo
ĠF ir
Ġappi eno
I ndia
ni or
Ġ ist
e stazione
Ġinterlo cut
Ġconso l
Ġrinnova mento
Ġsopr all
uti que
Ġsca nsione
Ale ssa
Ġcompi mento
t estazione
Ġri nc
Ġconce pt
vi ne
Ġ[ âĢ¦
A rea
Ġingeg neri
mobilia r
Ġma is
Ġspo si
ĠLe ttera
Ġincred ibilmente
Ġde tte
a ntivi
Ġmetod ologia
Ġcanta t
a nder
ĠG PS
Ġmu st
ĠW il
Ġvergo gna
med iale
l Ã¬
ĠM id
ad get
Ġpi Ãº
Ġdebb ano
r mato
Ġtr ack
e nni
Ġarmo ni
Ġade sione
Ġpartic elle
Ġsorpre nde
a ncia
Ġcaratteri zzati
Ġdiscu sso
Ġsto ck
ĠGa mes
Ġchi c
ĠF ile
ĠI a
ing eg
Ġf os
Spe sso
Ġdivi na
Ġro ba
t enimento
Ġlanciat a
Ġcostre tta
ĠVo dafone
Ġconser vati
Ġcombi nazioni
ĠNo va
n testazione
so li
ap porto
fo nso
Ġscar pa
Ġscr iver
Ġpotenzia mento
Ġla scio
ĠKo ng
ĠAr che
Ġcaratter istico
orant i
ĠA lo
l king
Ġcattura r
ĠD C
w r
Ġta glie
Ġavve nimenti
Ġcanc elli
Ġmuo vere
Ġsci n
Ġcollo cazione
acciat o
Buo na
Ġpre ssioni
orma i
Ġsuggesti va
Ġtratta va
Ġcatturar e
ĠM AN
E M
ĠV ista
Ġaccelera r
arti gianato
ita nza
lli evo
ĠPe saro
Ġcondivi si
ĠVene rdÃ¬
Ġaccelerar e
ĠA genzia
ĠAca demy
ch el
Ġcol orato
pse udo
Ġscat ur
ĠA h
ĠR ig
Ġsec chi
Ġcrea tivi
Ġeccessi vamente
ni mi
Ġversat ile
Ġved ete
bi ci
ud itori
Ġpolizio tti
Ġtar ghe
Ġam mettere
d ese
var i
Ġpresent azioni
E conomia
ĠGra ndi
ĠLa sc
Ġprevale nza
atte ggiamento
Ġpeggi ori
Ġpu lite
Ġscom messa
Ġza mpe
Ġ elo
Ġcardi o
d iamo
Ġpe sci
Ġgui dati
Ġeste sa
ĠCa ss
Ġpo ur
Ġconvo cazione
mo do
Ġmang iato
Ġfreque nze
Ġimbo tt
AR D
Sic uramente
Ġ8 3
ĠM onica
Ġca mion
cl assi
Ġesplo d
Ġricer care
ĠDo cu
Ġpensa vo
Ġparall elo
Ġed itrice
ĠZ ona
f ami
Ġanima zione
) ?
z he
Ġdel iri
gat iva
! âĢĿ.
m elo
ns k
Ġcentro sinistra
Ġnorma litÃł
ste nibile
d etti
Ġarte r
nea r
Ġre tori
o ntabili
Ġincom pre
Ġpre po
c ontabili
Ġriu sciamo
Ġspor c
ĠComuni cazione
ĠF ig
zzano tte
Ġcrede n
Ġraggi unta
t l
t ie
Ġcol pita
Ġri pu
B elli
a o
Ġcivic o
Ġimpront a
Ġpa dri
Ġsant a
n nale
Ġd Ã©
Ġstat uto
Ġgode rsi
Ġmal ware
ĠGener ali
Ġtro mb
Ġsporc o
Ġpi scine
ca m
Ã «
ĠSal va
V EN
Ġcreden t
affer mazione
ĠSt o
att ord
ma ria
Ġge tto
att u
L S
Ġv olat
intensi tÃł
Ġconcor dato
ĠVent o
Ġperce pire
Ġfr ene
Ġta sti
Ġse sta
Ġlampa d
Ġconcr etamente
Ġidentifi cato
Ġpa nna
Ġ cotto
Ġfi umi
Ġdominant e
im ba
EL LI
Ġefficient i
e v
Ġfresche zza
id iano
Ġeli minazione
Ġoli va
ĠSer ver
ĠCrist iano
Ġscola stiche
r nitÃł
ĠPr esidenza
a strono
uo chi
Ġsi s
Ġsupermer cati
ĠCi n
Ġlampad e
ĠV IA
Ġriportat a
a bilita
Ġstabilit i
Ġcosto so
ĠHua wei
nia na
grant e
c oper
Ġarmadi o
Ġlim itati
Ġ aranci
cultura le
ĠA cco
Ġbreak fast
d or
Ġ anello
Ġsapr Ãł
Ġte matica
ĠCo ok
Ġalle g
D R
Ġmicro onde
B isogna
za n
Ġmisteri oso
Ġcalda ie
ĠE uge
qu ota
Ġtu bi
tu tti
n tenimento
Ġse para
Ġconcorrent e
ĠMil le
ĠI MP
Ġre nale
Ġ8 8
mu le
uditori um
ĠBi bbia
Ġagri coltori
Ġprotagoni ste
o ntenimento
Ġcinemato grafico
Se r
ĠAl ber
Ġeccelle nze
ĠP unta
nzia ria
Ġdisa tti
ĠT IM
c ontenimento
Ġpi stola
Ġ7 9
AT URE
Ġparado ssa
Ġju st
Ġnuot o
Ġvacci no
com pre
t esta
Ġsplendid e
entusias mo
Ġ pillole
Ġroman tico
Ġcipo lla
Ġcolt o
Ġinizi Ã²
Ġbe v
l bo
Ġt olto
ie rÃł
Ġve i
ĠAnto nella
Ġrispe tta
W a
Ġvisita tore
Ġristrutturat o
Ġsc orrere
Ġba sate
Ġdisc orsi
Ġcopert e
Â ª
Ġsonda ggi
Organi zzazione
acco unt
ea rt
l quanto
ĠR am
Ġincant a
a lquanto
Ġbr ava
Ġattraversa ndo
fi sica
Ġriservate zza
Ġcontinua ndo
ĠAmerica n
Ġfav ola
ĠB ul
ĠBe st
gnal a
Ġese cut
Ġprogressi vo
Ġprefer isco
Ġmostra ndo
gge ndo
Ġprevent iva
Ġle tt
ĠAr ena
Ġme eting
Ġstra ge
iso n
Ġd ilu
s le
ĠE do
Ġpubblica mente
inve cchiamento
Ġcrocier a
Ġprovved uto
Ġille gi
nk s
st ur
ĠP unto
ĠM ela
le sia
ĠM ON
iP hone
Ġraggiu ngono
ĠAv ellino
nga r
del le
rt ain
gat ura
po lita
llat e
Ġfidanzat o
Ġille gale
Go ogle
ĠCat anzaro
M AR
Ġsacrifi ci
ĠCa pri
R U
Ġre cit
Ġimper d
Ġinfluenza r
H O
ng l
Ġyo gurt
ĠRe na
Ġinfluenzar e
Ġbeva nda
ĠH P
Ġsint omo
Ġavvici narsi
Ġve tri
Ġvincent i
rt ire
qua t
Ġsconfi tte
cond rosi
dire tti
Ġfant asci
Ġfe ro
Ġsca ppare
gia r
ĠPro va
Ġba nc
Ġattac care
Ġvie w
Ġsici liano
Ġeno gastrono
Ġgene tica
ĠRES PON
ut es
Ġappli cano
Ġcart elle
Ġteatr ali
ĠR C
Ġragio namento
e gi
Ġdina nzi
Ġado ttate
Ġcomod i
Ġlent e
Ġni pote
Ġsang u
ï¿½ .
appo sita
Ġ sms
Ġintrodo tta
Ġma nga
Ġsconosci uto
Ġni ce
Ġdiagno sti
Ġpeda go
ĠGine vra
umi ditÃł
Ġsca ff
Ġ alquanto
Ġlegi ttimo
ingra zio
Ġpersegu ire
ĠR EG
n termi
Ġcittad ine
Ñģ ÑĤ
f orse
Ġcitat a
Ġinco n
b lu
bb ed
giat e
Ġport ali
Ġesper imenti
Ġrefere n
Ġso llievo
B u
Ġpresidi o
Ġau si
Ġ spra
Ġesti ve
Ġcuri osi
ĠDiri tto
parat e
Ġinfortuni o
V ole
Ġva no
t agoni
porta n
ĠSir acusa
SO CIETA
nd y
im p
Ġdove ssero
ĠW all
Ġdimostra ndo
lt rone
Ġfi g
Ġscri ttrice
a nelli
Ġcomposit ore
trat o
me rÃł
t ipi
ĠSale n
Ġte state
ĠPic colo
ele vata
Ġrit enere
Ġreferen t
wa n
Ġvor rebbero
a ca
portan t
ĠS neakers
andat a
e ve
o sc
S otto
Ġ9 2
S pero
Ġined iti
Ġconsidera rsi
Ġaggior nate
ĠS ai
TI ON
ut enza
w d
Ġabita bile
iter bo
Ġatte ggiamenti
ĠSalen t
be sitÃł
gu s
Ġsv olti
Ġri pie
Ġacqui si
Ġpont i
ĠR ot
oc o
Ġ sella
ĠRESPON SA
Am ore
ĠF erna
Ġ ip
Ġte na
pro du
Ġtappet o
Ġconser vato
Ġ9 7
ĠA nno
Ġsupple mento
Ġindi cando
Ġimmer ge
po sit
Ġuscit i
Ġimba rca
Qu ella
Ġ contenimento
tri che
Ġ coper
Ġpoltro na
Ġestre mo
Ġcrea tura
ĠBr indisi
ade sione
pende n
Ġt unnel
Ġroman tica
ĠProt e
ĠQu el
Ġpol so
Ġalber gh
Ġappartenent e
Ġracchi ude
Ġ contabili
ĠInf ormazioni
Ġindu bbiamente
Ġstre et
Ġfotogra fi
Ġte stato
Ġfant asi
Ġlibre tto
Ġace t
Ġbe e
Ġpol veri
ĠPie tra
ĠAero porto
ĠR IC
Ġscu ltura
Ġmo str
ota t
ĠCon venzione
ĠSu bito
Ġmani che
incr emento
Ġesemplar e
Ġrit irare
Ġaccen nato
T F
rci t
Ġcau sata
P ot
Ġperma link
ĠEx press
Ġmar ket
Ġca ttivi
Ġfili ale
gno si
Ġetiche tta
ĠZ i
Ġsport ello
Ġl ir
ka r
Ġprat o
ĠS it
ĠGiud ice
Ġsugger imento
Ġscin t
ĠPrinci pe
Ġpol a
wa tch
Ġmulti pla
ĠCom p
Ġpar ali
penden t
ĠItalia ne
ae reo
Ġlombar e
shi rt
Ġ amante
Ġ if
Ġattiva zione
Ġpropaga nda
Ġmodifica zioni
lent o
Ġretr ibu
ĠSalent o
Ġmisura t
n tim
a zze
it orio
e men
Ġgo a
Ġacid i
Ġcorrispo ndenti
Ġsta vo
pa sso
ã ģ
ĠPoi chÃ©
Ġri basso
Ġdire ttive
ĠCom ple
Ġcontattat o
Ġsicilia na
Ġre parti
Ġpre cede
? .
Ġgiappo nesi
Ġospite rÃł
Ġbi ke
Ġvolontari o
ĠC S
ĠO rlando
Ġ198 4
Ġsembre rebbe
Ġscar icato
perat e
ĠCo mi
Ġad oro
Ġrep utazione
Ġdise gnare
Ġconce r
Ġtriste zza
Ġassicura zioni
Ġtor nati
mo ndo
fe ttura
Ġosta colo
tter i
ci lia
k g
Ġusci rÃł
Ġsc ol
r ge
N i
Ġfir mare
Ġaver ne
Ġinfe zione
Ġstampant e
Ġ atomi
Ġmo sa
ĠArgent ina
ĠBa se
ĠMatt ia
V orrei
ĠBr and
Ġfil mato
ĠCa sino
Ġab uso
ĠPro dotto
ĠE X
Ġpredispo sto
Ġf eat
Ġfu ner
ĠS ed
Ġu d
Ġgrad uale
A nna
am p
Ġcur ve
i venuto
Ġni ke
Ġbar che
Ġperd endo
Ġpro sci
s go
or zi
e rest
ĠA PP
Ġprotocol li
ĠRa cing
Ġama lga
t erest
Ġbar be
Ġtratta tive
t ai
Ġsvi zzero
Ġe sent
Ġsignifi cati
Ġ astr
Ġpo etica
Ġtelefo nata
Ġfu matori
ĠAsso ciati
o h
otto bre
Ġgo ccia
Ġrispo ndono
ĠLaure n
Ġproced imenti
Ġmandor le
Ġemo tiva
Ġte me
Ġappre zzati
ider e
Ġam mo
Ġim bar
Ġcapol avori
ss ello
ĠÐ ¿
Ġlingua ggi
Ġinfi ssi
ista nza
Ġimmed iate
tto n
Ġve nuti
Ġprovincia li
Ġcad enza
ĠS cola
Ġsal d
Ġre voca
Ġsoddisf azioni
ĠS trate
ora ndo
Ġcoordi nato
Ġcontribuent i
e stato
ĠVo gliamo
Ca mere
asso l
lo sa
Ġpresti giosa
Ġtat ua
Ġappo sita
Ġcompi uti
Ġlegisla tore
ele n
Ġcontraddisti ngue
I VA
ba ni
ĠAd riano
omer cato
Ġ17 0
Ġcomi c
Ġalternat ivo
Ġindiscr ezioni
I ndi
âĢ Ķ
Ġpira t
Ġde a
Ġzuccher i
Ġrie sci
Ġesclusi vi
ĠEd izioni
ĠFor ze
Sem bra
Ġcapo gruppo
suali zza
ĠUni one
Ġpote vo
Ġnon chÃ¨
Ġfesti vi
Ġprogram mare
ĠNo v
ĠE steri
ĠIn fi
Ġb acche
Ġpo vera
Ġthe ir
ell ano
Ġbiso gnerÃł
Ġcompli ce
Ġconf ort
Ġcondo tti
b elli
Ġamm orti
Ġsi l
ES CO
Ġossi geno
e nse
Ġsistema zioni
Ġli nf
ĠIstitu zioni
ondo no
id s
cular e
no s
ĠNo kia
Ġvale nza
Ġ spr
Ġcontrollat e
u ca
Ġsensibili zzare
Inf ormazioni
ĠMilit a
ĠN oti
à¹ ī
Ġ ima
Ġro cce
one y
Ġdisoccu pati
Ġsvilup pati
nce s
ĠP ok
Ġaspetta ndo
ĠB ed
Ġidone o
ce mia
ia li
Ġpre mere
V illa
F C
Ġproro ga
Ġso gna
Ġonora r
udent e
ĠCAL Z
ĠA ct
Ġconosci ute
uot o
Ġtro pi
Ġ cori
Ġpar ler
Ġur genti
Ġspa ccio
Ġd ivenuto
ĠAre zzo
Ġaffi liat
ĠE sa
A ttualmente
am pli
Ġf ot
Be n
Ġprogressi va
Ġanali zza
Ġro tto
ĠI ngr
plet a
Ġrisa lto
Ġcattura t
tt adini
Ġcorr ispe
Ã £
ĠD AL
im mo
ĠConside r
ĠPr ivacy
Ġrive nditori
ĠI ni
ĠS pri
ĠM alta
versa li
Ġprem iato
Ġconfronta t
Ġinge n
ĠThe r
ET TA
ĠTa t
Ġparla mento
fa rma
ĠFac oltÃł
ĠAl fr
Ġdosa ggio
ĠSU L
ĠSt andard
Ġcol tello
o untry
lo ni
Ġsa gge
Ġec zema
nzia menti
av vero
Ġraffred dare
c ountry
X T
onor a
Ira n
uo vo
nci Ã²
Ġmicro foni
Ġgue rr
ĠV O
z oni
Ġtra l
ur ing
Ġattenta t
Ġsa pone
Ġ pseudo
Ġparassit i
ĠL is
ĠG ene
ĠTec nico
Ġperno ttamento
ĠRe ale
Ġsoffer enze
Ġaccess orio
A ltri
ĠStat uto
Ġindivid uati
Ġspettac olari
ĠMe ga
Ġbambi ne
Ġnave tta
ĠI C
Ġprote tti
Ġrina scita
ĠDire ttivo
Ġcomp ila
Ġincar icato
ĠPosso no
ĠPo polare
Ġim porre
Ġricer catore
qua l
EN A
oo oo
ĠA ziende
Ġrile vazione
Ġfu ne
ĠAm sterdam
Ġfore ste
Ġdire ct
Ġstrutturat o
ĠCarne vale
Ġfac olta
ĠAlessa ndria
Ġpa storale
ĠSa ssu
ĠPr ivat
Ġutili zzi
ĠNUO VO
oce ano
ĠMini stri
c utive
Ġcamb iata
ale r
mar ino
interpre t
ĠSte ve
Ġpe sant
ĠC orsi
Ġinsegna menti
Ġca cao
Ġmor ali
ĠClient i
Ġraggiunge ndo
Ġafferma zione
ĠMar y
g nese
Ce rchi
ĠCol diretti
so tto
Ġgiud ica
Ġu ltr
Ġit s
Ġaver l
Ġo ther
Ġrot onda
pri mere
Ġrinno vata
Ġgio cate
Ġidrata n
ĠCi vita
Ġenerge tici
i ntermi
Ġprefer iscono
Ġidratan t
Ġv om
D unque
Ġattre zzi
Ġr urale
Ġragione vole
Ġsalvata ggio
or ologio
k l
n ut
ava mo
ĠCa sti
ĠRodr i
Ġpa lio
X X
Ġricev ute
g uo
vent Ã¹
Ġscio gliere
bri o
ĠD iver
lent a
ĠConc orso
U P
Ġ igno
Ġtrover anno
ria mente
l line
Ġpar quet
Ġpad i
Ġsettima nali
Ġvede rlo
Ġali menta
ZZ O
Ġapprofond ito
Ġba nchi
Ġcompati bilitÃł
Ġorganizzat ivo
i cate
gi li
ĠS D
Ġabbando no
ĠG il
Ġaverl a
nd ore
ĠCol m
ĠF O
G IA
Ġf ire
Ġmiliar do
Ġbasta no
ĠDemocra tico
ĠPre zzi
ĠSi mona
ĠB assi
ro li
ĠFra nca
ave va
Â° .
ni s
sset o
Ġporta n
Ġ ibri
Ġcomb att
S TA
a ncio
Be r
m us
ĠNessu na
Ġgiornali ero
ĠF rie
Ġapprofi ttare
Ġster e
ĠPe nsi
Ġodi o
Ġassicura tiva
Ġdispo sta
ĠRa t
Ġe terna
Ġfragi litÃł
Ġsint onia
ĠT ai
OR O
Ġcosme tici
Ġulti mamente
k h
Ġarriver anno
Ġaug uriamo
Ġfr anco
Ġ alpini
Ġportan t
o pri
Ġinf anzia
ng u
Ġrima nda
t estato
pro fe
sti citÃł
Ġbrasi liano
ĠRoma nia
Ġcaut ela
insegna n
Ġsom mato
g nere
insegnan t
Ġtele matica
bi zione
a rmato
ap pare
Ġsubi sce
Ġpremia zione
Ġprofu ghi
Ġsi ero
Na poli
Ġpart y
ĠDona ld
Ġprofe ssori
tta ggio
Ġma schio
Ġsposta rsi
Ġista nza
Ġpensio nati
Ġstat ue
Ġcardi nale
Ġute nsi
Ġriconosci menti
ĠCol li
Ġri car
nna ro
b ello
Ġdivi si
Ġsacerdot i
fo x
urat e
Ġpe d
N ello
ĠAm ore
Ġpresent ando
Ġli ght
wa ys
O li
ĠHo ng
ĠRo berta
ma ssaggio
Ġclassi fiche
citat o
Ġfo glia
ĠO vest
ĠIn stitute
Ġaff li
se condo
Ġrite ngono
Ġquota t
Ġlim itate
Ġrespira r
rr ea
ĠQua si
45 6
Ġsufficient emente
Ġse ttimo
ho o
ami d
L ui
osi stema
lia n
Ġrifer iscono
Ġsucce ssione
ĠBa y
mo lto
Ġpreser vare
Ġdeb itore
Ġrice vono
ĠT ut
Ġespre sse
ule tte
Ġag ga
Ġ abilita
mo so
gi nario
ĠS cia
ic le
Ġsigla t
ĠCatted rale
Ġtro ppa
Ġe stro
Ġmagni fica
Ġbos s
Ġdioce si
Ġba rre
ĠE mer
Ġdistribu ire
Ġtr ilo
ĠPlay Station
ĠChar les
Ġproge ttata
ĠÐ ²
ona menti
av versario
lia na
Ġrespirar e
pr iamo
Ġequilibrat a
Ġassicurat i
200 4
sso ne
ĠSco n
a ntis
is cano
Ġ sgo
ĠE conomico
Ġautono mi
Ci ttÃł
Ġattraver sare
Ġpian ura
ĠDe vo
Ġcord iale
Ġpunt uali
ĠSant i
sid ero
str ia
eg h
Ġcomincia no
Ġimpeg nate
pent e
Ġda va
Ġconvince n
ĠParte ci
Ġconvincen t
ĠU ltra
ck et
Ġse e
da bilitÃł
Ġdeli catamente
com pa
Ġcal colato
M essa
ĠN ot
Ġacqui sizione
Ġcap pu
Ġmo nolo
Ġca pri
Ġto po
ĠLa s
t erapia
Ġpubblicitari o
ĠS ebbene
Ġdram matico
Ġatte ndono
via le
Ġmo stri
ĠBambi ni
Ġfar gli
Ġfavore ndo
Ġinquieta n
ĠRosa r
Ġme zzanotte
Ġcim itero
Ġinquietan t
Ġcom para
Ġaccolt i
Ġtrado tto
ĠP et
Ġrestri zioni
Ġmatura zione
Å Ĥ
ill ola
Ġga stro
bbie ttivo
archi vio
Ġ4 50
Ġfe tte
Ġfi or
Ġpro vider
Ġconcede r
ĠO ttimo
ES TI
i sso
Ġconvert ire
Ġsoste nute
abbando no
Ġgom me
Ġsuperfi ciali
ĠPe tro
ĠScon t
eat her
A llo
Ġspera ndo
ifi cato
Ġ sl
v d
Ġado ttata
Ġimpre sci
Ġino x
Ġconvint a
ĠSe ttima
Ġra zionale
Ġsiste matica
P N
Ġtempora nea
ĠF iori
Ġ interazione
nder ci
A ma
ĠSho p
Ġda rsi
Ġlasc iamo
Ġes porre
A osta
s bara
Me r
Ġpura mente
O pera
Ġcolo sso
Ġchiacchier a
Ġeli minato
ĠA ppartamento
Ġke y
Ġri mette
Ġh i
Ġpro cl
ĠBo nus
Ġcatte dr
ĠR it
Ġri esca
Ġcuri osa
a mate
Ġpromo zionali
fi r
Ġconse cutivo
da frica
Ġri parare
Ġcord e
ĠI sola
ĠG od
M olte
Ġsc ontr
a vente
Ġpreli mi
Ġfam ily
m mer
ĠT ot
Ġsba gliata
pd oria
Ġimpie ga
Ġintelle ttuali
u c
Ġmigli orato
Ġdel usione
t ipa
glier a
u ola
Ġ198 2
Ġdie sel
bi d
Ġcompet izioni
Ġg et
tra n
unciat e
Ġba ndi
ĠPe ccato
Ġcentina i
Ġappar so
Ġ armato
nard i
ĠRosar i
Tr as
Ġvo ca
Ġobbli gazioni
Ġre ad
ĠRo ad
Ġfidanzat a
Ġrido sso
Ġpubbli cita
Ġcolpe vole
ĠM B
Ġ11 5
M C
ĠG D
Ġtre kking
Ġ8 4
Ġcanc ella
e red
ĠSassu olo
rma li
Ġpola r
à¸ Ń
M od
ver ete
Ġsoddisfa cente
ĠCa stro
Ġgrandi ssimo
her a
Ġlo tte
Ġfem mine
Ġdied e
e ntro
zzar li
Ġspo gliat
ĠC isl
ĠPerso nali
Ġnole ggiare
Ġk Wh
Ġf rod
ĠA ff
Ġinstalla zioni
Ġgiusti ficare
Ġ sbara
Ġnu do
fica ndo
ĠMa rsi
ĠTermi ni
Ġpo pu
Ġcontrib uendo
Ġdef ault
Qual che
ot s
Ġim pulso
Ġcosci e
Ġtint e
une o
Ġconve gni
A ffi
! âĢĿ
fi catore
ĠGiova nna
Ġre ndersi
nar l
Ġinterpret i
ĠCH I
Ġneo nato
Ġispirat a
Ġlim itazione
ia nesimo
Ġde sidero
Ġarti stici
Ġsant i
ĠS tro
Ġmar m
pi ede
Ġimpressio nante
Ġlascia rsi
Ġch ilo
Ġinda gare
o ffe
Ġeconomica mente
à¸² à¸
Ġrico vero
Ġdomici liari
zzar l
T ÃĢ
ĠB att
Â ·
ĠFi or
Ġdiscri minazione
Ġomo lo
Ġtr iennale
zzarl a
Ġanali sti
Ġprefer ire
Ġtab elle
n testato
Ġmoder nitÃł
Ġconseguent i
Ġ ),
Ġprescri zioni
Ġper enne
Ġgio cata
ĠR S
ĠCALZ ATURE
Ġpre pa
ĠA f
Ġesa gerat
ĠInf r
Ġgioca ttoli
da s
Ġsuicidi o
Ġrid imen
Ġsved ese
a lbo
bo na
Ġfa llo
E s
Ġattr ice
ora ge
Ġfi glie
ĠStat e
Ġm ori
ula t
Ġmassa ggi
Ġb ul
Ġpo wer
narl a
ĠRosari o
x x
Ġj eans
ĠMigli ori
ortu natamente
Ġcommerciali zzazione
ĠFl a
Ġappropr iato
Ġcircu iti
ĠSt orie
tr ie
A rchi
Ġ197 8
spi e
ĠPa ss
LI N
Ġcomuni sta
stre tti
Ġne vi
Ġdistru tto
Ġsche rmi
Ġboni fica
I nghilterra
ha ha
Ġsemifi nale
Ġnut rienti
pe o
Ġconsegu ire
Ġcar am
Ġpo ltrone
Ġrila nciare
ca sa
Ġlav ore
ĠT R
Ġgoa l
Ġdetta gliato
ĠCE O
Ġspeciali zzate
Ġfarma colo
Ġrispe ttando
Ġ197 0
Ġprenotat o
ĠA va
ĠLe tto
ĠU fficio
Ġca val
Ġtr ibu
ĠS tri
Ġreli gioni
Ġinquinant i
ee p
Ġstra niera
lo w
ĠEle ttro
Ġde gna
olo sa
Ġdanne ggiare
Ġ insor
H A
Ġespo sta
Ġmae stra
mic s
Ġpre messa
a mat
f il
ma ttina
cche tti
Ġliber ali
Ġdanne ggiato
mar lo
ĠT oma
Ġli scia
Ġpre sc
p pat
Ġcor da
Ġcentinai o
o vo
ĠH el
ĠCese na
Ġscel gono
Ġcant ine
Ġadia cente
ĠSo fia
Ġseme stre
un ch
ĠTe rre
Ġsup port
n tipa
t abile
t erazioni
Ma t
Ġintrodo tte
Ġpolli ce
Ġappa lti
Ġap portare
Ġelettro niche
z ed
scri tta
E li
appo sito
Ġsit uati
n terazioni
Ġpe ople
Ġcy ber
Ġricev uti
Ġorganizzat iva
ali mentare
i nterazioni
Ã¨r e
Ġpe c
Ġne gare
Ġ intimo
Ġset a
Ġinizia ndo
nziat e
Ġripro durre
rrat e
a ntipa
Ġconvert ito
Ġesa usti
s orti
Ġuni verso
Ġclassi ficato
ĠE ro
O ttimo
ĠG olfo
Ġarchi vio
a ld
ĠGia nfranco
Ġ2 20
ĠRa gusa
ĠAggi ungi
Ġrit ene
Ġwel fare
Ġcalza ture
Ġafferma zioni
Ġprofe t
ĠLe e
ĠP MI
Ġperme tter
Ġvia bilitÃł
Ġchiar ito
Ġdeli tto
Ġo ce
Ġsoli dale
Ġge nit
r media
ĠE pi
fe tta
Ġcolle gio
ĠVo glio
ĠR aggi
e rmedia
Ġalle viare
fficient i
t ermedia
ariat o
yo n
Ġma lte
pert i
Ġbea utiful
Ġacqui star
Ġcollabora tore
esplo sione
ĠCol ombo
Ġu ve
Ġpopolar itÃł
Ġe sta
Ġwa t
Ġcompre ssione
land ia
ĠValeri o
cciat e
Ġmi ca
insegnant e
Ġvig neti
S port
ĠPo ker
n termedia
ĠV el
Ġsa una
Ġattribu ito
na che
Ġgonfi ore
Ġtar ga
pa citÃł
nca bile
Ġ8 2
ĠN ota
cchi ne
ge na
At a
Ġingen t
Ġriassu n
ortu nato
ĠD om
Ġrende rÃł
Ġprevede va
Ġcin tura
ĠF abbr
Ġ country
ĠE a
Ġlo s
Ġsottopo sta
Ġsc orse
Ġinde boli
a lfab
t orie
ne sco
Ġoli ve
Ġmetod ologie
Ġcen sura
Ä į
ome traggio
Ġguada gnato
Ġaspira n
lter iori
Ġpre ann
ĠO ttima
z one
Ġport Ã²
Ġdel im
ĠA tene
Ġrichiedent e
Ġluci do
Ġaspiran t
ver se
Ġrappresentat i
ĠE vent
Ġmem bra
Le ggi
Ġrite niamo
Ġpatrimo niale
Ġattac cato
Ġconne ttivitÃł
ĠCo ntra
I nsi
s vizzera
Ġesplod e
o stanti
Ġpunt ando
Ġun guent
Ġsu ppo
Ġsoci eta
EL LO
nio n
A vete
Ġrifle sso
ĠHarr y
ĠM ano
Ġoperant i
ĠFranci sco
d l
Ġman ualmente
Ġmilita n
Ġarre dato
c ostanti
Ġsfo glia
ĠSte p
e mail
e rco
Ġsfr e
ĠCo stitu
Ġ invent
ĠPoli tica
Ġsottoline ando
d uto
Ġmilitan t
ad u
rca n
Ġmani pol
Ġdistint i
ila n
r abo
Ġmo stro
ĠPe tr
Ġchiar imenti
Ġinva d
Ġsoste nendo
Ġap pl
E ppure
Ġsi ner
ĠMa rta
Ġpro ib
inca n
Ġ antia
Ġseg ua
ĠDol omiti
Pr evi
Dat a
Ġ9 3
C ontr
ĠRistorant e
ĠCultura le
Ġricorda ndo
Ġassi st
ĠMar vel
Ġe tica
Ġrifi utato
ĠCast ella
Ġinvi sibile
yo ff
Ġqu attord
or chestra
Ġavv iata
ĠSte fania
ĠVie w
nsi bili
ci fi
ĠT orr
Ġde gno
Ġfu ggire
cit y
Ġsc ora
pera r
Ġdar gli
Ġ interazioni
ĠMa g
Ġva sche
Ġm ilano
ĠF ashion
EN D
a rabo
Ġscult ure
Ġj o
nghe ria
Ġdidatti che
h l
ab ito
Ġac uta
incr edibile
ja n
ĠG ino
Ġre agi
Ġpar li
itant i
go nale
Ġfa x
Ġinformat ivi
ĠRe cord
ho st
Ne w
ĠIm prese
Ġg adget
Ġchi mico
... )
Ġma ssime
Ġtra uma
Ġsalvaguarda r
Ġ anelli
sco n
Ġcicli smo
anima zione
Ġsen s
Ġ atle
Or e
Ġsalvaguardar e
ste rebbe
Ġingr a
lc oni
Ġcop pa
Ġaggiunt ive
i mer
Natura lmente
Ġsospe tti
ĠB O
ĠFe rr
Ġ igiene
gat ivi
St iamo
Ġma ci
olle y
Sit uato
Ġthe y
atta ci
A ttenzione
Ġab oli
n tabile
Ġd iger
Ġ costanti
Ġsy stem
n tossi
incan t
ccant o
N ota
o stanza
ĠL G
ĠMo ndiali
ĠQ ualitÃł
Ġg ita
Pre zzo
C ir
ĠGr eco
ĠI van
P oli
p y
sto viglie
Ġautono mamente
vic o
Ġpa gati
ĠWord Press
cur ity
Ġindustr ie
Ġ ??
Ġamici zie
adi u
t erco
jo y
' t
Ġve da
ĠPo tre
ĠTras porti
ĠCe ntri
Ġproie zioni
Ġod ore
Ġraccomanda zioni
ĠR ico
ĠM ol
I nna
Ġmulti mediale
ĠE gitto
ĠJ im
n terco
Ġlon tane
ĠElisa betta
Ġba sti
Ġviaggia tore
Ġsed uti
ĠF att
ĠSa ndali
Ġch iamo
accia r
ĠS k
ĠB ello
F oto
ĠF ru
Ġconne tte
Ġsim patia
A rgent
ĠCro azia
A bruzzo
ĠCa rt
Ġdife se
i nterco
Ñ ĩ
Vene rdÃ¬
inf o
ĠM ali
Ġcompet itivi
t adini
alle stimento
c opri
ĠGold e
ĠVale ria
U omo
Ġque r
î¥¤ î¥¤
Ġarti colato
Ġur genza
ĠSavo na
e rebbe
Ġmem orie
Ġpregiudi zi
Ġassu mono
poi n
o pic
Ġdeli nque
Ġappre so
Ġvaluta ndo
e ntra
ssant i
Ġletter aria
Ġderiva no
Ġmultimedia li
Ġimpa zzi
ĠTant i
AS S
ĠJ ane
Ġcontempora nei
Ġbibliote che
Ġt wo
me cca
Ġinfi nita
Consi d
e missione
ĠPr ime
atti ve
bre se
Ġstam pato
ru m
Ġfotovoltai c
Ġd ic
Ġpl uri
Ġined ito
Ġfotovoltaic o
ĠA CC
Ġ antivi
ani e
Ġatten zioni
In sta
Ġinv iate
impo stazione
Pubbli cato
Ġappre zzata
ĠBreak fast
ĠMe rc
so prattutto
Ġre com
Ġed ito
Ġconsoli damento
Ġl ungi
uo se
perar e
Ġtrasc orsi
Ġcircondat o
Ġcompli cata
Ġaccattivant e
Ġaff ollat
Ġna zionalitÃł
Ġchita rr
Per chÃ¨
ĠJ unior
Ġingr essi
ica go
omi cidio
ĠBambi no
Ġine si
Ġpotr este
Ġfonda tori
Ġcamb iale
ĠSal vo
Ġcerti ficata
ro tti
ĠJour nal
Ġconcentra rsi
Ġfanta stici
ĠR om
Ġ sna
Ġlo ve
ĠPer ciÃ²
ac quirente
Ġproce ssu
Ġde gra
ĠRe cu
ĠRe n
let o
ul azioni
p n
Ġ amate
Ġge tta
Ġ12 00
ĠPer i
ĠGri gio
Ġl ire
is pirazione
Ġcrea tive
Ġte glia
E t
ĠR ispetto
Ġregi sti
A rma
Ġadatta mento
ĠCa rmi
Ġtermi ca
Ġse ggio
Ġlibre rie
Ġmanife sto
all one
n tadini
ĠMar ket
Ġgalle rie
Ġcasse tta
Ġdife nde
Ġ intermi
ĠFl ash
Ġsimboli c
Ġrichia mare
ifi c
ot ico
Ġ sorti
ĠG am
Ġsimbolic o
olar mente
Ġdiscr eto
oli va
pa olo
Ġbiod iversitÃł
Ġda rti
ĠCoopera tiva
Ġesclusi ve
Ġsagge zza
Å ¡
pri me
allo ggio
Ġautori zzazioni
cci ola
Ġaffi dare
Ġna no
Ġ9 1
Ġpa ghe
ab itudine
ĠC ori
ĠA tt
Ð ¹
ĠPotr ebbe
Ġmuo vono
Ġeste ndere
Ġtra va
Ġra nge
Ġdent e
St e
Ġriu scÃ¬
Ġfronte ggiare
appo ggio
ĠE qu
ndi bili
! .
Ġtar do
Ġsince ramente
Ġricopert o
ĠLi bertÃł
poin t
Ġe h
Ġrici clo
ĠPa rla
Ġvor ranno
n uncia
Ġcampa ni
Ġmigliora ndo
Ġcaut elare
Ġcent esimi
Ġdap prima
Ġaffasci nanti
um ore
ĠH ollywood
Ġlo giche
Ġconceder e
ĠRoma ni
Ġk i
Ġ svizzera
Ġcombu stione
Ġdu plice
elle ria
Ġ sk
Ġgrandi ssima
Ġterr ore
Ġim para
Ġapre ndo
we rs
Ġdeter i
B ambi
Far e
ĠGar anzia
Ġsottoval utare
Ġcondi zio
Ġstabili menti
Ġacu stico
one ro
che tta
ĠR iver
Ġmu lta
ĠA ttenzione
Ġ inchio
cat ed
Ġcarb one
nor a
Ġnuvolo so
ing endo
Ġbrillant i
Ġmirat i
cerat a
pro duzione
Ġincide r
Ġrafforza mento
Ġcol ora
o ntadini
Ġperce pito
c ontadini
ĠLa nd
Ġappli cati
Ġbianche ria
Ġli st
ĠLabora torio
Ġince ndio
ĠGolde n
auto mobile
ĠF uoco
gi r
omo nimo
Ġcompr ave
S SI
Ġor mo
ĠPro gram
ĠNat o
Ġano nima
Buo ngiorno
Ġf ianchi
Ġmicro fono
ĠK y
ĠBas ket
Ġsint o
ord eno
ĠB erna
Ġmo sche
c ostanza
t icor
fi eld
Ġricorrent i
Ġviolent o
Ġden unciare
Ġinqu inamento
o nva
Ġcopert i
ki stan
ssi va
zz oni
Ġincider e
Ġe strazione
Ġrilie vi
auto strada
Ġmat urato
I ni
Ġoppo sta
arb itro
n ticor
Ġosteo condrosi
Ġbro do
ĠA rci
ÑĢ Ð°
nerant e
Ġd ira
rrat i
ear e
c onva
ĠQU I
C ro
Ġdichiara r
Ġintrapre so
Ġince ndi
Ġarricch ito
ĠA z
Ġcorridoi o
giar e
ĠEntr ambi
Ġri parazioni
ur ne
po ni
Ce ntro
Ġimpe nsa
Ġ198 3
Ġsop portare
Ġtelevi sore
coma ndo
ĠNatura le
Ġblo ck
ĠBe ppe
a gra
ĠCo nse
Ġspeci ficare
Ġsorpre so
Ġdivul gazione
Ġimpo stazione
nal do
ĠCalda ie
Ġimpeg nativo
ill y
zat i
ĠW W
operat o
Ġrecl amo
indi pendenza
A ltre
Ġ copri
Ġla b
" ?
Ġbianconer i
ĠSta rt
mat ologia
Ġdo nato
Ã© mon
Ġbu c
Ġnu vole
Ġspo l
Ġl ieto
Ġtea tri
Ġcollo cato
Ġvi venti
ĠDimen sione
ĠLIM ITA
dat evi
ivo no
a rie
ĠF am
Ġoccu pare
Ġmeravi glie
Ġsoffer ma
ĠEn glish
Ġrecu perato
Ġsignificat ivamente
Ġtot alitÃł
Ġstipe ndi
Ġsed uto
Ġta lu
ĠDEL LE
Ġdichiarar e
Ġ8 7
Ġpre tende
c s
Ġrica mbi
bi netto
Ġba n
Ġpla n
Ġle sione
a nticor
Ġabbi nare
r n
Ġspo nsori
Ġguant i
Ġ ah
c oca
Ġassi stente
amb ula
ĠV l
ap ore
i ntim
olo gy
ĠFl ore
Ġcontro indi
Y ou
ber e
i ntermedia
equi pa
ĠPo polo
ĠLo c
ĠLu cio
ĠUN I
Ġl omba
Ġcinquant a
Ġopt i
ncia no
Î ±
asse gna
Esi stono
Ġ198 1
ĠCo nci
ĠM r
Ġrit ira
ĠH onda
Ġarr ang
rrar a
Ġdemo li
Ġsupera ndo
Ġconce ntrati
ĠInd ustr
Ġconsol a
i T
Ġte orico
Ġpara metro
gar a
Ġsub li
b ul
Ġ contadini
ĠB anco
Ġregi strate
Ġinterpret azioni
basc iatore
Ġrici cl
ot ball
fa ce
Ġex perience
nder a
ĠJ ones
i nvenzione
Ġotte ngono
ĠRi ser
Ġsegnalat i
Ġnapolet ano
Ġdist or
ĠLu x
Ġfabbiso gno
et aria
Ġadd or
Ġpoter lo
Ġconi uga
Ġcom mem
g uri
ĠR I
ĠR id
sitat e
Ġattre zzato
Ġripa ro
rre zione
ia rsi
p ela
ĠRi struttura
Ġfi ction
ĠSa sso
spe tto
Ġintesti nale
gi bili
Ġorga nica
Ġbal near
Ġmusul mani
mera t
tor y
Ġtermi nare
Ġemer genze
Ġla cu
ĠGior dano
ĠFi u
Ġso ft
Ġseparat a
ĠQuin t
Ġscon gi
iv Ã²
t opic
ncen t
Ġbuc o
Ġregolar itÃł
ĠN ight
Ġli ving
old e
Ġcri tto
Ġbarbe cue
Ġdis carica
Ġneo nati
Ġabb attere
Ġamplia t
Ġso litari
ĠO ver
nit alia
ivo li
ĠCro tone
Ġsh ampoo
Ġacce rtamento
Ġdiri genza
Ġto pi
Ġmette rÃł
Ġdiffi colt
ĠCapo danno
coll a
ĠInc ontri
mpa tica
Ġom br
Ġpu liti
Ġappro ssi
Ġcontro versi
Ġpassi vo
Ġe tico
ga ma
Ġani mato
or m
Ġtro no
Ġregola bile
gne ria
a uri
ed r
Ġsi lic
A go
ĠK h
gra fe
Ġann uo
Ġsuccede r
Ġcurat i
Ġster ili
Ġ197 9
B ER
Ġparro c
Ġpropriet aria
b il
Ġintro duzione
Ġola ndese
c opi
Ġasci utto
Ġap porto
Ġprepar ando
P ic
nn elli
Ġgia lla
Ġcampe ggio
Ġparroc o
ĠPoli tecnico
Ġrice verÃł
Ġreper ire
Ġcommi ssa
Ata l
eg hi
Ġca nno
Ġmut ui
nziar e
Ġtele camera
Ġgiornalier e
Ġb olo
ĠLe cco
Ġmecca niche
zz Ã²
p orare
Ġria pertura
Ġpresunt a
Atal a
Ġma xi
ffa t
Ġvo tazione
ste ria
Ġdottore ssa
ĠNo bili
ĠA po
Ðµ Ð½
Ġregistra no
Ġma esto
r medi
ĠJo e
Ġbi nari
Ġconse nsi
pa ge
esi gn
Ġaff onda
nder lo
Ġsettentri onale
e rmedi
t ermedi
pera nza
ã Ĥ
ĠP ul
f ondo
Ġtransa zione
P RI
Ġistitu zione
Ġpi ro
Ġt oscano
Ġse parato
Ġab itato
Ġla menta
par d
Ġf iere
ĠV ini
n termedi
ĠMa nca
pr ite
Ġconversa zioni
wi kipedia
p illola
onier e
i ntermedi
ĠPa sso
Ġmer itano
zu ela
Ġpotenzia r
Ġso ffe
Ġfr eno
Ġstri scia
Ġconsi gliata
Atala n
bl Ã¹
Pe nso
Ġpre ndo
Ġpotenziar e
Atalan t
Per Ã²
Ġinc omi
chi na
ĠV iterbo
Ġfront iere
OR T
Ġtrasc ura
Ġconno t
Ġsudd etto
Ġmodula r
Ġpl as
ĠInd ustria
Ġpote ssero
mina n
Ġesper imento
Ġnasco sta
Ġm p
ĠLi bero
ĠAL L
ĠO R
Ġvi sioni
orta l
i stra
Ġri portano
Ġflo tta
â Ĩ
ro ssa
Ġlaur eato
Ġpar lerÃł
ĠIn na
ĠCa si
Ġpersona l
as sor
ĠO x
Ġ intui
A b
ĠCo stant
dat ure
rti menti
ut ro
accia i
st Ã²
Ġpreparat a
d ore
Ġe mble
Ġricer cate
Ġintr i
ĠRESPONSA BILITA
Ġbee n
Ġe i
Ġpsicolo go
Ġsimul azione
Atalant a
Ġve scovi
ziona ria
yl a
Ġscr ivi
ĠMezzo giorno
San t
Ġdolla ro
nsit o
Ġpre stato
minan t
ĠMilita r
Ġricer cato
Ġdecli no
Ġparer i
Ġatt ualitÃł
t ologia
Ġnat e
Ġmalte mpo
cu o
Ġlavora zioni
Ġsoste nibili
r mati
Ġannu ali
Ġparru cchier
r ancia
Ġac ci
Ġme tti
Ġatti vita
U r
e rse
m ba
IA MO
ĠWa tch
Ġmeraviglio si
ĠF ul
Ri cor
Ġfiloso fo
Ġge ni
zz le
Ã£ o
Ġgiudiziari o
Ġterr anno
ttat ure
Ġna use
ĠY ama
Ġla vare
Ġapert ure
Ġta zza
Ġ8 9
Ġplu gin
Ġdolce zza
Ġalternat ivi
Ġabit uato
ci do
ĠRe search
Ġfinali zzati
Ġasse gna
Ġli nfa
vvia r
ĠP ad
ĠSpa ce
Ġgr attu
vviar e
da merica
Ġadempi menti
nsi vi
ĠÃ ī
che ranno
p v
ĠT uni
Ġcerte zze
Ġesa tto
Ġquarant a
Ġconsoli data
onf ondi
n tona
Ġten iamo
op t
Ġinda gati
Ġpresunt o
ĠOli mpiadi
ĠRegi stro
Ġdri nk
as ca
Ġentra ndo
Ġsent enze
Ġfram menti
Ġgiornali smo
ĠT orna
Ġrimo sso
Ġregola mentazione
Ġsma lto
ĠF atto
ĠTem peratura
Ġcredi bilitÃł
Ġca ppo
Ġumi d
i nqui
Ġtende nzialmente
pa tica
Ġsponta nea
n chÃ¨
Ġtrasforma zioni
Ġsba l
Ġinfor mation
Ġinsi d
a rancia
ĠFu ori
Ġma ltr
alla r
Ġo ffer
Ġgem ella
Ġiro nia
Ġcap pella
Ġtra u
acce ttazione
Ġconven zioni
ĠA ni
ĠM ap
g hani
Ġtempesti vamente
infr a
ĠAlle n
Ġarter iosa
no va
nda c
ĠCOM P
Ġmont i
TI CO
Ġsald i
e stata
Ġsup portato
Ġattraver sato
a nnata
cia o
ĠN orth
S L
Ġri st
lu igi
Ġtraccia r
o ntabile
c ontabile
Ġso vi
Ġdescri tti
Ġod ori
Ġfragi le
Ġspo sato
RI G
L ei
sca l
Ġcala t
Ġincint a
ĠDe vi
Ġtint a
Ġtracciar e
Ġinterro tto
mer s
ĠSe ttore
Ġfra gra
Ġsugger ito
Ġschiera t
ĠLega mbiente
ndac o
Ġpre cari
Ġsi d
Ġmi ssio
ven ia
D ai
Ġda ranno
Ġcar ni
col gono
Ġbor ghi
D alle
Ġscato le
ĠE C
ĠSele ziona
Ġripa rte
pot enza
Ġdipe ndono
ma rt
ĠT icino
Ġconiu gi
Ġas pir
Ġ9 4
Ġcla n
ĠSam u
avi o
prar e
Ġ costanza
ĠG olf
olan t
Ġgentile zza
Ġmoto cicli
Ġprigioni e
ĠH ot
Ġinfermier i
oter ape
Ġscude tto
Ġrisu lti
Ġsba glio
Ga r
Ġquantita tivo
Ġtrasforma rsi
elo tti
ĠTa l
or dan
ĠA ttr
Ġspirit uali
Ġmater nitÃł
e strazione
Ġam missione
Ġinflue nze
Ġcompre nsibile
Ġcellu lite
ĠÂ ©
Ġ asti
tta menti
ĠPa ssa
Ġmole cole
12 3
Ġcomplessi vi
Ġcongr esso
A lta
Ġri utili
ĠNe uro
Ġspr u
ĠChel sea
t estata
Ġsv uota
Ġb amb
Ġsped ito
ea u
osser vazione
Ġrom pere
acciai o
Ġ[âĢ¦ ]
Ġri med
i um
ĠM ira
Ġnostal gia
Ġre sort
me ne
ĠMa ncini
rder e
Ġperme tta
a bru
Ġlice nziamento
à¸ ĩ
Ġ coca
Ġprigionie r
Ġe missione
ĠL CD
p ment
ĠP orte
ny a
Ġspa da
Ġsede r
gue z
Ġinc li
Ġba ci
ĠEdo ardo
Ġpercorr enza
Ġdedica rsi
Ġpo stici
i h
Ġprogram mato
itat ivi
Ġdo nazioni
Ġflu ido
ĠBria nza
Ġdecr eti
Ġrite nuti
ĠL iver
EN O
que n
ĠF le
Ġprote tte
pat ico
Ġce ne
ĠL inea
ggi ne
Ġinfor matiche
ĠNu cle
Ġfeste ggia
Ġper qui
Ġcomic o
Con t
ĠEuropea n
Ġmo lla
Ġfa ngo
456 78
ma x
Ġcar is
C am
Ġavvici nare
Ġricom pensa
Ġdis perazione
Ġecce zioni
Ġ copi
nziar i
Ġfer mate
Ġrum ori
Ġort odo
im ple
zia ni
ĠCommi ssario
ĠA ward
Ġve nir
Ġadd estra
Ġel ico
Ġane ste
Ġbrac ciale
met e
Ġfortu nati
Ġf ito
Ġver bali
Ġrisve glio
Ġmanife stato
ĠCasa le
Ġcopert ure
ĠCh icago
Ġt weet
Ġester a
Ġra so
Ġbr ivi
o adiu
ome o
c oadiu
Ġcr a
Ġpossi bilmente
Ġnu bi
Ġ197 5
Ġse ggi
Ġinsa l
ĠPre fer
ã Ģ
ca ce
Ġscri pt
Ġarr abb
Ġspe zie
Ġso v
Ġcardia ca
ulli smo
Ġed itori
Ġt orri
ĠSa pienza
Ġri monta
Ġtr iennio
Ġpront amente
Ġ intermedi
Ġtrasfor mata
si ona
ĠPart ner
Ġaut un
Ġcombi nato
c otta
add i
ĠFor lÃ¬
st olo
Ġta rta
st yle
N L
cedent e
ĠS PA
Ġval gono
Ġmona stero
Ġcoscie n
infor mativa
Ġmo menta
Ġro ad
ĠPotr ai
Ġv italitÃł
cit aria
appa lto
i ntona
irat a
Ġh y
du ci
Ġwo uld
Ġorganizzat ive
Ġposi zionare
Ġ avente
ĠCu ba
Ġcantant i
Ġb ody
j uana
Pe nsa
ĠPar a
Ġam mir
Ġci tazione
mer anno
Ġcomporta r
Ġsci v
Ġsvolge ranno
ĠJ et
Ġconsider ano
elli t
ĠRis par
Ġas f
Ġlod e
ndi cap
inc ro
ĠEurope i
tran t
nci clo
Ġclau sola
Ġcomportar e
Ġpoi n
Ġso stituto
u va
Ġcelebra zioni
o glie
Ġsucceder e
Ġde ced
Ġmo tto
ĠCa rro
Ġantiossi danti
Pe rtanto
ĠC uneo
Ġmanca n
l gono
Ba sta
ccant i
ga rsi
Ġ conva
Ġspe cul
Ġinfa ntile
Ġavve ngono
ĠYo ga
alt Ãł
Ġriv elano
Ġimpre zio
str ade
Ġre stante
ccor si
fi sico
el ine
Ġrivela rsi
fi si
S D
Ġdife nsiva
Ã Ĥ
Ġesclu sa
Ġintr inse
ĠLIMITA TA
Ġno ce
h h
Ġcan dele
Ġtex ture
s gra
Ġmancan t
ea tro
Ġripo sti
Ġarche ologico
Ġdesiderat e
lo ok
iti nerario
ĠVi ola
ĠCol om
Ġfa una
Ġanticipa zioni
J o
Ġregi stri
Ġspent o
cono my
Ġ pillola
Ġsu rro
appe so
Ġattrae n
Ġregistra zioni
Ġtempora neamente
Ġattraen t
Ġte nore
Â° ,
A li
ĠPd l
ĠRe wards
ĠMa gna
Ġma nsioni
a rmati
Ġutilizza bile
ĠAgri gento
Ġpro vate
Ġincant evole
a sser
be s
Ġsconosci uti
Ġperplessi tÃł
Ġequilibrat o
et utto
IA LE
u ssia
g ol
Ġpred ili
Ġama ro
Ġdeli zioso
Ġre duce
Ġcere brale
ĠF ab
ad or
Ġleg go
Ġde roga
Ġla mpo
id one
Ġdeci siva
ĠPro vince
ront i
Ġcardia c
Ġagi scono
Ġgarant iti
Ġma y
Ġcap pello
Ġas sort
Ġsviluppa no
Ġdesiderat a
Ġpassa n
Ġvole vano
Ġazz urra
Ġparte no
Ġcorte o
ĠS chia
ĠS chi
atter istiche
S T
ssio nato
Ġmesc olare
cin t
ell y
com u
Ġraffi nate
Ġsco oter
Ġcad uto
ĠWilliam s
Ġpre avviso
Ġcassa forte
Ġ coadiu
ĠNa r
Inve ce
ĠB au
Ġd istra
Ġauto d
eside r
ĠParadi so
ĠV olley
Ġritro vano
ĠSam pdoria
Ġsalat a
Ġintr ave
ĠGRA TU
ex it
l ve
Ġquadrat o
Ġpalesti nesi
Ġdiv orzio
ĠCo mando
ggent e
Ġproge ttati
Ġpassan t
Ġprovved erÃł
eg ola
Ġglu c
ĠNo leggio
Ġpre ro
Ġt ho
Ġt om
Ġpri gione
P assa
c Ã²
Ġst ory
ita zioni
ci Ã³n
Ġher e
Ġalleat o
Ma rco
ĠLu ngo
Ġgra fiche
ltr imenti
b bio
Ġelimina ndo
Ġconva li
Fina lmente
dont oia
Ġcant autore
Ġinv olont
Ġmagni fico
ĠPa tr
ĠLaur ea
ĠTo y
ĠSu b
ĠVilla ge
ĠO sser
Ġtassa zione
Ġfa gi
Ġfortu natamente
ĠRap porto
Ġanda mento
Ġinca sso
Ġanno t
ig ua
Ġd j
Ġdo veri
Ġ sle
Ġvede va
ĠTech nology
Ġiscr ive
Ġdidatti ci
ud ini
se rie
Ġgrave mente
Ġveget aria
n b
Ġali mento
t ech
ila ndia
Ġabbando nati
n testata
Ġnic chia
Ġcoll age
Ġcompa iono
Ġre mu
Ġcom portano
wa gen
Ġli no
Ġpuglie se
Ġenerge tiche
Ġcontradd i
Ġscal da
zi ng
Ġcer a
Ġalle stito
itat ive
Ġten ute
Ġappo sta
Ġpr urito
Ġcoper chio
agi ng
Ġva ga
esc lusione
n Ã§
ĠFr ed
Ġj ack
nze ro
v olto
ĠRa y
str ali
Ġriv elazione
Ġtermi nata
ĠG ori
Ġespri mersi
T H
Ġconcom itanza
iden tificazione
Ġconven zionale
Ġda ns
Ġimmer si
Ġrive nditore
Ġchiacchier e
Ġdigni t
Ġpasticce ria
Ġbritanni ca
Ġasse gnare
Ġver rebbe
Ġe a
pa d
ĠU craina
Ġcavi glia
Ġisolat o
ĠEn el
ĠAl fa
Ġscamb iare
Ġagev olare
l avoro
t inf
ĠA udi
Ġcardiac o
Ġcant i
lia ni
ĠâĤ¬ ,
Ġscar so
Ġ armati
Ġdire ttivo
Ġafferma ndo
Ġestre mitÃł
Ġimple mentare
li s
Ġarchitetto nico
Ġd if
Ġor moni
ĠB ack
Ġri confer
Ġper e
ĠCateg oria
ele ttr
Ġsva go
n tinf
ĠCol or
bra r
E B
Ġsta nca
Ġsec che
Ġvend itori
ct ure
b or
ĠE bbene
F R
Ġt oscana
Ġapo sto
anic o
ich itÃł
a ntinf
bo n
Ġsoffe rto
Ġacce ttazione
Ġpalat o
Ġza ino
EL LE
Ġseder e
ĠPia ni
Ġcap itare
Ġdialo ghi
Ġsatellit e
Ġrima se
Ġappare n
Buo n
udie nza
quen t
H anno
Ġemer gono
Ġv it
Ġdis pensa
Ġcattedr ale
ĠM ori
Ġritr atti
cchia r
Ġmettet e
ĠChirur gia
Ġe nzi
Ġoccu pata
err y
Ġcit azioni
Ġsce so
sci e
Ġconfer isce
ĠSer ena
à¹ Ģ
Ġserbat oio
Ġuniversita ria
Tro va
h u
Ġcondo mini
Ġmo zione
Ġ celle
Cod ice
aver gine
ĠE i
ĠFat e
Ġma nico
L US
g or
Ġapparen t
Ġver sato
Ġsuper ano
el u
ĠEd itore
rt ene
Ġ abru
i gere
ĠP VC
ĠGi udi
ĠVirgi nia
od ore
Ġspa zia
Ġle a
inci denza
Ġdimo strata
Ġlava stoviglie
Ġmal va
ĠX II
Ġ10 5
sc olta
Ġecolo gica
Ġper l
ĠMo du
Ġalter azioni
tt Ã²
G ui
S ca
I sl
Ġrim pia
Ġspecifica mente
Ġdigi uno
ĠC d
ĠAmb ient
âĤ¬ âĦ¢
Ġsca li
Ġ ï
ĠPa rro
Ġba lconi
Ġfragi li
ĠF orma
Ġantibiot ici
qua si
Ġsilenzio so
lo tti
Ġf oro
ĠAppe na
ĠV ed
Ġre stanti
Ġper lo
Ġla yout
Ġquant omeno
Ġ ango
vvi gio
Ġstup ore
Ġprivile gio
Ġsplendid i
ĠW eek
Ġ sgra
Ġprestigio si
Ġsuscita t
ĠS periamo
p eli
Ġrilasc iare
bo nato
Ġmer iti
ma nda
Ġno zioni
Ġann unciare
ill s
ĠGi ur
em ia
Ġ8 6
Ġpre ndi
Alcu ne
ĠVe scovo
Ġre su
Gi u
il dre
Ġincapa ce
Ġscrivo no
Ġeconomi e
acciar e
epi demia
Â ©
Ġdescri tta
c v
Ġaccurat a
Ġsperi mentato
ĠDispo nibile
Ġsma lt
Ġtur bo
ĠNo bel
Ġmo st
Ġcondivi dono
ita ria
I struzione
ĠDi sco
l pino
Ġcontrollat i
ĠA nder
ĠG ol
ĠTo ny
ma ker
Ġcam per
ac r
Ġinsal a
Ġre gge
Ġidro massaggio
Ġdro ghe
a zzer
ĠGarant e
ĠD elle
ĠOut let
ĠGe nnaro
Ġbatte n
Ġsugger ire
ne itÃł
Ġmo sso
ngrat ulazioni
Ġri mettere
M aria
me tt
Ġvend ute
Ġtele spetta
c oglie
Ġcosidd ette
Ġgr ida
Ġpresied uta
Ġ contabile
Rispo ndi
Ġe ccita
mo nd
Ġfar f
ĠPe so
Ġd isso
vid eo
Ġla ghi
ĠTe st
Ġca sual
ĠT irr
Ġl ordo
Ġrivi vere
Ġinsi gni
Ġbatten t
ĠBa sso
Ġresi na
Ġvende tta
Ġsorr idere
Ġriuni sce
ĠMar chi
Ġgrad ito
nar mi
Ġrecipro ca
ĠSil ve
Ġmedici nale
Ġminer ale
Ġthro ugh
n tifi
à¹Ģ à¸
sc iano
Ġ arca
A V
Ġsen tiva
Ġsalari o
Ġsviluppa ndo
ĠGr am
ĠPubbli c
Ġimpo t
Ġdo wn
Ġsma ll
Ġact i
Ġragio nare
ĠB ellu
Ġgluc o
sse tte
cos Ã¬
Ġtr Ã¨s
W i
Ġacqui site
ĠFl ori
Ġk o
Ġse ssanta
Ġtromb osi
ĠMa nfr
Ġrileva mento
ĠAdo be
Ġaltrettant i
Ġmiser icordia
Ġfortu nato
ĠCam p
Ġe stero
Ġb atti
si m
ĠP ice
ĠDar k
ĠPok Ã©mon
Ġconsoli dato
T or
Ġmagi strato
r mate
Ġvert icali
o nna
Ġre fe
Ġposte d
St ai
Ġsho ck
Ġacce rtare
punt o
Ġmanife stare
ĠâĢĭ âĢĭ
ĠPoi n
alle anza
Ġ24 0
ĠWa rs
espa nsione
Ġinoltra t
i chÃ©
Ġcostru ite
ĠO fferte
Ġimmen so
iT unes
olic o
ĠSco tt
Ġnottur no
Ġu sura
Ġven tina
Ġsince ro
Ġdome stica
Ġpre sidenti
Ġdel li
ĠG IO
ch ain
o ve
Ġcusci ni
Ġd istanti
Ġipert ensi
Ġu li
Ġaffi dati
ĠHe alth
affi damento
rt u
ili c
Ġespli citamente
ĠU go
Ġ coglie
Ġt icket
ni sce
cchiat o
cha nge
Ġpre ndiamo
Ġho w
M AN
Ġes ordio
Ġ corta
Ġam mala
Ġmano vre
t ola
ĠH all
Ġser ale
Ġso ia
n ell
M T
Ġte ste
ĠMa da
x o
d ichÃ©
Ġfredd i
ĠCa vo
r agi
ĠPubblic o
Ġcorpore a
Ġaccompagna no
Ġ antinf
Ġpermette ranno
ĠChr is
Ġt orte
ĠAl fonso
Ġmedesi mi
ĠA rca
Ġseconda rie
Ġfasci smo
ĠConsi gliere
Ġarr ampi
Z O
Ġdo ppi
Ġcomporta t
cca ggio
Ġidentifica zione
Ġsblo ccare
Ġcontr azione
Ġpoin t
Ġtrattat a
ĠAut ono
Ġconforte voli
Ap pro
Ġ196 8
ĠLo cali
Ġseparat e
Ġrila scia
Ġsf ilata
In ps
Ġsanci t
ĠT ort
ĠCa ffÃ¨
c lu
Ġb ollo
Ġ197 3
Ġsple ndore
ĠSa ssari
Ġricor date
le nze
Ġingeg neria
a topic
Ġinsi ste
nni t
pul si
ĠLo cale
F T
Ġdopo guerra
ho w
Ġfredd e
Ġcoinvolge ndo
Ġincom pati
Ġ cella
n tologia
Ġstrate gici
Ġporto ghese
Ġ5 000
n vento
Ġ menti
Consid e
ĠAle ssia
Ġ astrono
ia l
acce rtamento
Ġvinci trice
Ġobbli gato
Ġsusse gu
A nno
Ġconsecut ivi
dd e
ma g
ĠPa na
Ġ atopic
Ġspre ad
Ġmatrimo niali
mina zioni
Ġsv elato
un dation
Ġnucle i
Ġb ell
Ġtraslo c
Ġ7 50
ĠTre nitalia
Ġtrasloc o
Ġsa lito
i zzazione
ĠArr ivo
Ġacce ndere
Ġpasser Ãł
Ġ197 6
Ġim bara
mila r
Ġconfe zioni
ĠI sole
rl y
Ġspre chi
ĠCor p
ĠFra tello
ĠN icole
ĠG allo
Ġvar a
ĠMe no
u cher
Ġstupe nda
ĠC RE
ssi t
Ġdiva r
Ġro uter
ĠAlle gri
E sse
Ġdisce poli
ĠPisto ia
Ġfor mule
fo n
ĠA vete
Ġci eli
Ġrico tta
B l
ĠP utin
Ġtri o
Ġvede ndo
Ġconce ssa
s val
ba y
Ġedu cativa
ula n
ĠI s
Ġand remo
Ġrige nerazione
Ġpiazza le
Ġstimolant e
Ġscad enze
Ġqualcu n
Ġeffettua no
V endo
Ġsti vali
TI N
Ġfasci sta
Ġ arg
am montare
pi xel
ĠE ssere
mari o
basc iata
nolo gico
ro ma
Ġte ngo
ir le
Ġraffi nata
Ġze nzero
Ġchi o
Ġacti o
udent i
ĠTele com
Ġappo ggia
Ġraffred damento
Ġ invol
ok o
Ã© s
Ġreda tto
r abi
Ġasse mblea
attr e
Ġequ ilibri
Ġ iva
trat a
Ġle ghi
Ġaccad endo
Ġvacci ni
Ġde sta
oli ne
nven uti
ĠâĤ¬ /
ĠV ai
Ġinna lza
Ġtra scina
Ġmobili tazione
Ġpregiudi zio
Ġutensi li
Ġvole ndo
Ġprova ndo
ĠDe n
Ġverifica no
Ġ anticor
Ġrazzi smo
Ġquant a
un zione
Ġrim bal
Ġ antis
Ġori zzont
Ġ peli
Ġ cotta
Ġsicilia ni
ĠA vi
Ġ arabo
Ġbest ia
Ġgesti onale
stero ne
ĠR y
IL ANO
Ġw it
mobiliar e
ĠOl anda
Ġintervi stati
ĠPatri zia
pri se
Ġriso nanza
Ġ36 5
Ġcosta no
mici no
Ġtap par
Ġgiusti fica
ĠDi ffi
ĠDio ce
Ġadu lta
Ġ197 7
ONA LE
Ġsigare tte
ĠInf o
s bu
Ġfra me
Ġtelefo nia
Ġcami cia
Ġdescri tte
Ġantici pata
el ice
Ġf uochi
ĠDo nato
Ġcli matico
Ġimmer sa
Ġcamb ierÃł
Ġpro cla
Ġprinci pianti
Ä ģ
assi a
Ġtr ac
tici tÃł
Ġri nv
Ġlu cro
L Y
Ġperforma n
ĠGro sseto
Ġcompete r
st el
Ġimpeg narsi
Ġscher zo
Ġpi zze
Ġfle ssibili
r es
b one
Ġrifle ttori
Ġ197 2
TI VA
Ġperforman t
Ġme tta
Ġh ist
pot i
ĠCompa ny
st ie
ĠE nergia
Ġespo sizioni
Ã ¥
Ġpia ngere
zio se
Ġge niale
Ġcaratteri zzate
Ġprono stico
ed ire
ago sto
Ġactio n
ildre n
Ġado zione
Ġbolle tta
Ġer gono
ĠCe na
e ndi
ĠE tÃł
Ġpiemon tese
Ġconse gne
Ġcompeter e
ĠL ady
Ġcompet itiva
Ġmat urata
Ġritro viamo
Ġignora t
Ġ inqui
ĠSil ver
vi bile
Ġintegra tore
Ġaranci one
ĠConsi gli
Ġposi ziona
parla n
ĠMart ini
le ggi
sti bili
Ġmet ano
abb o
Ġdiscr eta
parlan t
Ġv orresti
Ġpla yoff
Ġproge ttuale
Ġpo vere
Ġparteci peranno
Ġdivide r
Ġcivi ca
Ġviva ci
Ġmo lle
ĠA wards
Ġoriginaria mente
Ġaro mi
ĠYout ube
ĠAtl a
sia na
Ġinf li
ore cchio
se i
u f
Ġdimenti chiamo
D isc
Ġannu llare
Ġfina nze
Ma l
Ġpot assio
ele ganza
ggi ni
ĠSo uth
a rdi
Ġverifi cati
br ali
Ġconvo cato
a rmate
Ġmi schia
Ġaper itivo
ur si
Ġriassun t
Ġorgoglio si
ES TA
Ġtorna ndo
Ġsudd etta
J u
rci nia
Ġcomp orre
ĠInge gneria
Ġ antipa
IC HE
Ġnatali zie
ĠBu ll
Ġrat ing
Ġintit olata
Ġmort alitÃł
ĠM oni
ĠUt e
Ġgenerat i
Ġpar mi
Ġsom mer
rch iamo
Ġcondivi se
iscipli nare
ĠEU RO
ĠFa st
cche rÃł
ĠVi gili
1 50
Ġe messa
sse tta
Ġpe nnello
E gitto
cha t
ĠLo uis
Ġcom pia
Ġfor mi
Ġe scono
ĠL odi
ĠEr ano
Ġmeta fora
Ġ interco
ĠPal ma
ĠCorr ado
nu cci
Ġtorrent e
ĠRi cordiamo
rtain ment
Ġinfi nito
Ġcomu nitaria
Ġdel uso
zze ranno
Ġcrista llo
Ġspar si
Ġcasse tto
se x
Ġdo ni
interva llo
Ġamiche vole
Ġaccompagna mento
Ġsoggior nare
Ġcorr elate
Ġsiste mare
ca na
Ġcia o
Ġsta bilita
ĠM am
Ġino sser
ĠXI X
Ġridu cono
Ġvide os
Ġperfe ct
Ġantici pare
Ġsignor i
Ġassur do
ĠVe gas
ĠKe y
ingent e
ks wagen
Ġinaugurat a
Ġrico pre
plore r
Ġrafforza t
ĠDi se
Ġpo nendo
a rabi
Ġvint a
Ġcanna bis
Ġba nali
id ro
ea rs
Ġpiaci uta
Ġall atto
ĠRena ult
Ġesa tta
Ġsi sma
Ġtecnica mente
Ġdivider e
ĠO P
ns orio
Ġsempli ficazione
Ġpa ler
S ele
pri ntende
ĠF eli
ĠEuge nio
Ġfratt ura
ĠPu li
ĠCon tempora
Nuo vo
or zo
ÃŃ a
Ġguarda no
Ġdec orare
t if
C onf
ĠP E
Ġdise gnato
Ġri vale
Ġpret esa
Ġste rmi
Ġpro vano
Mi ch
Ġnause a
Ġaffer mano
Ġwa r
et y
uent e
ĠDani lo
Ġpo mer
ĠAtla n
> >
a nteriori
ĠB us
Ġav val
Ġriuscit e
Ġecce d
Ġaccor gimenti
Ġpre messe
ĠI ntro
Ġca rre
Ġporta tori
Su per
Ġmagne sio
ĠP OR
Ġcerti ficazioni
ani ca
Ġh orror
TI S
a ker
sola t
Ġtoller anza
Ġconsu mato
Ġpo eti
Ġpat ch
imma ginario
Ġrespi razione
Ġpla t
no so
ĠQ uar
Ġrivolu zionario
ĠI B
ĠB ue
b iti
Ġaggiunt e
Â Ķ
Ġbersa glio
che t
ĠMi o
ĠCa sta
Ġdis lo
Ġl ieti
Ġ azze
Q L
Ġdiscr ezione
teressa n
r ini
Ġver mi
Ġba nner
Ġinci so
FOR MA
nia ni
teressan t
a nato
ĠMuse i
Ġpert ine
e rd
si bili
Ġfanta stiche
iamo ci
Ġaffian cato
Ġt acco
Ġsba gliare
Ġdivi no
Ġraccontat a
Ġdove roso
Ġbiso gnerebbe
Ġrite nute
Ġve ndono
Ġince rtezza
Ġsalta t
Ġarr ivÃ²
Ġparall ela
Ġced uto
qu ello
ĠAut oritÃł
nolo gie
Ġdire zioni
Ġaccetta bile
Ġ armate
ident e
ĠS li
Ġinqu irent
ghani stan
es perto
Ġantro polo
Ġcopia r
Ġau mente
ĠK im
Ġsogge tte
ĠE state
Ġ196 9
Ġrisa lente
Ġpromette n
unt u
Ġsegu irÃł
Ġprometten t
Ġmunici pale
Ġporte ranno
Ġgra nata
Ġved rai
ombra n
Ne ws
Ġpro ject
Ġw hen
Ġsostitu isce
ve cchia
A LE
iat ura
ĠRice vi
Ġcri mine
Ġabb iate
zati o
Ġprat i
elt o
eat e
ĠX III
Ġcriptoval ute
ĠBro wn
one t
ombran t
dale na
ĠA mbro
scon t
Ġcopiar e
Ġaggre gazione
ĠCe ntre
Ġna u
ce ntro
ĠCu lturali
Ġclea n
s Ã²
ĠN ino
zatio n
Ġgri n
Ġdivi se
Ġsia t
Ġrive stimenti
Ġ anteriori
d ica
Ġprelimi nari
is chi
Ġappro cci
ĠSerie s
ĠEn gine
ĠGo od
asse gno
car l
Ġconfigura r
Ġl iscio
Ġopti o
m mia
Ġpl urali
ĠF ol
Ġroman tici
Ġprefer enza
Ġdire ttrice
ni va
Ġcoma nda
ndet e
Ġrivela r
Scar pe
ĠS ONO
Ġvincit a
Ġstorica mente
Ġchirur go
Ġpre car
Ġconse cutive
o vest
Ġcol orata
S carica
Ġribad ire
Ġrisco ssione
P AR
ĠMo dello
ab oli
Ġconfigurar e
Ġ12 8
Ġbu ttare
ĠDe ci
Ġ197 4
ĠV ino
Ġage vole
Ġappunt i
Ġsvilup pate
zier i
ggi ore
Ġorient ali
Ġdistint e
Ġt omba
Ð ¿
ĠA vr
ĠAL LA
Ġcapitali smo
ĠK g
Ġatlet a
IS TA
Ġarb itr
orie tÃł
Ġpratici tÃł
Ġfo d
Ġspra y
lit alia
Ġcontinua zione
Be h
ĠBook ing
Ġtempora neo
trat i
curat o
Ġgrin t
ĠNer i
ĠEmi lio
C OR
Ġrepert i
Ġdia volo
ĠM attar
ĠMonda dori
Ġpure zza
ĠManu el
Ġtrad urre
ĠSo ccorso
f ront
Ġsoggior ni
Ġretori ca
Ġtras missioni
Ġde vol
ĠNu lla
Ġ19 0
ĠV II
Ġaffront ando
Ġresid uo
fa lo
ipa d
ĠMod ifica
Ġu l
Ġglobali zzazione
Ġcop yright
Ġesaur imento
ĠPart enza
Do bbiamo
gi Ãł
li che
ui bile
Ġcor dia
ĠId eale
Ġoccu perÃł
n ho
ĠC ola
grat o
Ġferroviari o
Ġtempe sta
Re ali
Ġpreced uto
ce i
ĠMo na
ine s
ĠD eli
Ġ ik
Ġcusci no
Ri cordiamo
Ġsopr anno
Ġt osca
ĠR ica
Ġaiuta rvi
ĠM iss
ĠI ma
u lla
Ġ sbu
ĠB atta
Ġaffront ano
Ġpartecipant e
ĠDiri tti
Ġcol oni
ve gia
appunt o
U dine
Ġpre gare
ĠIm peria
Ġ zio
ĠP IL
ma le
cal damento
ĠL ombar
ĠDol ce
ĠTe rni
Ã ī
Ġdanno si
ĠR esistenza
ro v
Ġsiat e
ĠCar pi
Ġ iTunes
Ġaddomi nale
ĠPro ce
ĠUni versita
Inf or
Ġconc orre
Ġ irl
Ġpubbli citaria
Ġnatali zio
r isto
Ġmeraviglio se
Ġricad e
Ġpetro li
Ġucci si
Ġgiudi cato
Ġtelespetta tori
e gazione
Ġcongi unta
ordeno ne
carl a
Ġri ba
EL LA
mo nia
e ragi
Ġten tazione
Ġdichiarat a
t eragi
ES E
n teragi
Ġfant asy
infi nito
Ġtrionf o
i nteragi
Ġstru mentale
Ġillustra r
ĠGior gia
Ġca sh
Ġoptio n
ĠSt adio
Ġcons orzio
[...]
