{
  "!": 5,
  "!!": 973,
  "!!!": 2714,
  "!!!!": 4522,
  "!!!!!!!!": 11904,
  "!)": 8882,
  "\"": 6,
  "\").": 10508,
  "\",": 2593,
  "\".": 1544,
  "#": 7,
  "$": 8,
  "%": 9,
  "%)": 6246,
  "%),": 8452,
  "%).": 4947,
  "%,": 5863,
  "%.": 3667,
  "&": 10,
  "'": 11,
  "',": 6448,
  "'.": 8066,
  "'s": 5173,
  "(": 12,
  ")": 13,
  "))": 11207,
  "),": 643,
  ").": 601,
  "):": 3974,
  ");": 2275,
  "*": 14,
  "**": 9366,
  "+": 15,
  ",": 16,
  "-": 17,
  "--": 8883,
  ".": 18,
  ".\"": 7446,
  ".)": 2688,
  ".),": 10509,
  ".).": 6449,
  ".,": 3476,
  "..": 588,
  "...": 1011,
  "....": 3641,
  "......": 11863,
  "...]": 5132,
  ".:": 9895,
  "/": 19,
  "//": 3272,
  "0": 20,
  "00": 491,
  "000": 1273,
  "01": 566,
  "02": 7447,
  "03": 7777,
  "04": 8067,
  "05": 6247,
  "07": 6883,
  "08": 11208,
  "09": 8453,
  "1": 21,
  "10": 1733,
  "100": 5864,
  "11": 2752,
  "12": 2223,
  "13": 3897,
  "14": 3829,
  "15": 2784,
  "16": 2785,
  "17": 4842,
  "18": 3668,
  "19": 1690,
  "1934": 3882,
  "199": 10287,
  "2": 22,
  "20": 1576,
  "200": 2022,
  "2000": 6652,
  "2001": 11756,
  "2003": 9214,
  "2005": 10990,
  "2006": 10991,
  "201": 1495,
  "2010": 5281,
  "2011": 6805,
  "2013": 4915,
  "2014": 6197,
  "2017": 11687,
  "2019": 7060,
  "2020": 10280,
  "21": 4547,
  "22": 4948,
  "23": 5538,
  "24": 3187,
  "25": 3273,
  "26": 5058,
  "27": 5539,
  "28": 5314,
  "29": 5540,
  "3": 23,
  "30": 1883,
  "300": 6654,
  "3000": 8884,
  "316": 6884,
  "32": 2347,
  "33": 5865,
  "34": 2669,
  "35": 4754,
  "36": 4548,
  "37": 6248,
  "38": 6653,
  "39": 11209,
  "4": 24,
  "40": 4377,
  "41": 9367,
  "42": 6065,
  "43": 6885,
  "44": 4843,
  "45": 5420,
  "46": 6655,
  "48": 4949,
  "49": 10510,
  "5": 25,
  "50": 1821,
  "500": 6656,
  "55": 9368,
  "550": 9369,
  "56": 11210,
  "57": 8454,
  "6": 26,
  "60": 5315,
  "600": 8069,
  "61": 11211,
  "65": 7778,
  "66": 8068,
  "67": 9896,
  "68": 7135,
  "7": 27,
  "70": 2846,
  "700": 4549,
  "74": 10511,
  "75": 3274,
  "756": 7104,
  "8": 28,
  "80": 3975,
  "800": 8886,
  "81": 8885,
  "82": 9897,
  "85": 11212,
  "86": 7136,
  "87": 9898,
  "88": 4378,
  "89": 10512,
  "9": 29,
  "90": 5866,
  "900": 11213,
  "95": 7448,
  "99": 4844,
  ":": 30,
  "://": 3519,
  ";": 31,
  "<": 32,
  "</s>": 2,
  "<mask>": 4,
  "<pad>": 1,
  "<s>": 0,
  "<unk>": 3,
  "=": 33,
  ">": 34,
  "?": 35,
  "?!": 10513,
  "??": 3477,
  "???": 8816,
  "@": 36,
  "A": 37,
  "AA": 11214,
  "AC": 4645,
  "AD": 7449,
  "AG": 4466,
  "AI": 10514,
  "AL": 3372,
  "ALMA": 11068,
  "AM": 2988,
  "AMS": 9761,
  "AN": 1001,
  "ANA": 3127,
  "ANCON": 8678,
  "ANCONITANA": 8881,
  "ANI": 9127,
  "ANO": 4027,
  "ANTI": 5501,
  "AQ": 6886,
  "AQUILA": 7441,
  "AR": 1676,
  "ARE": 7066,
  "ARI": 9189,
  "AS": 3520,
  "AU": 6450,
  "Abbiamo": 6451,
  "Accademia": 10516,
  "Ad": 3329,
  "Advisor": 10376,
  "Africa": 11216,
  "Agenzia": 7450,
  "Aggiun": 9373,
  "Ah": 4379,
  "Ai": 9899,
  "Al": 1791,
  "Alla": 5867,
  "Alle": 11733,
  "Allo": 9374,
  "Am": 5541,
  "Ambro": 11217,
  "America": 7757,
  "Amministrazione": 11218,
  "An": 1677,
  "Anche": 4273,
  "Ancora": 11713,
  "Antonio": 11714,
  "App": 3330,
  "Ar": 1993,
  "Arbitro": 4923,
  "Arte": 10986,
  "Artico": 9714,
  "Articolo": 11752,
  "As": 9370,
  "Ass": 9372,
  "Assi": 10515,
  "Asso": 4646,
  "Associazione": 5713,
  "Au": 9900,
  "Auto": 9371,
  "Av": 9901,
  "Ave": 11215,
  "B": 38,
  "BI": 4845,
  "Ba": 5059,
  "Ben": 6249,
  "BetSense": 8455,
  "Bi": 7779,
  "Bio": 11219,
  "Bo": 4950,
  "Book": 10428,
  "Bu": 7137,
  "Bul": 9902,
  "C": 39,
  "CA": 3030,
  "CANTI": 6657,
  "CANTIERI": 6882,
  "CAR": 4380,
  "CC": 6066,
  "CCHI": 7780,
  "CE": 6452,
  "CH": 2953,
  "CHI": 4121,
  "CI": 2505,
  "CIETA": 8768,
  "CIVITA": 9235,
  "CIVITAVECCHI": 9363,
  "CIVITAVECCHIESE": 9365,
  "CK": 8887,
  "CL": 9903,
  "CO": 4204,
  "CON": 5869,
  "CU": 8070,
  "Ca": 3898,
  "Cal": 9906,
  "Cantieri": 7451,
  "Cer": 9904,
  "Ch": 10517,
  "Che": 5421,
  "Chi": 5422,
  "Ci": 2467,
  "Ciao": 6250,
  "Co": 5868,
  "Com": 3231,
  "Come": 2106,
  "Commenti": 11845,
  "Con": 1722,
  "Cos": 9905,
  "Cosa": 5174,
  "Cre": 6887,
  "D": 40,
  "DA": 9907,
  "DE": 7781,
  "DI": 5316,
  "DO": 10518,
  "DR": 5423,
  "Da": 2847,
  "Dal": 8888,
  "Dalla": 11221,
  "De": 5718,
  "Des": 7452,
  "Descrizione": 8880,
  "Di": 2623,
  "Dire": 11220,
  "Dis": 5542,
  "Do": 2248,
  "Dopo": 3325,
  "Download": 8755,
  "Du": 6658,
  "Durante": 8057,
  "Duro": 7138,
  "Durobolin": 7442,
  "E": 41,
  "ED": 4056,
  "EG": 9908,
  "ELL": 11222,
  "EN": 1701,
  "ENED": 9191,
  "ENTE": 10288,
  "ENZA": 8719,
  "ER": 1208,
  "ERA": 6188,
  "ERALI": 9336,
  "ERE": 7324,
  "ERI": 4357,
  "ES": 1601,
  "ESCAR": 6591,
  "ESCARA": 6651,
  "ESE": 3571,
  "ET": 2670,
  "ETA": 6888,
  "ETT": 7396,
  "ETTA": 6616,
  "Ecco": 6251,
  "Ed": 8071,
  "Emi": 10519,
  "En": 7139,
  "Esp": 5870,
  "Est": 7140,
  "Estratto": 8889,
  "Euro": 3188,
  "Europa": 3721,
  "Ex": 6659,
  "Expo": 10469,
  "F": 42,
  "FER": 8456,
  "FERMANA": 9878,
  "FO": 5060,
  "FOLI": 8045,
  "FOLIGNO": 8445,
  "FOR": 11224,
  "Fa": 6660,
  "Fer": 11223,
  "Fi": 3976,
  "Fin": 10520,
  "For": 9375,
  "Forse": 10521,
  "G": 43,
  "GB": 9376,
  "GGI": 7142,
  "GI": 4647,
  "GLI": 8457,
  "GNO": 7141,
  "Ga": 7782,
  "Gi": 3776,
  "Gia": 10522,
  "Gio": 6889,
  "Gli": 3426,
  "Gra": 3425,
  "Grande": 10523,
  "Grazie": 3896,
  "Gu": 3622,
  "H": 44,
  "HP": 9909,
  "Ha": 6661,
  "Hai": 7783,
  "Ho": 3521,
  "Hotel": 8401,
  "I": 45,
  "IA": 2051,
  "IF": 3899,
  "IFIL": 7732,
  "II": 3031,
  "III": 6424,
  "IL": 2989,
  "IN": 1778,
  "INA": 5151,
  "INE": 8725,
  "ING": 8726,
  "INO": 11727,
  "IS": 3232,
  "IT": 3373,
  "ITANA": 8814,
  "IX": 11225,
  "Ict": 6891,
  "Il": 698,
  "Imp": 9910,
  "In": 799,
  "Inf": 5800,
  "Infine": 8863,
  "Inoltre": 6067,
  "Inter": 4810,
  "Interno": 11559,
  "Io": 5543,
  "Is": 8458,
  "Isola": 6890,
  "Isole": 6662,
  "Istituto": 6892,
  "Italia": 1916,
  "J": 46,
  "JES": 8072,
  "JESINA": 8446,
  "K": 47,
  "L": 48,
  "LA": 1951,
  "LAN": 8890,
  "LAZIO": 8340,
  "LE": 2064,
  "LI": 1663,
  "LIONE": 9693,
  "LL": 2876,
  "LLA": 8891,
  "LLE": 9912,
  "LLI": 9911,
  "La": 689,
  "Lavo": 11533,
  "Le": 1371,
  "Li": 4467,
  "Lib": 11110,
  "Lo": 3065,
  "Lu": 11226,
  "M": 49,
  "MA": 2689,
  "MANA": 9377,
  "MB": 4550,
  "MEN": 7454,
  "MI": 5061,
  "MO": 7453,
  "MOLF": 7784,
  "MOLFETTA": 8064,
  "MP": 6893,
  "MS": 6663,
  "Ma": 1506,
  "Mar": 3623,
  "Marcatori": 5309,
  "Me": 7143,
  "Mi": 2724,
  "Mo": 6252,
  "Mol": 6253,
  "Molto": 11952,
  "Mon": 8073,
  "N": 50,
  "NA": 4846,
  "NC": 9378,
  "NI": 6664,
  "NO": 4551,
  "NUM": 6254,
  "NUMX": 6650,
  "NV": 10524,
  "Na": 4648,
  "Napoli": 11116,
  "Ne": 10525,
  "Nel": 2076,
  "Nell": 6894,
  "Nella": 5317,
  "Nelle": 10526,
  "Ness": 9379,
  "Ni": 9913,
  "No": 3331,
  "Noi": 8022,
  "Non": 1553,
  "Nonostante": 10942,
  "O": 51,
  "OC": 5424,
  "OG": 7785,
  "OL": 3275,
  "OLF": 7105,
  "OM": 3032,
  "ON": 1196,
  "ONE": 3132,
  "ONI": 7045,
  "OR": 1779,
  "ORA": 7359,
  "ORI": 7360,
  "OS": 2207,
  "OSI": 6408,
  "OST": 11770,
  "OTTI": 8074,
  "Oggi": 6068,
  "Ogni": 6255,
  "Oltre": 6256,
  "On": 4951,
  "Onu": 7124,
  "Or": 3624,
  "Ora": 5871,
  "Organizza": 6430,
  "Organizzatore": 9340,
  "P": 52,
  "PA": 7144,
  "PB": 4952,
  "PE": 5318,
  "PESCARA": 7456,
  "PI": 5319,
  "PLE": 8459,
  "PP": 7145,
  "PR": 8075,
  "PS": 3332,
  "PU": 5425,
  "PUB": 11137,
  "Pa": 3189,
  "Par": 6895,
  "Para": 11843,
  "Per": 984,
  "PerchÃ©": 7628,
  "Pi": 4755,
  "PiÃ¹": 10422,
  "Po": 3669,
  "Poi": 9283,
  "Pre": 4057,
  "Presso": 11227,
  "Pri": 5320,
  "Prima": 6644,
  "Pro": 3096,
  "Pu": 7455,
  "Q": 53,
  "Qu": 594,
  "Qual": 6999,
  "Quali": 7891,
  "Quando": 4342,
  "Quanto": 9577,
  "Quello": 8218,
  "Questa": 4018,
  "Questi": 7590,
  "Questo": 2862,
  "Qui": 10527,
  "Quindi": 9071,
  "R": 54,
  "RA": 2485,
  "RE": 2364,
  "RF": 9380,
  "RI": 3625,
  "RK": 9914,
  "RL": 4381,
  "RO": 2442,
  "RS": 9915,
  "RU": 10528,
  "Ra": 9916,
  "Re": 3066,
  "Repubblica": 9766,
  "Ri": 3670,
  "Ricor": 10392,
  "Rin": 11228,
  "Ris": 8460,
  "Roma": 9381,
  "S": 55,
  "SA": 1912,
  "SAMB": 8733,
  "SAMBENED": 9360,
  "SAMBENEDETT": 9364,
  "SAMBENEDETTESE": 9886,
  "SD": 8892,
  "SE": 9382,
  "SI": 4288,
  "SO": 4126,
  "SORA": 9385,
  "SS": 5719,
  "Sa": 4382,
  "Sal": 8077,
  "Sca": 9383,
  "Scarpe": 8462,
  "Sco": 10529,
  "Se": 1133,
  "Secondo": 6187,
  "Secure": 10231,
  "Sei": 11632,
  "Sempre": 8292,
  "Sense": 5426,
  "Sho": 8461,
  "Si": 1602,
  "Siamo": 10530,
  "So": 6896,
  "Solo": 9384,
  "Sono": 3144,
  "Sony": 7786,
  "Sp": 8076,
  "Spe": 8896,
  "Sta": 8893,
  "Ste": 8894,
  "Su": 4649,
  "Sud": 8897,
  "Sul": 8895,
  "Sulla": 10531,
  "SÃ¬": 7457,
  "T": 56,
  "TA": 1372,
  "TAN": 9917,
  "TE": 2594,
  "TER": 6897,
  "TI": 1483,
  "TO": 2291,
  "TT": 11229,
  "TTI": 5546,
  "TUS": 8463,
  "TV": 11230,
  "Ta": 3977,
  "Taranto": 6052,
  "Te": 10532,
  "Ter": 8078,
  "The": 5545,
  "Ti": 5544,
  "Tito": 7458,
  "Titolo": 8063,
  "Tra": 3830,
  "Tu": 2786,
  "Tuttavia": 11038,
  "Tutti": 9248,
  "Tutto": 8011,
  "U": 57,
  "UD": 10533,
  "UE": 7459,
  "UI": 4650,
  "UILA": 7419,
  "UM": 5175,
  "UN": 10534,
  "UO": 8079,
  "UPB": 6257,
  "UR": 7787,
  "URO": 8898,
  "US": 3427,
  "UVEN": 9386,
  "UVENTUS": 9887,
  "Un": 1653,
  "Una": 2326,
  "Uni": 2264,
  "Unione": 4739,
  "UniversitÃł": 4929,
  "Uno": 10535,
  "V": 58,
  "VA": 5176,
  "VE": 4953,
  "VECCHI": 9309,
  "VEN": 7460,
  "VER": 11231,
  "VI": 3724,
  "VITA": 8822,
  "VO": 6665,
  "Ver": 9918,
  "Vi": 4552,
  "Vo": 6898,
  "W": 59,
  "X": 60,
  "XNUMX": 8080,
  "XT": 8899,
  "Y": 61,
  "Z": 62,
  "ZA": 4468,
  "ZI": 2570,
  "ZIA": 7461,
  "ZIO": 7392,
  "ZIONE": 6223,
  "ZIONI": 10351,
  "ZZ": 11232,
  "[": 63,
  "\\": 64,
  "]": 65,
  "^": 66,
  "_": 67,
  "`": 68,
  "a": 69,
  "aa": 6069,
  "abb": 8081,
  "abi": 8900,
  "acc": 1603,
  "accesso": 5402,
  "acco": 8901,
  "accordo": 4043,
  "ach": 9389,
  "acqu": 1515,
  "acqua": 2087,
  "acquisi": 11691,
  "acquisto": 4727,
  "ad": 816,
  "ada": 9919,
  "ade": 5547,
  "ader": 2549,
  "ado": 6258,
  "aeroporto": 6899,
  "aff": 6260,
  "affi": 7147,
  "agenzia": 10537,
  "agg": 9390,
  "aggiorna": 11233,
  "aggiornamento": 12034,
  "agricoltura": 11234,
  "ague": 5177,
  "ai": 1654,
  "aiuto": 7663,
  "ak": 9387,
  "al": 320,
  "ala": 10536,
  "alb": 8134,
  "ald": 6948,
  "aldi": 11346,
  "ale": 536,
  "aler": 3536,
  "ali": 461,
  "alia": 7868,
  "alimentazione": 8591,
  "alisi": 2805,
  "alitÃł": 3802,
  "alizza": 996,
  "alizzare": 4911,
  "all": 1420,
  "alla": 2014,
  "allar": 8963,
  "allarme": 10492,
  "alle": 1894,
  "allegato": 10309,
  "allo": 8524,
  "allora": 10641,
  "allu": 5580,
  "alluce": 8856,
  "almente": 833,
  "alta": 6707,
  "alter": 11347,
  "altezza": 9458,
  "alti": 9996,
  "alto": 3391,
  "altra": 1797,
  "altro": 1459,
  "altron": 10642,
  "altronde": 11202,
  "aly": 6306,
  "alytics": 11154,
  "alza": 8525,
  "am": 676,
  "ama": 7788,
  "ambi": 3501,
  "ambiente": 4054,
  "ambito": 3809,
  "ameri": 10154,
  "ames": 10813,
  "aming": 3220,
  "amministrazione": 6353,
  "amo": 950,
  "amore": 3263,
  "amp": 6259,
  "ampia": 9844,
  "an": 285,
  "ana": 624,
  "anabol": 6165,
  "analisi": 4485,
  "anca": 2693,
  "ance": 3736,
  "anche": 2794,
  "anchi": 6936,
  "anco": 5440,
  "and": 1182,
  "anda": 1465,
  "andamento": 8310,
  "andante": 10236,
  "andare": 11310,
  "ande": 2628,
  "andi": 6695,
  "ando": 493,
  "andole": 10109,
  "andone": 11636,
  "andosi": 9545,
  "ane": 733,
  "anese": 9437,
  "anesimo": 10825,
  "anf": 5198,
  "ang": 2043,
  "ange": 9438,
  "angelo": 4925,
  "angolo": 6473,
  "ani": 478,
  "ania": 3633,
  "anima": 4994,
  "anis": 2530,
  "anismi": 8371,
  "anismo": 5046,
  "anitÃł": 4246,
  "ank": 4961,
  "ann": 1977,
  "anna": 2553,
  "anne": 3838,
  "anni": 1418,
  "annini": 9210,
  "annino": 9711,
  "anno": 497,
  "annuncio": 9712,
  "ano": 415,
  "anora": 3544,
  "ans": 8118,
  "ansione": 11309,
  "ant": 4483,
  "anta": 914,
  "ante": 696,
  "anti": 596,
  "antica": 9578,
  "antieri": 5480,
  "anto": 666,
  "anz": 6472,
  "anza": 886,
  "anze": 2110,
  "anzi": 4484,
  "anzia": 1548,
  "anzitutto": 11901,
  "aper": 3978,
  "aperto": 11095,
  "apertura": 5418,
  "apos": 8464,
  "app": 1427,
  "appello": 11682,
  "applicazione": 4726,
  "apposi": 10538,
  "appro": 7653,
  "appuntamento": 8707,
  "ar": 315,
  "ara": 9388,
  "archi": 5578,
  "arci": 3635,
  "arco": 4491,
  "ard": 1238,
  "arda": 5904,
  "arden": 11649,
  "ardi": 1715,
  "ardia": 5342,
  "ardo": 3041,
  "are": 522,
  "area": 3081,
  "aren": 2904,
  "arenza": 10366,
  "arese": 7253,
  "argomento": 8521,
  "ari": 2224,
  "aria": 3777,
  "arle": 9454,
  "arli": 7516,
  "arlo": 3792,
  "arma": 5577,
  "arne": 7825,
  "arono": 9455,
  "arra": 6096,
  "arre": 9993,
  "arri": 6706,
  "arrivo": 8442,
  "ars": 7515,
  "arsa": 6097,
  "arsi": 1473,
  "art": 2094,
  "arta": 2631,
  "artamenti": 8774,
  "artamento": 4836,
  "arte": 2889,
  "arti": 1319,
  "articolo": 2405,
  "artista": 7332,
  "arto": 3843,
  "ary": 10636,
  "arÃł": 803,
  "as": 368,
  "asci": 5350,
  "ascia": 4581,
  "ascimento": 11936,
  "ase": 8993,
  "ash": 4321,
  "ashington": 9296,
  "asi": 7146,
  "ason": 11395,
  "aspetto": 7546,
  "ass": 1925,
  "assa": 5462,
  "asse": 3851,
  "assegna": 8154,
  "assegnazione": 8448,
  "assemblea": 9793,
  "assenza": 9207,
  "assessore": 6821,
  "assi": 958,
  "assistenza": 9633,
  "asso": 2700,
  "associazione": 4939,
  "ast": 5595,
  "asta": 7839,
  "astia": 5917,
  "astica": 10683,
  "asto": 6314,
  "at": 844,
  "atch": 11566,
  "ate": 5720,
  "ath": 7295,
  "ati": 3276,
  "atle": 11565,
  "atmos": 5967,
  "atmosfera": 6876,
  "ato": 1166,
  "atta": 4205,
  "attacco": 5535,
  "atte": 6453,
  "atten": 7920,
  "attenzione": 4812,
  "attesa": 9850,
  "atti": 810,
  "attivitÃł": 3085,
  "atto": 4651,
  "attre": 10192,
  "attro": 1938,
  "attu": 4553,
  "attuale": 7121,
  "attuazione": 11908,
  "au": 1792,
  "aumento": 7361,
  "aut": 6070,
  "auto": 2157,
  "autore": 4196,
  "autori": 6008,
  "autorizzazione": 8865,
  "av": 1867,
  "avan": 7365,
  "avanguardia": 10479,
  "ave": 7462,
  "avversario": 11740,
  "avvio": 10978,
  "avvocato": 8729,
  "azienda": 2443,
  "azione": 1568,
  "b": 70,
  "ba": 660,
  "babile": 11523,
  "back": 8233,
  "bal": 3778,
  "bala": 8631,
  "banca": 7789,
  "bare": 5549,
  "baret": 8433,
  "bas": 5872,
  "bate": 11522,
  "bato": 2390,
  "batti": 3867,
  "bay": 9083,
  "bb": 412,
  "bba": 6973,
  "bbe": 632,
  "bbene": 6326,
  "bbero": 1342,
  "bbi": 1766,
  "bbia": 2704,
  "bbiamente": 9246,
  "bbiamo": 2201,
  "bbie": 10970,
  "bbli": 653,
  "bby": 9512,
  "be": 1702,
  "bel": 10540,
  "ben": 11235,
  "ber": 1283,
  "bera": 8902,
  "berg": 10911,
  "bert": 9156,
  "berto": 3510,
  "bete": 6201,
  "bi": 359,
  "bia": 4206,
  "bici": 8149,
  "bico": 8547,
  "bietti": 1599,
  "biettivi": 4114,
  "biettivo": 2041,
  "bike": 10677,
  "bile": 527,
  "bili": 520,
  "bilitÃł": 746,
  "bilmente": 2099,
  "bina": 4652,
  "bini": 7148,
  "binieri": 7775,
  "bio": 4496,
  "bis": 8984,
  "bito": 1126,
  "bitro": 4679,
  "ble": 773,
  "bli": 6261,
  "blio": 5427,
  "bn": 10539,
  "bnb": 12028,
  "bo": 641,
  "bol": 3033,
  "bole": 5956,
  "boli": 2909,
  "bolin": 7400,
  "bona": 5548,
  "bono": 10541,
  "book": 3084,
  "bor": 9920,
  "bot": 6350,
  "bour": 10803,
  "box": 6763,
  "boxing": 10471,
  "bra": 2820,
  "bre": 1373,
  "brese": 11668,
  "bri": 2090,
  "brio": 10542,
  "brizio": 5689,
  "bro": 4756,
  "bu": 2208,
  "bul": 9391,
  "bur": 5721,
  "bus": 3575,
  "buterolo": 7383,
  "by": 3725,
  "c": 71,
  "ca": 301,
  "cabile": 7510,
  "cago": 10621,
  "cal": 3389,
  "cale": 2231,
  "cali": 3109,
  "camente": 3292,
  "camento": 9985,
  "camera": 8127,
  "can": 6262,
  "cana": 3034,
  "cando": 2023,
  "cane": 6901,
  "cani": 3191,
  "cano": 1348,
  "cante": 4289,
  "canti": 6667,
  "canza": 2402,
  "canze": 4290,
  "cao": 11327,
  "capi": 8126,
  "car": 1509,
  "care": 1040,
  "carpe": 4620,
  "carsi": 11330,
  "cast": 11329,
  "cata": 3291,
  "cate": 6942,
  "cati": 2961,
  "cato": 976,
  "catore": 11328,
  "catori": 3683,
  "catto": 8957,
  "cazione": 1584,
  "cazioni": 5339,
  "cc": 455,
  "cca": 652,
  "ccademia": 9081,
  "ccando": 7568,
  "ccanf": 9527,
  "ccano": 11453,
  "ccante": 7569,
  "ccardo": 8630,
  "ccare": 3307,
  "ccasione": 2007,
  "ccasioni": 6542,
  "ccato": 3499,
  "cce": 1187,
  "ccessi": 11454,
  "cch": 762,
  "cche": 2292,
  "cchetti": 10334,
  "cchi": 1020,
  "cchia": 1632,
  "cchiata": 9182,
  "cchie": 5658,
  "cchiere": 4821,
  "cchino": 9103,
  "cchio": 1662,
  "cci": 1252,
  "ccia": 852,
  "cciaio": 6777,
  "cciano": 7326,
  "cciare": 10193,
  "cciato": 11568,
  "ccio": 1227,
  "cco": 546,
  "ccol": 1787,
  "ccolata": 9567,
  "ccolato": 6992,
  "ccoli": 9056,
  "ccolo": 6157,
  "ccolÃ²": 10973,
  "ccome": 10737,
  "ccone": 10093,
  "ccu": 1297,
  "ccup": 4723,
  "ccupa": 1652,
  "ce": 362,
  "cea": 10678,
  "ceano": 7542,
  "cel": 6454,
  "cell": 8083,
  "cella": 6668,
  "celle": 10545,
  "celli": 8082,
  "cen": 874,
  "cendo": 1822,
  "cente": 1471,
  "centi": 2001,
  "cento": 6180,
  "centra": 2836,
  "cenza": 1985,
  "cenze": 7617,
  "cep": 6116,
  "cer": 1545,
  "cere": 1267,
  "certi": 10275,
  "ces": 2379,
  "cesa": 9922,
  "cesco": 2624,
  "cese": 3098,
  "cesi": 4872,
  "cespuglia": 11013,
  "cespugliatore": 12031,
  "cessione": 7695,
  "ceto": 8985,
  "cfr": 10548,
  "ch": 360,
  "cha": 4232,
  "chael": 6861,
  "che": 366,
  "cheolo": 8153,
  "cher": 2056,
  "cheranno": 11760,
  "cherÃł": 7206,
  "chetta": 11394,
  "chezza": 4497,
  "chi": 494,
  "chia": 1026,
  "chiamo": 4981,
  "chie": 6149,
  "chiesta": 9046,
  "china": 10034,
  "chino": 6312,
  "chio": 1679,
  "chÃ¨": 1759,
  "chÃ©": 644,
  "ci": 318,
  "cia": 409,
  "cial": 3400,
  "ciale": 865,
  "ciali": 1244,
  "cialmente": 4688,
  "ciamo": 3926,
  "ciando": 10640,
  "ciano": 5747,
  "ciare": 2609,
  "ciata": 10059,
  "ciate": 8172,
  "ciato": 3078,
  "ciazione": 2973,
  "cic": 2604,
  "cida": 10639,
  "cidi": 5343,
  "cido": 6947,
  "cili": 6305,
  "cilia": 4310,
  "cin": 1793,
  "cina": 1123,
  "cine": 3097,
  "cing": 6900,
  "cini": 2595,
  "cino": 1928,
  "cio": 619,
  "cione": 5579,
  "cip": 1089,
  "cipa": 1453,
  "cipale": 2842,
  "cipe": 8132,
  "cipi": 3793,
  "cir": 6946,
  "circa": 11169,
  "cita": 1097,
  "cito": 5746,
  "citÃł": 1295,
  "ciÃ²": 5344,
  "ck": 910,
  "ckboxing": 11586,
  "cker": 6365,
  "cket": 9117,
  "ckup": 6563,
  "cla": 5550,
  "cle": 4207,
  "cler": 5723,
  "cli": 5722,
  "cloro": 11237,
  "clorotiazide": 12035,
  "clu": 862,
  "clusione": 6559,
  "cm": 10543,
  "co": 316,
  "coin": 10638,
  "col": 1116,
  "cola": 2314,
  "colare": 2406,
  "colari": 6304,
  "colato": 9995,
  "cole": 3685,
  "coledÃ¬": 5053,
  "coli": 2333,
  "colla": 9994,
  "collo": 7635,
  "colo": 1183,
  "coltori": 10227,
  "coltura": 7636,
  "coltÃł": 2305,
  "com": 1071,
  "come": 4554,
  "commerce": 9139,
  "con": 469,
  "conda": 6521,
  "condo": 2740,
  "cone": 6666,
  "coni": 3626,
  "cono": 1484,
  "conom": 932,
  "conomia": 2644,
  "contra": 6743,
  "contri": 6744,
  "contro": 3163,
  "cor": 645,
  "cora": 735,
  "cord": 4421,
  "core": 10637,
  "correre": 7896,
  "corsi": 8629,
  "corso": 1684,
  "cos": 2787,
  "cosa": 6264,
  "cqu": 694,
  "cra": 1496,
  "craina": 7061,
  "cratico": 11688,
  "crazia": 10268,
  "cre": 1054,
  "creto": 2273,
  "cri": 1241,
  "crizione": 4109,
  "cro": 1507,
  "ct": 2348,
  "cted": 6903,
  "cti": 11236,
  "ction": 4653,
  "ctor": 5551,
  "ctoria": 10547,
  "ctroni": 10549,
  "ctronic": 11200,
  "cu": 517,
  "cue": 7573,
  "cula": 10766,
  "cultura": 6902,
  "cune": 10544,
  "cuni": 6263,
  "cuno": 10546,
  "cuo": 9921,
  "cura": 2030,
  "cure": 6151,
  "curi": 6337,
  "curity": 7767,
  "curo": 10767,
  "cus": 2276,
  "cuzione": 6526,
  "cy": 3190,
  "cÃ²": 7790,
  "d": 72,
  "da": 371,
  "dafrica": 11397,
  "daie": 11396,
  "dal": 6455,
  "dale": 3075,
  "dali": 5213,
  "damente": 6718,
  "damento": 3297,
  "dando": 5063,
  "dano": 3333,
  "dar": 8904,
  "dare": 1094,
  "darietÃł": 7212,
  "darsi": 7793,
  "dash": 10550,
  "data": 2893,
  "date": 4078,
  "dati": 2429,
  "dato": 1616,
  "datura": 8994,
  "dazione": 7547,
  "ddi": 1516,
  "ddis": 2399,
  "ddo": 2954,
  "de": 398,
  "degna": 10707,
  "del": 4654,
  "della": 11238,
  "dem": 6966,
  "demia": 6507,
  "den": 1529,
  "dendo": 2193,
  "dentale": 6266,
  "dentali": 11693,
  "dente": 1167,
  "denti": 982,
  "denza": 1561,
  "denze": 5724,
  "deo": 1874,
  "der": 728,
  "deranno": 8248,
  "derci": 7280,
  "dere": 540,
  "derli": 11538,
  "dersi": 3221,
  "derÃł": 3017,
  "des": 2403,
  "desco": 5322,
  "dese": 6456,
  "desi": 3923,
  "desimo": 8566,
  "destra": 5838,
  "dete": 9017,
  "detta": 5428,
  "dette": 9392,
  "detto": 4655,
  "deva": 8166,
  "devole": 10708,
  "df": 8903,
  "dge": 5552,
  "dget": 8465,
  "di": 322,
  "dia": 620,
  "diale": 7266,
  "diamo": 2380,
  "diana": 11348,
  "dibile": 5452,
  "dibili": 7826,
  "dica": 1430,
  "dicamente": 9166,
  "dice": 2297,
  "dici": 2531,
  "dico": 7189,
  "dier": 7517,
  "digital": 7191,
  "dimento": 6098,
  "din": 5873,
  "dina": 2365,
  "dinanza": 9836,
  "dine": 1851,
  "ding": 3193,
  "dini": 1449,
  "dino": 1852,
  "dinotti": 8728,
  "dio": 741,
  "dipen": 7190,
  "dire": 4396,
  "dis": 7188,
  "dita": 1214,
  "dite": 3293,
  "diti": 8136,
  "dito": 4397,
  "ditÃł": 2656,
  "dizione": 3794,
  "dizioni": 9459,
  "dll": 2955,
  "do": 324,
  "doio": 10644,
  "doli": 7192,
  "dom": 6265,
  "don": 7149,
  "done": 5321,
  "doni": 4208,
  "dono": 1443,
  "dor": 5062,
  "dore": 9460,
  "dos": 2753,
  "dosso": 7463,
  "dotta": 4492,
  "dotte": 8526,
  "dotti": 6949,
  "dotto": 3244,
  "dova": 4970,
  "dr": 7791,
  "dra": 7150,
  "dre": 1655,
  "drea": 11709,
  "dri": 3671,
  "drid": 10393,
  "dro": 2146,
  "ds": 7792,
  "du": 500,
  "duca": 5103,
  "ducation": 10435,
  "ducazione": 5780,
  "duce": 8598,
  "duci": 10760,
  "due": 9047,
  "dum": 10110,
  "dupl": 2976,
  "dura": 4505,
  "dure": 2182,
  "durre": 7878,
  "dustri": 2065,
  "dustria": 3718,
  "duta": 3402,
  "dute": 7248,
  "duti": 5616,
  "duto": 3052,
  "duzione": 2975,
  "dy": 3192,
  "dÃ¬": 1723,
  "e": 73,
  "ea": 1538,
  "eamente": 11696,
  "eb": 1402,
  "ebony": 5995,
  "ecc": 6904,
  "eco": 11240,
  "economia": 2877,
  "ed": 695,
  "ede": 1626,
  "edere": 2990,
  "edi": 1078,
  "ediamo": 10159,
  "edificio": 7039,
  "edizione": 8290,
  "edo": 8905,
  "educazione": 9393,
  "edÃ¬": 4255,
  "ee": 2754,
  "eek": 7091,
  "eff": 4656,
  "effetto": 6056,
  "effica": 8906,
  "efficienza": 11242,
  "egli": 7464,
  "ei": 1314,
  "el": 277,
  "ela": 8084,
  "ele": 609,
  "elemento": 10137,
  "elen": 7494,
  "elenco": 8443,
  "elet": 4769,
  "eli": 1181,
  "elice": 8296,
  "eliminazione": 9146,
  "ell": 1124,
  "ella": 801,
  "elle": 993,
  "ellenza": 8690,
  "elles": 5657,
  "elli": 786,
  "ellini": 7637,
  "ellino": 8691,
  "ello": 760,
  "elo": 991,
  "elp": 8944,
  "els": 9432,
  "em": 11239,
  "email": 11241,
  "eme": 6071,
  "emer": 5874,
  "emergenza": 7129,
  "en": 271,
  "ena": 714,
  "enamento": 10821,
  "enato": 5251,
  "enatore": 3310,
  "ence": 5188,
  "end": 4388,
  "enda": 3911,
  "endario": 7412,
  "ende": 4481,
  "endere": 3202,
  "endo": 680,
  "ene": 542,
  "ener": 4567,
  "energia": 6630,
  "eni": 1973,
  "enia": 9426,
  "enne": 3482,
  "eno": 1920,
  "enomen": 3037,
  "ens": 8111,
  "ensa": 3480,
  "ense": 4136,
  "ensi": 4664,
  "enso": 2510,
  "ent": 5569,
  "enta": 684,
  "entale": 2616,
  "entali": 6282,
  "entamento": 5118,
  "entano": 8239,
  "entare": 8939,
  "entata": 8638,
  "entato": 7490,
  "ente": 459,
  "entemente": 3600,
  "enti": 449,
  "ential": 9526,
  "entieri": 11451,
  "ento": 3384,
  "entra": 3481,
  "entrata": 11075,
  "entro": 6691,
  "enza": 467,
  "enze": 1002,
  "enzia": 3912,
  "enziale": 5189,
  "enziali": 6932,
  "eo": 2671,
  "epi": 3979,
  "episodio": 10400,
  "epoca": 5875,
  "equi": 6268,
  "er": 263,
  "era": 390,
  "erai": 5923,
  "erale": 3346,
  "erali": 3157,
  "eranno": 3677,
  "erano": 7480,
  "erare": 5091,
  "erata": 3398,
  "erati": 5924,
  "erato": 4685,
  "eratore": 10703,
  "eravi": 3593,
  "erazione": 3008,
  "erba": 6922,
  "erca": 665,
  "ercaccia": 7900,
  "erci": 1633,
  "erdÃ¬": 3581,
  "ere": 334,
  "erebbe": 4780,
  "erebbero": 11355,
  "erei": 9467,
  "eremo": 4313,
  "erete": 9468,
  "eri": 417,
  "eria": 2108,
  "erica": 3009,
  "erico": 5606,
  "ericor": 3927,
  "ericordia": 4055,
  "erie": 1363,
  "erienza": 1681,
  "erimento": 6126,
  "erio": 11276,
  "erire": 6509,
  "erito": 7859,
  "erlo": 5888,
  "ero": 503,
  "eroll": 11277,
  "erop": 3216,
  "eroporti": 6844,
  "eroporto": 4638,
  "erosi": 11475,
  "erra": 1458,
  "erre": 5887,
  "errore": 9415,
  "ers": 4385,
  "ersi": 3676,
  "erti": 2822,
  "erto": 3284,
  "erum": 10582,
  "erva": 1747,
  "erÃ²": 7481,
  "erÃł": 1243,
  "es": 299,
  "esa": 858,
  "esame": 6779,
  "esca": 6294,
  "esco": 1339,
  "escono": 11326,
  "escovo": 5673,
  "ese": 648,
  "esecuzione": 10805,
  "esel": 8956,
  "esempio": 10148,
  "eserci": 4964,
  "esercito": 11121,
  "esercizio": 7423,
  "esi": 1062,
  "esistenza": 7942,
  "esito": 6571,
  "esitÃł": 10885,
  "eso": 1274,
  "esp": 1636,
  "esperienza": 2548,
  "espon": 7346,
  "esponsa": 8062,
  "esposizione": 9445,
  "espulsione": 8320,
  "ess": 712,
  "essa": 719,
  "essante": 10819,
  "esse": 1293,
  "essere": 2774,
  "essero": 7012,
  "essi": 633,
  "essione": 2796,
  "esso": 570,
  "essor": 9094,
  "essorato": 10126,
  "essore": 3054,
  "essori": 10791,
  "est": 1621,
  "esta": 779,
  "estate": 4101,
  "este": 1487,
  "estensione": 10619,
  "esterno": 6296,
  "estero": 4487,
  "esti": 658,
  "estici": 7269,
  "estival": 3455,
  "esto": 936,
  "estra": 3388,
  "estre": 3108,
  "estri": 6295,
  "estro": 5901,
  "esÃ¹": 4394,
  "et": 323,
  "etSense": 5582,
  "eta": 1713,
  "ete": 3576,
  "eter": 1550,
  "eti": 2596,
  "eto": 6669,
  "etro": 1098,
  "etta": 646,
  "ettabile": 10804,
  "ettando": 9999,
  "ettare": 2890,
  "ettata": 6351,
  "ettato": 3795,
  "ette": 1006,
  "etter": 8965,
  "ettera": 5581,
  "ettere": 7827,
  "etti": 545,
  "ettiamo": 8207,
  "ettiva": 4893,
  "ettive": 8607,
  "etto": 507,
  "ettore": 1618,
  "ety": 8964,
  "etÃł": 723,
  "euro": 10551,
  "evento": 3145,
  "eventu": 6905,
  "eventuale": 9858,
  "evi": 2755,
  "evita": 6618,
  "evo": 3374,
  "evoluzione": 8907,
  "ew": 4383,
  "ex": 3277,
  "ey": 7794,
  "ezione": 4555,
  "ezioni": 6267,
  "f": 74,
  "fa": 1331,
  "faccia": 8304,
  "fano": 5725,
  "fare": 4557,
  "fatti": 9924,
  "fe": 2991,
  "fer": 1517,
  "fera": 4127,
  "ferenza": 7339,
  "feri": 986,
  "fero": 7795,
  "fessi": 10554,
  "fetta": 10555,
  "fezione": 8794,
  "ff": 460,
  "ffa": 3450,
  "ffe": 6519,
  "ffer": 763,
  "fferta": 4808,
  "ffi": 635,
  "ffica": 2024,
  "ffici": 1287,
  "fficiente": 4033,
  "fficienti": 8303,
  "fficienza": 6800,
  "fficio": 6167,
  "ffon": 8590,
  "fi": 396,
  "fia": 1853,
  "fiamma": 7982,
  "fica": 550,
  "ficando": 8163,
  "ficano": 8565,
  "ficare": 2152,
  "ficata": 5107,
  "ficate": 11487,
  "ficati": 6532,
  "ficato": 2707,
  "ficazione": 2060,
  "ficazioni": 10780,
  "fiche": 1760,
  "fici": 1376,
  "ficio": 2583,
  "fico": 1670,
  "fie": 4406,
  "fil": 10052,
  "fili": 11417,
  "fin": 7151,
  "fini": 1310,
  "finito": 9159,
  "finizione": 11662,
  "fino": 10553,
  "fiore": 11244,
  "fle": 8085,
  "flex": 12000,
  "fli": 11243,
  "fo": 1393,
  "fondi": 3428,
  "for": 582,
  "forma": 729,
  "formazione": 4098,
  "formazioni": 10823,
  "forme": 3407,
  "fort": 4802,
  "forte": 4252,
  "fosi": 4848,
  "foto": 10922,
  "fr": 5323,
  "fra": 4556,
  "fre": 4847,
  "fres": 10556,
  "fri": 4657,
  "frica": 4128,
  "ft": 1868,
  "ftware": 3885,
  "fu": 10552,
  "fun": 9394,
  "fur": 8086,
  "fy": 9923,
  "g": 75,
  "ga": 448,
  "gal": 4850,
  "gallo": 9307,
  "gamento": 10734,
  "gamon": 10735,
  "gan": 4129,
  "gando": 5876,
  "gani": 1053,
  "ganizza": 1246,
  "gano": 2444,
  "gante": 4758,
  "ganti": 9395,
  "ganza": 11245,
  "gar": 3099,
  "gare": 1800,
  "gari": 2360,
  "garno": 7101,
  "gas": 7465,
  "gata": 3079,
  "gate": 6136,
  "gati": 4328,
  "gato": 2117,
  "gazione": 2477,
  "ge": 687,
  "gegn": 5119,
  "gel": 4849,
  "geles": 7746,
  "gelo": 8908,
  "gement": 8240,
  "gen": 1266,
  "genda": 11656,
  "gendo": 4757,
  "gene": 4658,
  "geni": 6798,
  "geno": 6190,
  "gente": 2878,
  "genti": 3779,
  "genza": 2506,
  "genze": 2725,
  "genzia": 4722,
  "genziale": 10910,
  "ger": 1857,
  "gere": 1288,
  "geria": 9700,
  "gersi": 6819,
  "gerÃł": 8466,
  "ges": 9925,
  "gesti": 7152,
  "get": 4851,
  "gg": 490,
  "gge": 2118,
  "gger": 6985,
  "ggere": 3166,
  "ggero": 10107,
  "ggetta": 11473,
  "ggetti": 2005,
  "ggetto": 2202,
  "ggi": 410,
  "ggia": 851,
  "ggiamenti": 11567,
  "ggiamento": 5261,
  "ggiare": 2835,
  "ggiata": 5382,
  "ggiate": 8271,
  "ggiati": 7296,
  "ggiato": 5492,
  "ggio": 533,
  "ggior": 1093,
  "ggiorna": 1939,
  "ggiun": 877,
  "gh": 1384,
  "ghe": 1754,
  "gher": 10920,
  "ghero": 11672,
  "ghese": 10964,
  "ghetto": 11724,
  "ghezza": 10965,
  "ghi": 1153,
  "ghiaccio": 8467,
  "ghilterra": 7946,
  "ght": 4270,
  "gi": 337,
  "gia": 726,
  "gian": 11358,
  "giani": 7521,
  "giati": 10163,
  "gibile": 11359,
  "gica": 2427,
  "gicamente": 9231,
  "giche": 6103,
  "gici": 6490,
  "gico": 2963,
  "gie": 4073,
  "gil": 10650,
  "gimento": 4576,
  "gin": 6072,
  "gina": 1767,
  "ginare": 8724,
  "gine": 1472,
  "ging": 9926,
  "gini": 2042,
  "gino": 7796,
  "gio": 1532,
  "gione": 1143,
  "gioni": 3110,
  "giorno": 7196,
  "gire": 7831,
  "gital": 3537,
  "gitto": 6955,
  "gius": 8140,
  "gle": 1970,
  "gli": 358,
  "glia": 610,
  "gliamento": 7595,
  "gliamo": 9074,
  "gliano": 8983,
  "glianza": 5913,
  "gliare": 4077,
  "gliari": 6346,
  "gliata": 6759,
  "gliate": 5789,
  "gliati": 8621,
  "gliato": 3122,
  "glie": 1375,
  "gliere": 1478,
  "gliese": 10676,
  "glio": 549,
  "gliono": 4231,
  "glioppo": 11486,
  "glior": 3850,
  "gn": 821,
  "gna": 574,
  "gnando": 10843,
  "gnano": 5965,
  "gnare": 3807,
  "gnata": 5000,
  "gnati": 3406,
  "gnato": 2141,
  "gne": 3375,
  "gnerÃł": 9615,
  "gni": 576,
  "gnia": 3869,
  "gnifica": 1480,
  "gnini": 5489,
  "gno": 614,
  "gnoli": 6761,
  "gnolo": 5376,
  "gnor": 10189,
  "gnos": 8663,
  "gnosi": 7598,
  "gnuno": 4515,
  "go": 483,
  "goglio": 9541,
  "gol": 10557,
  "gola": 7247,
  "golare": 11471,
  "gole": 9540,
  "goli": 8595,
  "golo": 4335,
  "gomento": 8087,
  "gon": 5064,
  "gone": 6457,
  "gono": 957,
  "gori": 6984,
  "gov": 7874,
  "gra": 607,
  "grafia": 5113,
  "grafica": 5242,
  "grafiche": 10135,
  "grafico": 5112,
  "grafie": 11508,
  "grafo": 10799,
  "gram": 7594,
  "gramma": 9073,
  "grazione": 6345,
  "gre": 1172,
  "gressi": 10234,
  "gresso": 6794,
  "gretario": 8294,
  "gri": 4469,
  "gricoltura": 10412,
  "gro": 3900,
  "gs": 3478,
  "gu": 519,
  "gua": 1535,
  "guar": 1042,
  "guardare": 11616,
  "guardia": 7035,
  "guardo": 4432,
  "gue": 1298,
  "guendo": 8603,
  "gui": 875,
  "guine": 9051,
  "guire": 5649,
  "gura": 3304,
  "gurazione": 5477,
  "guria": 11476,
  "gus": 4291,
  "gy": 4558,
  "h": 76,
  "ha": 1450,
  "hai": 11684,
  "ham": 8910,
  "hanno": 8088,
  "hat": 3901,
  "hatsApp": 6433,
  "he": 292,
  "hi": 481,
  "hia": 811,
  "hiaccio": 4425,
  "ho": 1151,
  "hone": 8469,
  "hotel": 4108,
  "ht": 8468,
  "http": 5429,
  "hy": 8909,
  "i": 77,
  "ia": 295,
  "iale": 9980,
  "iali": 10616,
  "iamma": 5442,
  "iamo": 564,
  "iao": 5081,
  "iat": 3387,
  "ic": 8911,
  "ica": 1131,
  "iche": 3577,
  "ici": 2526,
  "ico": 863,
  "icolo": 2710,
  "id": 2366,
  "ide": 1804,
  "idea": 2620,
  "ideale": 11736,
  "identi": 5430,
  "identitÃł": 7755,
  "idi": 3278,
  "ie": 750,
  "iega": 1567,
  "iego": 5640,
  "ies": 11247,
  "ieta": 10169,
  "iete": 11544,
  "il": 661,
  "ile": 11246,
  "ill": 4095,
  "illa": 3219,
  "ille": 8234,
  "illi": 5959,
  "illiam": 10461,
  "illu": 9589,
  "im": 6670,
  "imb": 11248,
  "imento": 4292,
  "imm": 6460,
  "imma": 4209,
  "immagine": 5536,
  "immobile": 11249,
  "imp": 1192,
  "impe": 5813,
  "impegno": 6446,
  "impi": 6269,
  "impianto": 7766,
  "impiego": 9662,
  "impor": 3760,
  "importante": 7113,
  "importanza": 5854,
  "importo": 7641,
  "impre": 3612,
  "imprendi": 11638,
  "impresa": 4124,
  "in": 270,
  "ina": 403,
  "inale": 1421,
  "inali": 10710,
  "inamento": 6729,
  "inare": 3300,
  "inari": 5093,
  "inarie": 9510,
  "inata": 7560,
  "inati": 6969,
  "inato": 6324,
  "inca": 7809,
  "inci": 5072,
  "incia": 11289,
  "inco": 9953,
  "incontro": 3834,
  "incre": 10595,
  "inda": 3910,
  "indagine": 8033,
  "inde": 7488,
  "inden": 10596,
  "index": 9867,
  "indi": 737,
  "indice": 11539,
  "indiri": 8644,
  "indirizzo": 9359,
  "indo": 2446,
  "indows": 2622,
  "industria": 3985,
  "ine": 451,
  "inea": 5471,
  "inecom": 5931,
  "inecomastia": 6064,
  "iner": 6281,
  "iness": 4063,
  "inf": 3532,
  "infanzia": 10387,
  "influenza": 11857,
  "informa": 7489,
  "informazione": 6931,
  "ing": 591,
  "inga": 9954,
  "inge": 7890,
  "ingere": 8617,
  "ingle": 6998,
  "ingo": 11290,
  "ingra": 4253,
  "ingresso": 8217,
  "ings": 10798,
  "ington": 7260,
  "ini": 437,
  "ining": 9955,
  "inis": 850,
  "inisce": 5491,
  "inistra": 1327,
  "inistro": 9115,
  "inizia": 3801,
  "iniziativa": 4125,
  "inizio": 2831,
  "inn": 4217,
  "innastica": 11887,
  "innova": 4663,
  "innovazione": 5714,
  "ino": 471,
  "inola": 10750,
  "inqu": 8502,
  "ins": 2882,
  "insegna": 5568,
  "insegnamento": 8855,
  "inserimento": 11827,
  "insieme": 9424,
  "installa": 5187,
  "installazione": 6641,
  "int": 3533,
  "inta": 4566,
  "inte": 2884,
  "integrazione": 11828,
  "intelli": 11291,
  "inten": 6930,
  "intenzione": 9425,
  "inter": 893,
  "intera": 4815,
  "interessa": 10856,
  "interesse": 5804,
  "interno": 1812,
  "intero": 5129,
  "interpre": 9626,
  "interro": 10855,
  "intervento": 4177,
  "intesa": 9249,
  "inti": 6690,
  "into": 2883,
  "intra": 11288,
  "intro": 8110,
  "introduzione": 10486,
  "inverno": 10598,
  "invio": 10597,
  "invol": 9956,
  "involucro": 12022,
  "inÃ²": 3681,
  "io": 377,
  "iora": 8554,
  "iore": 1475,
  "ioren": 7549,
  "iori": 1784,
  "iormente": 5877,
  "ipo": 8089,
  "ipotesi": 9876,
  "ir": 1823,
  "ira": 6458,
  "ire": 1268,
  "is": 384,
  "isce": 1476,
  "isci": 7552,
  "isco": 5089,
  "iscono": 2896,
  "iscrizione": 6724,
  "isi": 2992,
  "ismo": 5919,
  "isola": 4058,
  "iss": 4985,
  "isse": 9007,
  "issi": 4154,
  "issima": 11886,
  "issimi": 11101,
  "issimo": 4155,
  "issione": 11407,
  "issÃł": 8845,
  "ista": 2199,
  "istan": 7850,
  "istare": 7218,
  "iste": 4987,
  "isti": 4986,
  "istica": 5355,
  "istiche": 9500,
  "istico": 10693,
  "istitu": 10694,
  "istituto": 12029,
  "isto": 2735,
  "it": 1096,
  "itali": 10558,
  "itato": 6459,
  "ith": 3956,
  "ito": 3194,
  "ity": 10224,
  "j": 78,
  "ja": 7153,
  "jan": 10559,
  "je": 8912,
  "ji": 7797,
  "jos": 5878,
  "k": 79,
  "ka": 2993,
  "ke": 2507,
  "ker": 2788,
  "kes": 6073,
  "ket": 4470,
  "ki": 2170,
  "kin": 6270,
  "king": 8914,
  "kistan": 9929,
  "ko": 3522,
  "kon": 8470,
  "ku": 9927,
  "ky": 9928,
  "kÃ©": 8913,
  "l": 80,
  "la": 274,
  "labo": 1176,
  "laborazione": 7638,
  "lack": 5192,
  "laio": 8503,
  "lam": 9428,
  "lamento": 4389,
  "lan": 675,
  "lance": 7273,
  "land": 2683,
  "landa": 4511,
  "landese": 11816,
  "landia": 7274,
  "lando": 2048,
  "lands": 11032,
  "lani": 9962,
  "lano": 1159,
  "lanta": 8637,
  "lante": 4510,
  "lanti": 6544,
  "lanza": 7272,
  "laple": 4300,
  "laplex": 4376,
  "lar": 1499,
  "lare": 593,
  "lari": 1193,
  "laritÃł": 5276,
  "larmente": 2502,
  "laro": 6283,
  "las": 10599,
  "lata": 1962,
  "late": 3835,
  "later": 5073,
  "laterale": 10432,
  "laterali": 10431,
  "lateria": 9429,
  "lati": 2626,
  "lato": 1175,
  "lau": 3786,
  "laudio": 6854,
  "lavo": 5437,
  "lay": 10600,
  "lazione": 1118,
  "lazioni": 4665,
  "lazzo": 4219,
  "ld": 2690,
  "le": 282,
  "legge": 10608,
  "leggio": 8947,
  "len": 1451,
  "ler": 2956,
  "les": 5738,
  "lesc": 6693,
  "lesi": 11305,
  "less": 10607,
  "let": 5075,
  "letta": 8946,
  "letter": 8506,
  "letti": 4570,
  "letto": 8115,
  "ley": 9969,
  "lgs": 8915,
  "li": 279,
  "lia": 1284,
  "liamo": 5438,
  "liano": 5736,
  "liare": 3914,
  "liari": 6581,
  "liaritÃł": 10245,
  "lib": 3240,
  "librio": 4747,
  "lica": 885,
  "licati": 6782,
  "licazione": 4262,
  "lice": 4065,
  "liche": 9966,
  "lici": 2573,
  "lico": 3836,
  "lievi": 10605,
  "lievo": 5737,
  "light": 9967,
  "lin": 3334,
  "lina": 2848,
  "line": 1012,
  "ling": 6671,
  "lini": 3578,
  "lino": 4210,
  "lio": 1572,
  "lips": 11302,
  "lite": 7176,
  "lito": 11301,
  "litÃł": 939,
  "lizione": 4220,
  "lizza": 757,
  "lizzare": 5796,
  "lizzata": 9101,
  "lizzate": 11546,
  "lizzati": 8655,
  "lizzato": 6357,
  "lizzazione": 5254,
  "ll": 1216,
  "lla": 943,
  "llare": 2821,
  "lle": 2225,
  "llela": 11772,
  "ller": 5814,
  "lli": 1518,
  "llo": 1247,
  "lmente": 922,
  "lo": 308,
  "load": 4673,
  "lob": 2554,
  "lobal": 8006,
  "lochi": 10632,
  "locu": 9989,
  "loga": 10631,
  "logi": 1013,
  "logia": 1637,
  "logica": 5017,
  "logiche": 6370,
  "logici": 6790,
  "logico": 3656,
  "logie": 4179,
  "logo": 2798,
  "logy": 9990,
  "lon": 6906,
  "loni": 9396,
  "look": 10633,
  "lora": 2730,
  "lore": 1003,
  "lori": 1155,
  "loride": 11635,
  "loro": 2211,
  "los": 6907,
  "lotto": 8961,
  "loud": 6095,
  "low": 9988,
  "ls": 8090,
  "lterra": 6672,
  "lti": 6461,
  "ltre": 824,
  "ltÃł": 7154,
  "lu": 515,
  "lub": 4700,
  "luenza": 8200,
  "lui": 11250,
  "lun": 5879,
  "lus": 2091,
  "lusconi": 6017,
  "lustra": 5836,
  "luzione": 6751,
  "ly": 2394,
  "m": 81,
  "ma": 325,
  "maco": 9461,
  "mag": 2694,
  "mages": 11034,
  "mai": 1964,
  "mail": 2731,
  "mal": 5178,
  "male": 11349,
  "malmente": 7798,
  "mamente": 2962,
  "man": 955,
  "mana": 1569,
  "mance": 5976,
  "mando": 3429,
  "mane": 1643,
  "mani": 2650,
  "mania": 3756,
  "mano": 2128,
  "mante": 8091,
  "manti": 5880,
  "mar": 1106,
  "marca": 10225,
  "marco": 8291,
  "mare": 2002,
  "marsi": 4106,
  "mart": 2191,
  "mata": 2212,
  "mate": 6485,
  "mati": 2491,
  "matica": 3438,
  "matici": 6950,
  "matico": 4072,
  "mato": 1215,
  "mazione": 7518,
  "mb": 480,
  "mba": 3348,
  "mbascia": 8194,
  "mbassi": 11470,
  "mbe": 3496,
  "mber": 11468,
  "mbi": 911,
  "mbia": 1382,
  "mbiente": 9118,
  "mbini": 8594,
  "mble": 4697,
  "mblea": 6442,
  "mbo": 2337,
  "mbolo": 5613,
  "mbor": 4247,
  "mbra": 1440,
  "mbre": 1068,
  "mbri": 11469,
  "mbro": 6144,
  "mbu": 6333,
  "mbur": 7873,
  "mburgo": 11179,
  "me": 492,
  "mea": 3861,
  "med": 7877,
  "medi": 9045,
  "media": 1864,
  "medio": 10108,
  "mel": 9931,
  "meli": 9398,
  "men": 317,
  "mendo": 8522,
  "meno": 1351,
  "mensi": 11345,
  "mensione": 9456,
  "ment": 2800,
  "menta": 1489,
  "mentale": 2176,
  "mentali": 3740,
  "mentando": 8523,
  "mentano": 9457,
  "mentare": 1904,
  "mentari": 3027,
  "mentata": 8712,
  "mentato": 4674,
  "mentazione": 2490,
  "mente": 385,
  "menti": 571,
  "mento": 432,
  "mer": 962,
  "mera": 3195,
  "merca": 6074,
  "merce": 6183,
  "mere": 2625,
  "mersi": 11596,
  "mes": 7155,
  "messa": 4559,
  "messe": 4852,
  "messo": 2789,
  "met": 853,
  "metri": 2979,
  "metro": 4427,
  "metter": 8272,
  "mettere": 4175,
  "mi": 399,
  "mia": 1942,
  "miamo": 11251,
  "mica": 2071,
  "miche": 3399,
  "mici": 3490,
  "mico": 2897,
  "mier": 7855,
  "migi": 11418,
  "migra": 7856,
  "mila": 3541,
  "mili": 10709,
  "min": 2649,
  "mina": 866,
  "minare": 2864,
  "minata": 5648,
  "minati": 10851,
  "minato": 4814,
  "minazione": 4261,
  "mine": 7156,
  "mini": 4293,
  "minio": 6416,
  "ministra": 3280,
  "ministrazione": 4748,
  "mino": 6673,
  "mio": 2691,
  "mis": 1253,
  "mismo": 10239,
  "missione": 2342,
  "missioni": 7327,
  "mite": 1965,
  "mittente": 11419,
  "mitÃł": 3924,
  "ml": 9930,
  "mm": 739,
  "mma": 725,
  "mme": 5324,
  "mmeno": 4472,
  "mmi": 2277,
  "mministra": 6550,
  "mministrazione": 8056,
  "mmo": 3035,
  "mmobile": 11047,
  "mo": 354,
  "mobili": 4403,
  "mon": 1396,
  "mona": 7466,
  "mond": 11675,
  "mone": 3902,
  "moni": 1805,
  "monia": 3511,
  "moniale": 8400,
  "mor": 3279,
  "more": 2213,
  "mori": 7835,
  "mos": 2994,
  "mosi": 5912,
  "moto": 6114,
  "mozione": 6960,
  "mp": 347,
  "mpa": 1346,
  "mpanti": 6495,
  "mpe": 8981,
  "mpere": 6958,
  "mpi": 830,
  "mpia": 11384,
  "mpio": 1113,
  "mplice": 10027,
  "mpo": 586,
  "mpre": 3440,
  "mprese": 10383,
  "ms": 4471,
  "mu": 2226,
  "mw": 9397,
  "n": 82,
  "na": 392,
  "naio": 2702,
  "nal": 9932,
  "nale": 3690,
  "nali": 3999,
  "nando": 8092,
  "nano": 11252,
  "napa": 11416,
  "napac": 12038,
  "nare": 9015,
  "nata": 6322,
  "nato": 8160,
  "natura": 10705,
  "ndo": 4954,
  "ne": 584,
  "nei": 5626,
  "nel": 7467,
  "nella": 6272,
  "neo": 7587,
  "ner": 1929,
  "nera": 6674,
  "nero": 5325,
  "nes": 8916,
  "ness": 8093,
  "net": 1768,
  "ney": 6996,
  "ni": 382,
  "nia": 6271,
  "nica": 7551,
  "nice": 5220,
  "nici": 10692,
  "nico": 4080,
  "nie": 11406,
  "ning": 9399,
  "nio": 4059,
  "nis": 9006,
  "nita": 9498,
  "nitÃł": 5354,
  "nno": 3100,
  "no": 332,
  "nology": 10648,
  "noltre": 2578,
  "non": 2995,
  "noso": 8094,
  "nosoft": 8447,
  "nota": 6489,
  "nova": 1825,
  "now": 9466,
  "o": 83,
  "obbli": 8471,
  "obbligo": 11184,
  "obiettivo": 3335,
  "occasione": 3627,
  "occhiata": 9933,
  "occhio": 7157,
  "occupa": 8473,
  "occupazione": 12008,
  "od": 5179,
  "of": 10560,
  "offerta": 5180,
  "ok": 1388,
  "ol": 343,
  "ola": 10562,
  "oldi": 8976,
  "oli": 4211,
  "olini": 5458,
  "olino": 5755,
  "olio": 8472,
  "oll": 7203,
  "olle": 4315,
  "olli": 4075,
  "olo": 867,
  "ologia": 6561,
  "ologica": 11575,
  "olto": 10664,
  "oltre": 2026,
  "om": 309,
  "oma": 1060,
  "omanda": 5450,
  "omare": 9991,
  "omas": 7512,
  "omb": 2280,
  "omba": 7513,
  "ombra": 7692,
  "ome": 896,
  "omen": 818,
  "omenica": 2743,
  "omenico": 9113,
  "omenti": 3206,
  "omento": 1103,
  "omet": 3152,
  "omi": 1832,
  "omia": 4969,
  "omici": 7980,
  "omicidio": 11997,
  "omico": 8131,
  "omina": 2762,
  "omini": 2132,
  "omma": 2471,
  "omo": 1014,
  "omodo": 8285,
  "ompa": 2555,
  "on": 262,
  "ona": 404,
  "onal": 4480,
  "onale": 1250,
  "onali": 2536,
  "onalitÃł": 4584,
  "onalmente": 7479,
  "onamento": 5602,
  "onare": 3445,
  "onario": 8168,
  "onata": 5927,
  "onati": 3595,
  "onato": 2072,
  "oncini": 10581,
  "ond": 2488,
  "onda": 1954,
  "ondi": 2194,
  "ondo": 3380,
  "one": 303,
  "onendo": 10580,
  "ones": 10579,
  "ong": 3783,
  "ongo": 5433,
  "ongob": 10446,
  "ongono": 7805,
  "oni": 356,
  "onia": 4298,
  "onica": 2659,
  "oniche": 11390,
  "onico": 10033,
  "onima": 8148,
  "onimo": 7836,
  "onista": 2660,
  "onisti": 2386,
  "onna": 2675,
  "onne": 7478,
  "ono": 357,
  "ons": 6079,
  "onta": 1108,
  "ontan": 4562,
  "ontana": 2523,
  "ontani": 10226,
  "ontano": 3611,
  "onte": 1953,
  "onti": 3379,
  "ontÃł": 4761,
  "onus": 4214,
  "ony": 2598,
  "oo": 2129,
  "ood": 4833,
  "oogle": 3662,
  "ool": 3903,
  "oolrich": 5056,
  "op": 3980,
  "opera": 1746,
  "operazione": 3182,
  "opportunitÃł": 6909,
  "opzione": 10401,
  "or": 296,
  "ora": 1971,
  "orario": 7988,
  "orbi": 6092,
  "ord": 895,
  "ordina": 1720,
  "ordine": 3021,
  "ordo": 1758,
  "ore": 3101,
  "org": 3039,
  "organizza": 3990,
  "organizzazione": 4751,
  "orge": 8125,
  "ori": 5881,
  "orientamento": 11947,
  "orig": 5882,
  "origine": 8435,
  "ork": 2054,
  "orld": 4067,
  "orme": 5445,
  "ormente": 5338,
  "ormi": 5444,
  "orn": 5897,
  "orno": 5443,
  "oro": 4130,
  "orre": 1374,
  "orrei": 9675,
  "orri": 10617,
  "orse": 2383,
  "orsi": 5898,
  "orso": 6292,
  "ort": 945,
  "orta": 704,
  "ortare": 4139,
  "ortato": 4225,
  "ortazioni": 11536,
  "orte": 1628,
  "orti": 1398,
  "orto": 878,
  "orzio": 7182,
  "os": 306,
  "osa": 745,
  "osamente": 5639,
  "osare": 10630,
  "osci": 6481,
  "ose": 1399,
  "oshi": 8516,
  "oshida": 11185,
  "osi": 792,
  "oso": 889,
  "ospedale": 7821,
  "ospi": 10629,
  "oss": 4307,
  "ossa": 7511,
  "osse": 10628,
  "osser": 9450,
  "ossi": 1737,
  "osso": 2044,
  "ost": 9449,
  "osta": 1048,
  "ostante": 2332,
  "oste": 1872,
  "osteni": 8130,
  "ostenibile": 11181,
  "osti": 2396,
  "ostici": 6482,
  "ostitu": 11339,
  "osto": 1165,
  "ostra": 1041,
  "ot": 10561,
  "ottima": 6908,
  "otto": 9400,
  "p": 84,
  "pAdvisor": 10565,
  "pa": 484,
  "par": 2757,
  "parazione": 10757,
  "pare": 5778,
  "pari": 9042,
  "parti": 8917,
  "parto": 8779,
  "pas": 9934,
  "passi": 10564,
  "pati": 5779,
  "patia": 9542,
  "pe": 629,
  "pea": 10802,
  "pedale": 5633,
  "pedali": 9078,
  "pedia": 7599,
  "pel": 6910,
  "pen": 1144,
  "pensa": 9656,
  "per": 577,
  "pera": 724,
  "peri": 5883,
  "periamo": 10792,
  "pero": 3233,
  "pers": 11497,
  "perta": 9068,
  "perto": 6995,
  "pet": 9401,
  "petta": 10563,
  "petto": 4131,
  "ph": 1891,
  "phia": 11254,
  "phone": 2504,
  "pi": 505,
  "pia": 2158,
  "pica": 8601,
  "pie": 5781,
  "pio": 8096,
  "pisce": 6912,
  "pita": 10111,
  "pito": 4593,
  "pix": 8600,
  "piÃ¹": 10763,
  "pl": 2756,
  "pla": 4659,
  "ple": 2147,
  "pli": 6462,
  "plica": 8097,
  "plici": 7468,
  "plo": 3524,
  "pment": 9402,
  "po": 439,
  "poca": 4500,
  "point": 10081,
  "poker": 11450,
  "pol": 5181,
  "pole": 6516,
  "poli": 1343,
  "pon": 4955,
  "poni": 6911,
  "ponibile": 9859,
  "por": 8474,
  "pore": 5769,
  "pori": 8582,
  "port": 4212,
  "porta": 7799,
  "pos": 3523,
  "posi": 1786,
  "posizione": 4277,
  "posto": 5183,
  "pp": 369,
  "ppa": 1817,
  "ppare": 10038,
  "ppe": 1895,
  "ppi": 2214,
  "ppia": 2115,
  "ppiamo": 5758,
  "ppie": 7840,
  "pping": 9487,
  "ppio": 3997,
  "ppo": 679,
  "ppon": 5918,
  "ppone": 4498,
  "pponese": 7130,
  "pport": 5596,
  "pportunitÃł": 6648,
  "pposi": 4804,
  "pposizione": 8843,
  "ppure": 3246,
  "pra": 834,
  "prattutto": 10190,
  "pre": 930,
  "preew": 6785,
  "preewald": 7772,
  "pren": 3281,
  "prendere": 10374,
  "prendo": 11847,
  "presidente": 7926,
  "press": 9120,
  "pressione": 5809,
  "pri": 891,
  "pria": 5182,
  "prile": 11581,
  "prima": 9625,
  "prin": 4294,
  "print": 6862,
  "prio": 4759,
  "prire": 2258,
  "pro": 2550,
  "ps": 5326,
  "pt": 8095,
  "pto": 11253,
  "pu": 1315,
  "pubbli": 2564,
  "pubblica": 3516,
  "puglia": 10250,
  "puli": 5672,
  "pus": 9935,
  "q": 85,
  "qu": 307,
  "qua": 3342,
  "quad": 1610,
  "quadra": 10950,
  "quale": 7185,
  "quali": 7184,
  "quattro": 9451,
  "que": 758,
  "qui": 1324,
  "quisi": 6582,
  "quisiti": 9855,
  "quo": 5341,
  "quot": 11132,
  "r": 86,
  "ra": 278,
  "rado": 11300,
  "raele": 6471,
  "raeli": 6692,
  "raggi": 7175,
  "raggio": 3149,
  "rai": 2850,
  "raio": 2759,
  "ral": 9433,
  "rale": 1975,
  "rali": 3435,
  "rama": 7810,
  "ramente": 1842,
  "ran": 407,
  "rance": 11427,
  "rancione": 5603,
  "ranco": 8171,
  "rand": 4326,
  "rande": 7562,
  "randi": 11426,
  "rando": 2703,
  "ranno": 887,
  "rano": 2958,
  "rante": 949,
  "ranti": 1380,
  "ranto": 4787,
  "ranza": 3301,
  "ranzia": 3447,
  "ranzo": 8571,
  "rare": 828,
  "ras": 2793,
  "rastru": 4940,
  "rastrutture": 5313,
  "rat": 8945,
  "rata": 1556,
  "rate": 3913,
  "rati": 1808,
  "rato": 999,
  "ratori": 2760,
  "ratorie": 8377,
  "ratorio": 6285,
  "razione": 902,
  "razioni": 3386,
  "rci": 3376,
  "rd": 11255,
  "rdi": 8098,
  "rdo": 6675,
  "re": 268,
  "rea": 2160,
  "rebbe": 1140,
  "rebbero": 3000,
  "reen": 8501,
  "rei": 3909,
  "rel": 9952,
  "rella": 6929,
  "relli": 8938,
  "remo": 3785,
  "ren": 637,
  "rena": 5567,
  "rendi": 2907,
  "rendo": 4170,
  "rente": 4019,
  "renti": 3947,
  "renza": 5246,
  "renze": 3013,
  "reo": 4387,
  "rere": 2692,
  "rerebbe": 8776,
  "rerÃł": 8475,
  "res": 715,
  "ressa": 4805,
  "ressamente": 10822,
  "resse": 7601,
  "ressi": 2791,
  "ressione": 5734,
  "resso": 3238,
  "resta": 3833,
  "resto": 8247,
  "rete": 5333,
  "retto": 9423,
  "rezza": 1202,
  "ri": 276,
  "ria": 531,
  "riamente": 6338,
  "riamo": 3601,
  "riano": 9430,
  "riato": 8203,
  "rica": 1280,
  "ricare": 3733,
  "rich": 4568,
  "riche": 8114,
  "richi": 9431,
  "rico": 1571,
  "riduzione": 11299,
  "rie": 789,
  "riera": 4768,
  "riere": 8504,
  "rietÃł": 5074,
  "rig": 1039,
  "rigi": 1841,
  "rigios": 9201,
  "rim": 8943,
  "rimento": 5570,
  "rin": 710,
  "rina": 3036,
  "ring": 8918,
  "rini": 5432,
  "rino": 8099,
  "rio": 504,
  "riositÃł": 9553,
  "rire": 1635,
  "ris": 2295,
  "risma": 6412,
  "risti": 2149,
  "riti": 10604,
  "rito": 2312,
  "ritorio": 9965,
  "rittura": 4064,
  "ritÃł": 2572,
  "rl": 9936,
  "rla": 3146,
  "rlanda": 9937,
  "rle": 5065,
  "rli": 4660,
  "rlo": 2327,
  "rmi": 5431,
  "rne": 4473,
  "rno": 2998,
  "ro": 287,
  "rocco": 10612,
  "roga": 8120,
  "roidi": 6089,
  "rol": 9971,
  "rola": 5894,
  "rom": 6288,
  "ron": 621,
  "rona": 6676,
  "rone": 2997,
  "roni": 2278,
  "ronia": 9583,
  "rono": 2148,
  "ronÃł": 10144,
  "rore": 6088,
  "rori": 11312,
  "ros": 11311,
  "rosi": 10611,
  "rossi": 11313,
  "rovvi": 11314,
  "rra": 10566,
  "rre": 1385,
  "rs": 11256,
  "rsi": 926,
  "rsioni": 10861,
  "rt": 9403,
  "rti": 2996,
  "ru": 485,
  "rucci": 5368,
  "ruppo": 5614,
  "rur": 3011,
  "rus": 2672,
  "rutta": 2451,
  "ruzione": 10105,
  "ruzzo": 10106,
  "rvi": 5184,
  "ry": 3336,
  "rÃ²": 4760,
  "rÃł": 817,
  "s": 87,
  "sApp": 6076,
  "sa": 348,
  "sal": 6914,
  "sale": 5459,
  "sali": 8144,
  "samente": 2929,
  "samento": 8145,
  "samo": 10673,
  "san": 6913,
  "sando": 3579,
  "sano": 5066,
  "sante": 5553,
  "sare": 1291,
  "sata": 4150,
  "sate": 2969,
  "sati": 2658,
  "sato": 1646,
  "sazione": 3797,
  "sazioni": 8541,
  "sc": 802,
  "sca": 4474,
  "sce": 1546,
  "sche": 4661,
  "schi": 7800,
  "sci": 1664,
  "scia": 1225,
  "scio": 6075,
  "scita": 2551,
  "sciu": 4532,
  "sco": 4956,
  "sconi": 9111,
  "scono": 3353,
  "scri": 1711,
  "scrizione": 11718,
  "se": 394,
  "segna": 2371,
  "sen": 3147,
  "senia": 8806,
  "ser": 1337,
  "sero": 4295,
  "servi": 9161,
  "sh": 3904,
  "shi": 3981,
  "ship": 5709,
  "sho": 4853,
  "shop": 6870,
  "si": 290,
  "sia": 774,
  "siamo": 4258,
  "sias": 4962,
  "siasi": 1589,
  "sibile": 9974,
  "sica": 8123,
  "sico": 8509,
  "sid": 647,
  "sidente": 1240,
  "sider": 2910,
  "sidera": 1322,
  "sideri": 7006,
  "sie": 1271,
  "sieme": 1461,
  "sigato": 11318,
  "sign": 3289,
  "sile": 5336,
  "sili": 8122,
  "sima": 7178,
  "simi": 7179,
  "simo": 2053,
  "sio": 3682,
  "sion": 6696,
  "sione": 538,
  "sioni": 966,
  "siste": 6939,
  "sitÃł": 2853,
  "siva": 6090,
  "sive": 8949,
  "sivi": 7816,
  "sivo": 4223,
  "sla": 5185,
  "sma": 11257,
  "smi": 6677,
  "smo": 1217,
  "so": 331,
  "sodi": 8969,
  "sodio": 6101,
  "soft": 5907,
  "sogna": 8970,
  "sola": 2112,
  "sole": 2695,
  "soli": 3294,
  "somma": 6463,
  "son": 2508,
  "sonalmente": 11804,
  "sono": 9404,
  "sor": 4384,
  "sore": 10647,
  "sori": 7520,
  "sp": 408,
  "spe": 6125,
  "spensa": 5358,
  "spi": 2270,
  "spica": 11428,
  "spon": 1413,
  "sponsa": 1969,
  "ss": 662,
  "ssa": 974,
  "ssamento": 10208,
  "ssand": 4599,
  "sse": 846,
  "ssegna": 7921,
  "ssere": 11525,
  "ssero": 7898,
  "sseto": 8666,
  "ssi": 468,
  "ssia": 7243,
  "ssima": 1848,
  "ssime": 3162,
  "ssimi": 1998,
  "ssimo": 1355,
  "ssine": 8632,
  "ssione": 1414,
  "ssioni": 4795,
  "sso": 529,
  "sson": 11524,
  "st": 842,
  "sta": 516,
  "stagram": 10114,
  "stalla": 2772,
  "stano": 9559,
  "stante": 8101,
  "stare": 4957,
  "stata": 10113,
  "stato": 7251,
  "stazione": 10765,
  "ste": 664,
  "stein": 10808,
  "stem": 7899,
  "sten": 1197,
  "stente": 4617,
  "stenti": 5990,
  "stenza": 1777,
  "ster": 3672,
  "stere": 3870,
  "stero": 7158,
  "sti": 509,
  "stica": 1613,
  "stiche": 4162,
  "stici": 3937,
  "stico": 1890,
  "stima": 9555,
  "stina": 6178,
  "stinare": 9619,
  "stino": 5260,
  "stito": 9048,
  "stitu": 1638,
  "stitui": 5369,
  "stituto": 5681,
  "sto": 868,
  "stono": 3649,
  "stra": 1242,
  "strada": 11650,
  "stratto": 8300,
  "stre": 5726,
  "stri": 8100,
  "stro": 3196,
  "sts": 11564,
  "su": 2349,
  "sula": 8761,
  "sum": 9938,
  "sÃ¬": 5884,
  "t": 88,
  "tBo": 11258,
  "tBox": 12036,
  "ta": 272,
  "tag": 2266,
  "tage": 8940,
  "taggio": 11292,
  "tagna": 4765,
  "tagne": 11780,
  "tal": 1839,
  "tale": 766,
  "tali": 535,
  "talia": 954,
  "talitÃł": 4996,
  "talmente": 4859,
  "talo": 7491,
  "taly": 6010,
  "tamente": 827,
  "tamento": 7492,
  "tan": 447,
  "tana": 3385,
  "tanbul": 9525,
  "tando": 1219,
  "tanea": 6980,
  "tani": 5735,
  "tania": 6330,
  "tano": 1361,
  "tante": 754,
  "tanti": 1272,
  "tanto": 1826,
  "tanza": 1233,
  "tanze": 3494,
  "tar": 1871,
  "tare": 510,
  "tari": 2267,
  "taria": 3239,
  "tarie": 5190,
  "tario": 1944,
  "tarlo": 10979,
  "tarsi": 7174,
  "tas": 4764,
  "tassi": 7493,
  "tata": 1678,
  "tate": 1590,
  "tati": 985,
  "tativa": 11293,
  "tativo": 11294,
  "tato": 575,
  "tazione": 1023,
  "tazioni": 2792,
  "tch": 4958,
  "te": 281,
  "tec": 6287,
  "teca": 5439,
  "tech": 7496,
  "ted": 3288,
  "tedÃ¬": 6935,
  "tegno": 4390,
  "tego": 2627,
  "tel": 685,
  "tele": 7470,
  "tella": 3557,
  "telle": 2911,
  "telli": 1882,
  "tello": 2810,
  "telo": 10814,
  "temi": 11304,
  "ten": 420,
  "tena": 6127,
  "tendenza": 9024,
  "tendo": 2234,
  "tene": 4586,
  "teni": 6327,
  "tense": 10061,
  "tensione": 5766,
  "tente": 2255,
  "tenti": 2151,
  "tenza": 2739,
  "tenze": 9023,
  "tenzione": 2299,
  "teo": 4860,
  "ter": 361,
  "tera": 2856,
  "teranno": 4319,
  "tere": 1091,
  "terebbe": 9646,
  "teri": 3343,
  "teria": 1209,
  "teriale": 6796,
  "teriore": 5914,
  "teriori": 8150,
  "terna": 1426,
  "terno": 3589,
  "tero": 1406,
  "teroidi": 10257,
  "terolo": 7208,
  "terra": 4318,
  "terran": 7207,
  "terÃ²": 11391,
  "terÃł": 1844,
  "tes": 7811,
  "tese": 7497,
  "tesi": 3204,
  "tettura": 9968,
  "tevi": 7495,
  "tezza": 1955,
  "th": 2209,
  "the": 6915,
  "ther": 11000,
  "ti": 273,
  "tia": 2654,
  "tiamo": 5191,
  "tiazide": 11814,
  "tic": 2252,
  "tica": 606,
  "ticamente": 5788,
  "tiche": 1016,
  "tici": 978,
  "tico": 559,
  "ticolo": 1555,
  "tics": 10333,
  "tidi": 2052,
  "tiene": 2758,
  "tile": 8112,
  "tili": 6470,
  "tilitÃł": 11295,
  "tin": 743,
  "tina": 1065,
  "tinazionali": 8289,
  "tine": 3905,
  "tinera": 8648,
  "ting": 2999,
  "tini": 2726,
  "tino": 1703,
  "tio": 9427,
  "tion": 1037,
  "tional": 3461,
  "tions": 6372,
  "tipo": 9959,
  "tire": 9957,
  "tis": 3584,
  "titi": 9958,
  "tito": 4218,
  "titu": 998,
  "titudine": 10875,
  "tituzione": 3953,
  "tiva": 678,
  "tivamente": 3014,
  "tive": 964,
  "tivi": 848,
  "tivitÃł": 3259,
  "tivo": 717,
  "tizia": 1840,
  "tizie": 9960,
  "tizzare": 9961,
  "tle": 6678,
  "tner": 3525,
  "to": 269,
  "tola": 7173,
  "ton": 1357,
  "tone": 3780,
  "toni": 2227,
  "tonio": 3230,
  "tono": 1930,
  "top": 7808,
  "tor": 1163,
  "tore": 627,
  "tori": 458,
  "toria": 2478,
  "toriale": 3748,
  "torie": 4590,
  "torio": 1278,
  "torni": 9659,
  "torno": 2038,
  "tr": 971,
  "tra": 378,
  "trale": 9001,
  "tran": 7550,
  "traverso": 10687,
  "tre": 443,
  "tretto": 10083,
  "tri": 463,
  "tria": 7570,
  "trib": 1186,
  "trica": 10096,
  "trice": 1907,
  "trici": 4160,
  "trico": 7571,
  "trimoni": 3048,
  "trimoniale": 8592,
  "trimonio": 3186,
  "trin": 6916,
  "trino": 10868,
  "tro": 413,
  "tron": 3982,
  "troni": 8677,
  "tropo": 10715,
  "troppo": 2974,
  "tru": 651,
  "truttura": 3751,
  "truzione": 2186,
  "truzioni": 4171,
  "try": 5978,
  "trÃ²": 10869,
  "trÃł": 2923,
  "ts": 2673,
  "tt": 749,
  "tta": 426,
  "ttamente": 1400,
  "ttamento": 7229,
  "ttan": 2830,
  "ttando": 8785,
  "ttare": 2901,
  "ttata": 6329,
  "ttate": 10718,
  "ttati": 11438,
  "ttato": 4790,
  "ttavia": 4083,
  "tte": 554,
  "ttempo": 7258,
  "tten": 1184,
  "ttenimento": 10898,
  "ttente": 7639,
  "tter": 796,
  "ttere": 2033,
  "tti": 388,
  "ttica": 6726,
  "ttico": 11409,
  "ttima": 3211,
  "ttime": 6505,
  "ttimo": 5465,
  "ttina": 9098,
  "ttini": 8652,
  "ttino": 9099,
  "ttiva": 3798,
  "ttive": 4988,
  "ttivi": 7222,
  "ttivitÃł": 9011,
  "ttivo": 3921,
  "tto": 364,
  "ttoni": 7283,
  "ttore": 1629,
  "ttori": 1888,
  "ttoria": 3996,
  "ttorio": 8991,
  "ttosto": 4233,
  "ttp": 3312,
  "ttra": 6273,
  "ttrice": 6679,
  "ttrina": 4173,
  "ttu": 740,
  "ttuali": 9596,
  "ttualmente": 7604,
  "ttura": 800,
  "tture": 1898,
  "ttutto": 1330,
  "ttÃł": 1038,
  "tu": 350,
  "tua": 928,
  "tuale": 2767,
  "tuali": 6111,
  "tuato": 10862,
  "tudine": 5208,
  "tui": 1410,
  "tuna": 3234,
  "tuni": 9405,
  "tur": 2825,
  "tura": 508,
  "ture": 1304,
  "turgia": 8782,
  "turi": 3441,
  "tus": 3995,
  "tusias": 5591,
  "tuto": 5460,
  "tutto": 4402,
  "ty": 1780,
  "tyle": 9697,
  "tz": 8476,
  "tÃ²": 7469,
  "tÃ¹": 7159,
  "tÃł": 372,
  "u": 89,
  "ua": 4854,
  "uale": 3102,
  "uali": 7471,
  "ualitÃł": 7801,
  "ucci": 11261,
  "uccio": 11260,
  "uch": 6917,
  "ucro": 9408,
  "ud": 3526,
  "ude": 8919,
  "udi": 5067,
  "udica": 9407,
  "udo": 9406,
  "ue": 4475,
  "ufficio": 8480,
  "ugh": 8920,
  "ui": 436,
  "uild": 10728,
  "uire": 1947,
  "uis": 9939,
  "uisce": 7472,
  "uite": 10080,
  "uiti": 6979,
  "uito": 2359,
  "ul": 452,
  "ule": 6077,
  "ulette": 9330,
  "uli": 10567,
  "ull": 2558,
  "ulla": 1595,
  "ulli": 6137,
  "ullo": 4409,
  "ulsione": 5932,
  "ult": 10736,
  "ulta": 8182,
  "ulti": 734,
  "ultima": 2482,
  "ultimo": 2415,
  "ulto": 4694,
  "ultura": 1401,
  "um": 613,
  "uma": 4560,
  "umanitÃł": 5481,
  "ume": 1952,
  "umere": 7895,
  "umi": 2879,
  "umu": 4420,
  "un": 284,
  "una": 1139,
  "unale": 2852,
  "unci": 3150,
  "uncia": 1736,
  "uncio": 5077,
  "und": 4066,
  "une": 953,
  "ung": 4304,
  "uni": 565,
  "unica": 3305,
  "unico": 4015,
  "unity": 9065,
  "unitÃł": 2411,
  "universo": 9064,
  "unno": 10609,
  "uno": 1142,
  "unque": 888,
  "unt": 3069,
  "unta": 1824,
  "untamenti": 10976,
  "untamento": 3762,
  "unte": 8507,
  "unti": 3915,
  "unto": 1945,
  "unzione": 4391,
  "uo": 405,
  "uogo": 7857,
  "uoi": 1067,
  "uol": 5885,
  "uola": 2200,
  "uole": 1468,
  "uolo": 11421,
  "uomo": 1994,
  "uori": 9019,
  "uova": 7561,
  "uovere": 8567,
  "up": 2445,
  "ur": 686,
  "ura": 699,
  "urata": 11535,
  "urb": 10157,
  "ure": 940,
  "uri": 2404,
  "uro": 634,
  "urre": 9592,
  "urs": 6355,
  "urtroppo": 5961,
  "us": 442,
  "usa": 1236,
  "usci": 1431,
  "uscita": 3856,
  "uscolo": 10730,
  "use": 1294,
  "useppe": 3226,
  "usi": 1220,
  "usione": 4476,
  "uso": 1530,
  "uss": 9521,
  "usse": 6517,
  "ussemburgo": 11956,
  "ussia": 9522,
  "usso": 10082,
  "usto": 1906,
  "ustra": 6134,
  "ustralia": 10463,
  "ustri": 1847,
  "ustria": 7981,
  "usura": 4793,
  "ut": 1127,
  "uta": 784,
  "utando": 8478,
  "utare": 2527,
  "utata": 11550,
  "utati": 9605,
  "utato": 5554,
  "utazione": 7016,
  "ute": 1349,
  "utente": 4959,
  "uter": 3377,
  "uterÃł": 8479,
  "uth": 3957,
  "uti": 668,
  "utica": 8477,
  "utile": 8235,
  "utili": 3308,
  "utilizzo": 4202,
  "uto": 526,
  "uty": 9651,
  "uva": 11259,
  "ux": 7160,
  "uzione": 1173,
  "uzioni": 2395,
  "v": 90,
  "va": 349,
  "vacy": 4784,
  "val": 1269,
  "vale": 4979,
  "valente": 10242,
  "vali": 3588,
  "vamente": 1564,
  "vamo": 4151,
  "van": 6918,
  "vando": 3673,
  "vang": 5327,
  "vangel": 11131,
  "vangeli": 7753,
  "vano": 894,
  "vanta": 6919,
  "vante": 4132,
  "vanti": 2066,
  "vanza": 9410,
  "var": 2924,
  "varci": 11044,
  "vare": 903,
  "vari": 8146,
  "varia": 8542,
  "vario": 4871,
  "varsi": 8102,
  "vata": 1995,
  "vate": 2699,
  "vati": 1873,
  "vato": 1061,
  "vazione": 4076,
  "ve": 395,
  "vecchia": 8162,
  "vece": 1141,
  "vedere": 5356,
  "vedi": 3594,
  "vedÃ¬": 5092,
  "veglianza": 7854,
  "vel": 4662,
  "vello": 9409,
  "velo": 5068,
  "ven": 506,
  "vendo": 2521,
  "veni": 2080,
  "venire": 3168,
  "vente": 9941,
  "venti": 1366,
  "vento": 1087,
  "ventu": 1585,
  "ventura": 9554,
  "ventus": 4113,
  "venuti": 7250,
  "venuto": 4699,
  "venzione": 5104,
  "ver": 428,
  "vera": 2419,
  "verai": 6835,
  "veranno": 11440,
  "vere": 933,
  "verete": 5497,
  "veri": 4060,
  "verlo": 11439,
  "verno": 3493,
  "vero": 1333,
  "vers": 9515,
  "versa": 1889,
  "versale": 7676,
  "versario": 8334,
  "versi": 1523,
  "versitÃł": 2591,
  "verso": 1136,
  "verÃł": 4084,
  "ves": 4477,
  "vest": 8482,
  "vesti": 1917,
  "vestre": 10568,
  "vestrelli": 11201,
  "vetta": 11263,
  "vi": 344,
  "via": 759,
  "viamente": 2456,
  "viamo": 3430,
  "viare": 7909,
  "viata": 11547,
  "viato": 10831,
  "viazione": 7285,
  "vic": 11375,
  "vid": 2968,
  "vidanza": 6842,
  "vide": 3994,
  "vidi": 10015,
  "vido": 11376,
  "vidu": 10665,
  "vie": 5348,
  "viene": 5910,
  "vile": 4868,
  "vimenti": 4495,
  "vimento": 2135,
  "vin": 1154,
  "ving": 7473,
  "vini": 5886,
  "vino": 8921,
  "vio": 2533,
  "virus": 9476,
  "visi": 2927,
  "visione": 5756,
  "vismo": 10016,
  "viso": 5205,
  "visor": 8537,
  "vista": 3636,
  "visto": 11377,
  "vita": 8977,
  "vito": 10014,
  "vitÃł": 934,
  "viv": 5590,
  "vo": 379,
  "voca": 6318,
  "vocato": 5217,
  "vol": 654,
  "vola": 4234,
  "vole": 1320,
  "voli": 2518,
  "volmente": 5482,
  "volo": 4153,
  "volta": 3948,
  "volto": 10149,
  "volut": 9082,
  "voluzione": 5634,
  "vono": 1604,
  "vor": 11262,
  "vorio": 10688,
  "vos": 8481,
  "vra": 3235,
  "vre": 9940,
  "vvero": 1444,
  "vvi": 3628,
  "vviamente": 5555,
  "w": 91,
  "wa": 3527,
  "wan": 11264,
  "ward": 7161,
  "ware": 2597,
  "way": 10385,
  "ways": 11078,
  "we": 5727,
  "well": 6681,
  "wer": 6680,
  "wi": 2651,
  "wiki": 8008,
  "wing": 10569,
  "witter": 6837,
  "wn": 3197,
  "wnload": 5164,
  "wood": 7474,
  "work": 3528,
  "ws": 1806,
  "ww": 1641,
  "www": 4192,
  "x": 92,
  "xelles": 11266,
  "xi": 7162,
  "xit": 9411,
  "xt": 10570,
  "xx": 8922,
  "xy": 11265,
  "y": 93,
  "ya": 3726,
  "yber": 8483,
  "ych": 9412,
  "ychelles": 11191,
  "ye": 11267,
  "yer": 7163,
  "yn": 7802,
  "yo": 1918,
  "ys": 3781,
  "z": 94,
  "za": 333,
  "zano": 11269,
  "zare": 5585,
  "zaturi": 7195,
  "zaturificio": 7444,
  "ze": 631,
  "zer": 10571,
  "zi": 289,
  "zia": 512,
  "ziale": 1671,
  "ziali": 2175,
  "zialmente": 2925,
  "ziamento": 10764,
  "ziamo": 6750,
  "ziando": 11317,
  "ziano": 6475,
  "ziare": 6150,
  "ziato": 5617,
  "zide": 11316,
  "zie": 876,
  "zien": 1072,
  "zienda": 1494,
  "ziende": 2190,
  "zina": 11268,
  "zio": 603,
  "zion": 2886,
  "ziona": 552,
  "zionale": 836,
  "zionali": 1222,
  "zionalitÃł": 10120,
  "zionamento": 6993,
  "zionare": 5946,
  "zionario": 9568,
  "zionata": 5947,
  "zionato": 4800,
  "zione": 327,
  "zioni": 434,
  "zionista": 8178,
  "ziosa": 7815,
  "ziosi": 5630,
  "zioso": 5335,
  "ziotti": 11507,
  "zo": 882,
  "zon": 3431,
  "zy": 7475,
  "zz": 530,
  "zza": 414,
  "zzando": 2637,
  "zzano": 3864,
  "zzante": 7575,
  "zzanti": 6756,
  "zzar": 4891,
  "zzare": 2073,
  "zzata": 2680,
  "zzate": 5605,
  "zzati": 4408,
  "zzato": 2283,
  "zzatura": 11431,
  "zzazione": 1846,
  "zze": 1926,
  "zzera": 5621,
  "zzetta": 11481,
  "zzi": 965,
  "zziamo": 10572,
  "zzina": 7880,
  "zzini": 9054,
  "zzo": 727,
  "zzur": 6154,
  "{": 95,
  "|": 96,
  "}": 97,
  "~": 98,
  "¡": 99,
  "¢": 100,
  "£": 101,
  "¤": 102,
  "¥": 103,
  "¦": 104,
  "§": 105,
  "¨": 106,
  "©": 107,
  "ª": 108,
  "«": 109,
  "¬": 110,
  "®": 111,
  "¯": 112,
  "°": 113,
  "±": 114,
  "²": 115,
  "³": 116,
  "´": 117,
  "µ": 118,
  "¶": 119,
  "·": 120,
  "¸": 121,
  "¹": 122,
  "º": 123,
  "»": 124,
  "¼": 125,
  "½": 126,
  "¾": 127,
  "¿": 128,
  "¿½": 1389,
  "À": 129,
  "Á": 130,
  "Â": 131,
  "Â§": 9413,
  "Â«": 2727,
  "Â®": 8103,
  "Â°": 1583,
  "Â°.": 11701,
  "Â´": 4133,
  "Â»": 892,
  "Â»,": 3020,
  "Â».": 1674,
  "ÂŃ": 2328,
  "Ã": 132,
  "Ã¡": 4478,
  "Ã¡n": 8419,
  "Ã¢": 6274,
  "Ã¨": 326,
  "Ã©": 568,
  "Ã¬": 592,
  "Ã®": 6920,
  "Ã®tre": 9860,
  "Ã²": 496,
  "Ã³": 6464,
  "Ã¶": 8923,
  "Ã¹": 433,
  "Ã¼": 8104,
  "ÃĪ": 1081,
  "Ãł": 329,
  "ÃŃ": 9942,
  "Ä": 133,
  "Äį": 8484,
  "Å": 134,
  "ÅĤ": 11270,
  "Æ": 135,
  "Ç": 136,
  "È": 137,
  "É": 138,
  "Ê": 139,
  "Ë": 140,
  "Ì": 141,
  "ÌĢ": 2880,
  "Í": 142,
  "Î": 143,
  "Ï": 144,
  "Ð": 145,
  "Ð°": 3906,
  "Ð°Ð": 8032,
  "Ð²": 11271,
  "Ðµ": 3282,
  "ÐµÐ": 5708,
  "Ð¸": 3674,
  "Ð¸Ð": 6624,
  "Ðº": 7476,
  "Ð¾": 2881,
  "Ð¾Ð": 5703,
  "Ñ": 146,
  "ÑĢ": 3782,
  "Ñģ": 4134,
  "ÑģÑĤ": 7414,
  "ÑĤ": 3675,
  "Ñĥ": 8924,
  "ÑĮ": 10573,
  "Ò": 147,
  "Ó": 148,
  "Ô": 149,
  "Õ": 150,
  "Ö": 151,
  "×": 152,
  "Ø": 153,
  "Ù": 154,
  "Ú": 155,
  "Û": 156,
  "Ü": 157,
  "Ý": 158,
  "Þ": 159,
  "ß": 160,
  "à": 161,
  "á": 162,
  "â": 163,
  "âĢ": 294,
  "âĢ¦": 1178,
  "âĢ¦.": 5665,
  "âĢ¦âĢ¦": 7044,
  "âĢ²": 9979,
  "âĢ³": 6477,
  "âĢĭ": 9442,
  "âĢĵ": 4863,
  "âĢĺ": 6941,
  "âĢĻ": 319,
  "âĢĻ,": 5748,
  "âĢĻ.": 8133,
  "âĢľ": 1615,
  "âĢľ.": 11703,
  "âĢĿ": 499,
  "âĢĿ)": 11474,
  "âĢĿ,": 1032,
  "âĢĿ.": 832,
  "âĢĿ:": 9551,
  "âĤ": 1829,
  "âĤ¬": 1838,
  "ã": 164,
  "ä": 165,
  "å": 166,
  "æ": 167,
  "ç": 168,
  "è": 169,
  "é": 170,
  "ê": 171,
  "ë": 172,
  "ì": 173,
  "í": 174,
  "î": 175,
  "ï": 176,
  "ï¿½": 1390,
  "ð": 177,
  "ðŁ": 5556,
  "ñ": 178,
  "ò": 179,
  "ó": 180,
  "ô": 181,
  "õ": 182,
  "ö": 183,
  "÷": 184,
  "ø": 185,
  "ù": 186,
  "ú": 187,
  "û": 188,
  "ü": 189,
  "ý": 190,
  "þ": 191,
  "ÿ": 192,
  "Ā": 193,
  "ā": 194,
  "Ă": 195,
  "ă": 196,
  "Ą": 197,
  "ą": 198,
  "Ć": 199,
  "ć": 200,
  "Ĉ": 201,
  "ĉ": 202,
  "Ċ": 203,
  "ċ": 204,
  "Č": 205,
  "č": 206,
  "Ď": 207,
  "ď": 208,
  "Đ": 209,
  "đ": 210,
  "Ē": 211,
  "ē": 212,
  "Ĕ": 213,
  "ĕ": 214,
  "Ė": 215,
  "ė": 216,
  "Ę": 217,
  "ę": 218,
  "Ě": 219,
  "ě": 220,
  "Ĝ": 221,
  "ĝ": 222,
  "Ğ": 223,
  "ğ": 224,
  "Ġ": 225,
  "Ġ!": 6682,
  "Ġ!!!": 10577,
  "Ġ\"": 667,
  "Ġ#": 6921,
  "Ġ$": 6078,
  "Ġ%": 10574,
  "Ġ&": 2130,
  "Ġ'": 2486,
  "Ġ(": 401,
  "Ġ(Â§": 9509,
  "Ġ(âĢľ": 9508,
  "Ġ)": 8105,
  "Ġ*": 7803,
  "Ġ+": 4479,
  "Ġ,": 1174,
  "Ġ-": 551,
  "Ġ-.": 10781,
  "Ġ.": 1497,
  "Ġ...": 6277,
  "Ġ/": 3479,
  "Ġ0": 1498,
  "Ġ00": 10576,
  "Ġ06": 11689,
  "Ġ07": 10935,
  "Ġ08": 9682,
  "Ġ1": 402,
  "Ġ10": 1035,
  "Ġ100": 2372,
  "Ġ1000": 10057,
  "Ġ101": 6123,
  "Ġ11": 2354,
  "Ġ12": 1362,
  "Ġ120": 7335,
  "Ġ13": 2046,
  "Ġ14": 1456,
  "Ġ15": 1412,
  "Ġ150": 5820,
  "Ġ16": 1594,
  "Ġ17": 1717,
  "Ġ18": 1249,
  "Ġ180": 9153,
  "Ġ185": 10906,
  "Ġ19": 744,
  "Ġ195": 6768,
  "Ġ196": 3409,
  "Ġ197": 5379,
  "Ġ198": 3311,
  "Ġ199": 1856,
  "Ġ1994": 8330,
  "Ġ1995": 6818,
  "Ġ1996": 7670,
  "Ġ1997": 10304,
  "Ġ1998": 8331,
  "Ġ1999": 7364,
  "Ġ2": 416,
  "Ġ20": 1210,
  "Ġ200": 961,
  "Ġ2000": 3813,
  "Ġ2001": 6181,
  "Ġ2002": 11595,
  "Ġ2003": 8280,
  "Ġ2004": 6182,
  "Ġ2005": 7625,
  "Ġ2006": 5654,
  "Ġ2007": 4608,
  "Ġ2008": 6368,
  "Ġ2009": 3414,
  "Ġ201": 638,
  "Ġ2010": 5247,
  "Ġ2011": 2302,
  "Ġ2012": 3643,
  "Ġ2013": 3603,
  "Ġ2014": 2908,
  "Ġ2015": 2614,
  "Ġ2016": 2588,
  "Ġ2017": 2454,
  "Ġ2018": 2541,
  "Ġ2019": 2615,
  "Ġ2020": 6189,
  "Ġ21": 3159,
  "Ġ22": 2233,
  "Ġ23": 2475,
  "Ġ24": 1996,
  "Ġ25": 2028,
  "Ġ250": 9513,
  "Ġ26": 2899,
  "Ġ27": 3347,
  "Ġ28": 2610,
  "Ġ29": 4157,
  "Ġ3": 595,
  "Ġ30": 1811,
  "Ġ300": 5240,
  "Ġ31": 4093,
  "Ġ32": 6343,
  "Ġ33": 10133,
  "Ġ34": 6538,
  "Ġ35": 3642,
  "Ġ350": 10134,
  "Ġ36": 4254,
  "Ġ37": 7591,
  "Ġ38": 7261,
  "Ġ39": 7592,
  "Ġ4": 670,
  "Ġ40": 2286,
  "Ġ41": 7901,
  "Ġ42": 4707,
  "Ġ43": 8633,
  "Ġ44": 9590,
  "Ġ45": 4900,
  "Ġ46": 8634,
  "Ġ47": 7600,
  "Ġ48": 6765,
  "Ġ49": 7007,
  "Ġ5": 706,
  "Ġ50": 2561,
  "Ġ500": 4600,
  "Ġ51": 8244,
  "Ġ52": 6546,
  "Ġ53": 10817,
  "Ġ530": 10818,
  "Ġ55": 5962,
  "Ġ56": 9092,
  "Ġ57": 8245,
  "Ġ59": 9594,
  "Ġ6": 880,
  "Ġ60": 3650,
  "Ġ600": 7618,
  "Ġ62": 8274,
  "Ġ64": 8667,
  "Ġ65": 8668,
  "Ġ67": 11576,
  "Ġ68": 11577,
  "Ġ7": 956,
  "Ġ70": 5270,
  "Ġ71": 11591,
  "Ġ72": 10204,
  "Ġ75": 7029,
  "Ġ76": 8675,
  "Ġ77": 8279,
  "Ġ770": 9122,
  "Ġ78": 11592,
  "Ġ79": 11593,
  "Ġ8": 1036,
  "Ġ80": 4180,
  "Ġ800": 11615,
  "Ġ82": 11612,
  "Ġ83": 11613,
  "Ġ85": 7312,
  "Ġ86": 10882,
  "Ġ87": 10219,
  "Ġ88": 8683,
  "Ġ888": 9131,
  "Ġ89": 11614,
  "Ġ9": 1237,
  "Ġ90": 4358,
  "Ġ900": 11648,
  "Ġ:": 3727,
  "Ġ<": 11272,
  "Ġ=": 3728,
  "Ġ>": 5069,
  "Ġ?": 4213,
  "ĠA": 389,
  "ĠAAMS": 10702,
  "ĠAB": 9503,
  "ĠACC": 9014,
  "ĠAM": 11410,
  "ĠAN": 7851,
  "ĠAR": 10049,
  "ĠAS": 9504,
  "ĠAV": 10699,
  "ĠAb": 6120,
  "ĠAbb": 11411,
  "ĠAbbiamo": 5922,
  "ĠAbe": 11413,
  "ĠAcc": 8561,
  "ĠAcqu": 6320,
  "ĠAd": 2281,
  "ĠAfrica": 6727,
  "ĠAg": 5921,
  "ĠAgen": 11412,
  "ĠAggiun": 9013,
  "ĠAgn": 9505,
  "ĠAgnelli": 9888,
  "ĠAi": 5090,
  "ĠAir": 3799,
  "ĠAirprint": 7114,
  "ĠAl": 783,
  "ĠAlberto": 9108,
  "ĠAlcuni": 10179,
  "ĠAle": 2971,
  "ĠAlessand": 5162,
  "ĠAlessandro": 7749,
  "ĠAlex": 9255,
  "ĠAli": 5466,
  "ĠAll": 3019,
  "ĠAlla": 5380,
  "ĠAlle": 7608,
  "ĠAllenatore": 5300,
  "ĠAltri": 8258,
  "ĠAltro": 10834,
  "ĠAm": 3854,
  "ĠAma": 3489,
  "ĠAmazon": 4122,
  "ĠAmerica": 7730,
  "ĠAn": 747,
  "ĠAnche": 2562,
  "ĠAncora": 8251,
  "ĠAndre": 3753,
  "ĠAndrea": 6237,
  "ĠAndreini": 11086,
  "ĠAndro": 3951,
  "ĠAndroid": 4203,
  "ĠAngeles": 10168,
  "ĠAngi": 9599,
  "ĠAngiolini": 10499,
  "ĠAnn": 4903,
  "ĠAnna": 8649,
  "ĠAnnan": 8044,
  "ĠAnti": 11540,
  "ĠAnton": 8252,
  "ĠAntonio": 3810,
  "ĠApix": 10701,
  "ĠApp": 2607,
  "ĠApple": 8373,
  "ĠAr": 1658,
  "ĠAra": 9012,
  "ĠArchi": 11711,
  "ĠArti": 10285,
  "ĠArticolo": 9188,
  "ĠAsia": 10700,
  "ĠAss": 7557,
  "ĠAssi": 8158,
  "ĠAsso": 7852,
  "ĠAssocia": 11994,
  "ĠAt": 4582,
  "ĠAtene": 9506,
  "ĠAu": 3592,
  "ĠAugus": 8026,
  "ĠAugusta": 9355,
  "ĠAuto": 8562,
  "ĠAv": 7555,
  "ĠAve": 7556,
  "ĠAviv": 11414,
  "ĠB": 435,
  "ĠBI": 6132,
  "ĠBIAN": 9334,
  "ĠBIANCHI": 9885,
  "ĠBP": 10075,
  "ĠBa": 1460,
  "ĠBaia": 7958,
  "ĠBaiardi": 10483,
  "ĠBal": 4086,
  "ĠBaldinotti": 8829,
  "ĠBanca": 10078,
  "ĠBank": 7234,
  "ĠBar": 2611,
  "ĠBarba": 8773,
  "ĠBarbara": 12015,
  "ĠBas": 5098,
  "ĠBasi": 9167,
  "ĠBasilica": 10496,
  "ĠBasta": 11927,
  "ĠBatti": 10727,
  "ĠBe": 4589,
  "ĠBea": 6978,
  "ĠBeach": 11170,
  "ĠBel": 5930,
  "ĠBelgio": 10460,
  "ĠBella": 6977,
  "ĠBen": 5363,
  "ĠBene": 5610,
  "ĠBenedetto": 10452,
  "ĠBeni": 10077,
  "ĠBer": 1990,
  "ĠBeretta": 10318,
  "ĠBerga": 11751,
  "ĠBerlino": 8345,
  "ĠBerlusconi": 6210,
  "ĠBet": 10076,
  "ĠBetSense": 10079,
  "ĠBi": 1750,
  "ĠBianca": 11722,
  "ĠBianchi": 9196,
  "ĠBibbia": 10963,
  "ĠBio": 7864,
  "ĠBis": 9519,
  "ĠBisigato": 11723,
  "ĠBlack": 7235,
  "ĠBli": 11446,
  "ĠBlo": 7233,
  "ĠBlu": 9035,
  "ĠBo": 1934,
  "ĠBoccanf": 9709,
  "ĠBoccanfuso": 9892,
  "ĠBol": 6976,
  "ĠBoldoni": 8059,
  "ĠBolo": 3302,
  "ĠBologna": 5529,
  "ĠBolognini": 6048,
  "ĠBon": 8580,
  "ĠBook": 10982,
  "ĠBor": 3932,
  "ĠBorsa": 11092,
  "ĠBos": 6515,
  "ĠBou": 9708,
  "ĠBr": 4882,
  "ĠBra": 4693,
  "ĠBran": 4883,
  "ĠBranden": 5717,
  "ĠBre": 3931,
  "ĠBres": 11447,
  "ĠBretagna": 8034,
  "ĠBrexit": 11878,
  "ĠBri": 4792,
  "ĠBro": 7232,
  "ĠBru": 8581,
  "ĠBu": 2374,
  "ĠBudini": 11012,
  "ĠBuffon": 9226,
  "ĠBull": 11448,
  "ĠBuon": 11789,
  "ĠBus": 5099,
  "ĠBusiness": 10434,
  "ĠC": 346,
  "ĠCA": 4977,
  "ĠCH": 7535,
  "ĠCI": 9477,
  "ĠCM": 11381,
  "ĠCO": 10669,
  "ĠCOM": 6110,
  "ĠCON": 5911,
  "ĠCOR": 10670,
  "ĠCa": 768,
  "ĠCabaret": 9105,
  "ĠCagliari": 9604,
  "ĠCal": 2928,
  "ĠCala": 4099,
  "ĠCalab": 4752,
  "ĠCalabria": 5715,
  "ĠCalcio": 11832,
  "ĠCalzaturificio": 8384,
  "ĠCam": 3918,
  "ĠCamera": 6434,
  "ĠCamp": 9104,
  "ĠCampi": 8256,
  "ĠCan": 4978,
  "ĠCana": 8539,
  "ĠCap": 9603,
  "ĠCapi": 8658,
  "ĠCapo": 7911,
  "ĠCapp": 7910,
  "ĠCar": 1887,
  "ĠCara": 6770,
  "ĠCarabinieri": 11965,
  "ĠCarb": 10308,
  "ĠCard": 10024,
  "ĠCari": 6358,
  "ĠCarisma": 7286,
  "ĠCaritas": 8867,
  "ĠCarlo": 7675,
  "ĠCarta": 8732,
  "ĠCarte": 9702,
  "ĠCas": 1559,
  "ĠCasa": 7014,
  "ĠCastel": 3961,
  "ĠCastellano": 5168,
  "ĠCastello": 10943,
  "ĠCatania": 7607,
  "ĠCatto": 10175,
  "ĠCattolica": 11198,
  "ĠCe": 9478,
  "ĠCel": 11382,
  "ĠCen": 2534,
  "ĠCenter": 11807,
  "ĠCentro": 4372,
  "ĠCer": 6957,
  "ĠCerca": 11383,
  "ĠCerto": 8540,
  "ĠCgil": 10672,
  "ĠCh": 2113,
  "ĠCha": 4870,
  "ĠChampi": 10427,
  "ĠChampions": 12027,
  "ĠChe": 2516,
  "ĠChi": 1353,
  "ĠChia": 6109,
  "ĠChiara": 10462,
  "ĠChicago": 10915,
  "ĠChiesa": 2039,
  "ĠChri": 8747,
  "ĠCi": 1226,
  "ĠCia": 7536,
  "ĠCin": 9479,
  "ĠCina": 6108,
  "ĠCine": 7204,
  "ĠCinema": 8061,
  "ĠCio": 10021,
  "ĠCir": 7948,
  "ĠCirÃ²": 10904,
  "ĠCis": 8980,
  "ĠCisl": 10493,
  "ĠCittÃł": 11645,
  "ĠCity": 10671,
  "ĠCivi": 7325,
  "ĠCivile": 10905,
  "ĠCiÃ²": 5504,
  "ĠCla": 6309,
  "ĠClaudio": 7538,
  "ĠCle": 6493,
  "ĠCli": 10020,
  "ĠClin": 10025,
  "ĠClinton": 10502,
  "ĠClub": 10026,
  "ĠCo": 1368,
  "ĠCol": 2734,
  "ĠColle": 6227,
  "ĠColo": 4149,
  "ĠColomba": 11885,
  "ĠCom": 761,
  "ĠCome": 2304,
  "ĠComitato": 8255,
  "ĠComm": 8254,
  "ĠCommer": 8656,
  "ĠCommissione": 4603,
  "ĠComo": 5008,
  "ĠCompa": 9102,
  "ĠComple": 6553,
  "ĠCompleto": 9343,
  "ĠComunale": 10832,
  "ĠComune": 2499,
  "ĠComuni": 5009,
  "ĠCon": 753,
  "ĠConf": 5964,
  "ĠConfindustria": 8436,
  "ĠCons": 6356,
  "ĠConsi": 2684,
  "ĠConsiglio": 3271,
  "ĠConsul": 11953,
  "ĠConta": 11545,
  "ĠConte": 8253,
  "ĠContin": 6769,
  "ĠContra": 10172,
  "ĠContro": 10828,
  "ĠCor": 2136,
  "ĠCore": 9672,
  "ĠCorea": 10917,
  "ĠCorona": 6214,
  "ĠCorpo": 8352,
  "ĠCorsan": 9725,
  "ĠCorsanini": 9893,
  "ĠCorte": 5207,
  "ĠCos": 2096,
  "ĠCosa": 5084,
  "ĠCosma": 10993,
  "ĠCosta": 7205,
  "ĠCostituzione": 4832,
  "ĠCosÃ¬": 5290,
  "ĠCovid": 10254,
  "ĠCra": 6107,
  "ĠCre": 2698,
  "ĠCredo": 11035,
  "ĠCreziato": 9245,
  "ĠCri": 2580,
  "ĠCrimea": 7700,
  "ĠCristi": 6494,
  "ĠCristiano": 9851,
  "ĠCristina": 9242,
  "ĠCristo": 6032,
  "ĠCro": 4869,
  "ĠCru": 10022,
  "ĠCu": 8979,
  "ĠCultura": 7537,
  "ĠCur": 10023,
  "ĠD": 406,
  "ĠDA": 8169,
  "ĠDE": 4236,
  "ĠDI": 3542,
  "ĠDIA": 11424,
  "ĠDLL": 5765,
  "ĠDOC": 10712,
  "ĠDON": 9021,
  "ĠDONNA": 10495,
  "ĠDa": 1239,
  "ĠDal": 4237,
  "ĠDall": 7858,
  "ĠDalla": 10058,
  "ĠDalle": 11423,
  "ĠDam": 5764,
  "ĠDamis": 11943,
  "ĠDamonti": 8860,
  "ĠDani": 4585,
  "ĠDaniele": 10417,
  "ĠData": 9664,
  "ĠDavi": 6797,
  "ĠDavid": 7949,
  "ĠDavide": 9665,
  "ĠDavies": 8874,
  "ĠDavos": 9152,
  "ĠDe": 967,
  "ĠDeca": 5655,
  "ĠDel": 3925,
  "ĠDemo": 4818,
  "ĠDemolizione": 6057,
  "ĠDes": 8569,
  "ĠDetro": 11422,
  "ĠDetroit": 12039,
  "ĠDetta": 6124,
  "ĠDettagli": 7134,
  "ĠDeut": 7302,
  "ĠDeutsche": 7776,
  "ĠDevelo": 8282,
  "ĠDevelopment": 12005,
  "ĠDi": 790,
  "ĠDia": 4786,
  "ĠDianabol": 6556,
  "ĠDif": 7018,
  "ĠDifesa": 7774,
  "ĠDigital": 5258,
  "ĠDimag": 8262,
  "ĠDimensione": 10836,
  "ĠDio": 2316,
  "ĠDire": 7609,
  "ĠDis": 3446,
  "ĠDivide": 9109,
  "ĠDo": 1292,
  "ĠDog": 6381,
  "ĠDogs": 11660,
  "ĠDol": 6325,
  "ĠDolcini": 9339,
  "ĠDom": 8570,
  "ĠDomenico": 10713,
  "ĠDomini": 11425,
  "ĠDon": 5357,
  "ĠDona": 9020,
  "ĠDonna": 6970,
  "ĠDopo": 2814,
  "ĠDottrina": 5668,
  "ĠDove": 10247,
  "ĠDr": 8568,
  "ĠDra": 8170,
  "ĠDri": 10711,
  "ĠDu": 2972,
  "ĠDue": 9760,
  "ĠDurante": 6230,
  "ĠDy": 5763,
  "ĠDybala": 10454,
  "ĠE": 477,
  "ĠED": 10752,
  "ĠEPUB": 11464,
  "ĠEbay": 10102,
  "ĠEcco": 4890,
  "ĠEconom": 10100,
  "ĠEd": 4333,
  "ĠEdi": 4244,
  "ĠEin": 11463,
  "ĠEl": 5777,
  "ĠEle": 5612,
  "ĠElena": 11944,
  "ĠEli": 4591,
  "ĠElisa": 11910,
  "ĠEmi": 4245,
  "ĠEmilia": 6437,
  "ĠEn": 2479,
  "ĠEnrico": 11019,
  "ĠEntra": 8767,
  "ĠEppure": 10101,
  "ĠEra": 5937,
  "ĠEs": 9041,
  "ĠEsp": 6983,
  "ĠEss": 5367,
  "ĠEssa": 10753,
  "ĠEst": 7872,
  "ĠEu": 6745,
  "ĠEuro": 1958,
  "ĠEuropa": 3616,
  "ĠEurope": 3661,
  "ĠEuropea": 5166,
  "ĠEx": 4334,
  "ĠExpress": 11107,
  "ĠF": 453,
  "ĠFANO": 8588,
  "ĠFI": 8183,
  "ĠFIL": 10088,
  "ĠFILM": 10503,
  "ĠFa": 1369,
  "ĠFabrizio": 6585,
  "ĠFace": 5139,
  "ĠFacebook": 6059,
  "ĠFai": 10918,
  "ĠFal": 6739,
  "ĠFami": 9673,
  "ĠFar": 8186,
  "ĠFargo": 12003,
  "ĠFatte": 9674,
  "ĠFe": 7866,
  "ĠFed": 2804,
  "ĠFeder": 11823,
  "ĠFederazione": 8780,
  "ĠFedercaccia": 8378,
  "ĠFederico": 10360,
  "ĠFedi": 10087,
  "ĠFer": 4087,
  "ĠFerra": 3747,
  "ĠFerrara": 7112,
  "ĠFerrario": 9287,
  "ĠFesta": 9038,
  "ĠFestival": 4501,
  "ĠFi": 1611,
  "ĠFiat": 3546,
  "ĠFil": 5364,
  "ĠFili": 5679,
  "ĠFilipp": 11143,
  "ĠFilippis": 12033,
  "ĠFilm": 6647,
  "ĠFin": 4794,
  "ĠFirenze": 3712,
  "ĠFla": 8185,
  "ĠFo": 2256,
  "ĠFoggia": 7078,
  "ĠFonda": 3857,
  "ĠFondazione": 4464,
  "ĠFondo": 10089,
  "ĠFontana": 4695,
  "ĠFonte": 8187,
  "ĠFor": 2139,
  "ĠForce": 7685,
  "ĠFort": 10086,
  "ĠForte": 7237,
  "ĠForum": 6825,
  "ĠFoto": 5695,
  "ĠFra": 5101,
  "ĠFrame": 8847,
  "ĠFran": 1381,
  "ĠFrances": 10256,
  "ĠFrancesca": 12026,
  "ĠFrancesco": 2780,
  "ĠFrancia": 3708,
  "ĠFranco": 5026,
  "ĠFrancoforte": 7426,
  "ĠFrank": 11671,
  "ĠFre": 4886,
  "ĠFregene": 11919,
  "ĠFri": 6981,
  "ĠFron": 10085,
  "ĠFu": 8184,
  "ĠFun": 8587,
  "ĠG": 430,
  "ĠGI": 5607,
  "ĠGPS": 5608,
  "ĠGRA": 9033,
  "ĠGT": 7230,
  "ĠGU": 10071,
  "ĠGa": 1326,
  "ĠGal": 11442,
  "ĠGala": 8704,
  "ĠGall": 11443,
  "ĠGaming": 10721,
  "ĠGaranzia": 4526,
  "ĠGas": 8175,
  "ĠGe": 3693,
  "ĠGen": 3930,
  "ĠGenerale": 11091,
  "ĠGeno": 6734,
  "ĠGenova": 11165,
  "ĠGeo": 11444,
  "ĠGer": 3160,
  "ĠGermania": 4375,
  "ĠGesÃ¹": 4691,
  "ĠGi": 968,
  "ĠGia": 3745,
  "ĠGian": 7303,
  "ĠGianni": 8283,
  "ĠGiappone": 7410,
  "ĠGin": 10720,
  "ĠGinecomastia": 7231,
  "ĠGio": 2018,
  "ĠGior": 4178,
  "ĠGiorgio": 9293,
  "ĠGiov": 2987,
  "ĠGiovanni": 3826,
  "ĠGiu": 2686,
  "ĠGiugno": 11033,
  "ĠGiulio": 7705,
  "ĠGiunta": 7934,
  "ĠGiuseppe": 3415,
  "ĠGiÃł": 10205,
  "ĠGli": 2476,
  "ĠGlobal": 9517,
  "ĠGmail": 8578,
  "ĠGo": 3855,
  "ĠGol": 9032,
  "ĠGoogle": 4085,
  "ĠGoverno": 6628,
  "ĠGra": 2301,
  "ĠGran": 3047,
  "ĠGrande": 6843,
  "ĠGrandi": 9765,
  "ĠGrazie": 4931,
  "ĠGre": 4004,
  "ĠGrecia": 7116,
  "ĠGri": 5470,
  "ĠGrillo": 11138,
  "ĠGro": 4239,
  "ĠGrosseto": 8833,
  "ĠGroup": 8414,
  "ĠGruppo": 6735,
  "ĠGu": 2235,
  "ĠGui": 7565,
  "ĠGull": 5362,
  "ĠGullÃ¨": 6646,
  "ĠH": 642,
  "ĠHD": 8230,
  "ĠHP": 10147,
  "ĠHa": 2102,
  "ĠHai": 6764,
  "ĠHajos": 6018,
  "ĠHar": 5377,
  "ĠHas": 11519,
  "ĠHe": 7004,
  "ĠHer": 7005,
  "ĠHess": 8628,
  "ĠHi": 5117,
  "ĠHo": 1982,
  "ĠHol": 11518,
  "ĠHome": 8231,
  "ĠHotel": 5155,
  "ĠHy": 11517,
  "ĠI": 387,
  "ĠIF": 10698,
  "ĠII": 2180,
  "ĠIII": 5042,
  "ĠIL": 5761,
  "ĠIN": 3250,
  "ĠIP": 7554,
  "ĠITA": 7221,
  "ĠITALI": 11174,
  "ĠIV": 11408,
  "ĠIVA": 9502,
  "ĠIl": 604,
  "ĠImma": 9010,
  "ĠImp": 5464,
  "ĠIn": 561,
  "ĠIncontri": 9063,
  "ĠIndi": 8610,
  "ĠInf": 2540,
  "ĠInfatti": 3889,
  "ĠInfine": 9238,
  "ĠInforma": 6757,
  "ĠInformation": 11964,
  "ĠInfrastrutture": 9239,
  "ĠIni": 9009,
  "ĠInoltre": 3444,
  "ĠInsomma": 9570,
  "ĠInstagram": 10787,
  "ĠInstitu": 11494,
  "ĠInte": 7583,
  "ĠIntegra": 9870,
  "ĠInter": 1960,
  "ĠInterna": 4339,
  "ĠInternational": 7418,
  "ĠInternazionale": 11895,
  "ĠInternet": 2721,
  "ĠIntervento": 7986,
  "ĠInvece": 8611,
  "ĠIo": 3397,
  "ĠIoT": 11070,
  "ĠIs": 3045,
  "ĠIsraele": 7401,
  "ĠIstanbul": 11049,
  "ĠItali": 2736,
  "ĠItalia": 1455,
  "ĠItaliana": 6036,
  "ĠItaliano": 5161,
  "ĠItaly": 6504,
  "ĠJ": 838,
  "ĠJUVENTUS": 10191,
  "ĠJa": 4260,
  "ĠJack": 9294,
  "ĠJe": 5490,
  "ĠJean": 7432,
  "ĠJo": 2812,
  "ĠJoh": 4283,
  "ĠJohn": 4544,
  "ĠJohnson": 9812,
  "ĠJose": 8665,
  "ĠJu": 3222,
  "ĠJun": 9617,
  "ĠJuve": 11844,
  "ĠJuventus": 5305,
  "ĠJÃ¡n": 10847,
  "ĠJÃ¡noshida": 11204,
  "ĠK": 913,
  "ĠKa": 6564,
  "ĠKal": 9628,
  "ĠKenne": 10200,
  "ĠKennedy": 10505,
  "ĠKer": 8276,
  "ĠKerÄį": 10488,
  "ĠKi": 4428,
  "ĠKiB": 11900,
  "ĠKo": 4716,
  "ĠL": 391,
  "ĠLA": 6321,
  "ĠLANA": 8563,
  "ĠLI": 10050,
  "ĠLa": 557,
  "ĠLab": 11492,
  "ĠLago": 11493,
  "ĠLand": 10704,
  "ĠLara": 7581,
  "ĠLas": 7223,
  "ĠLascia": 11415,
  "ĠLavo": 7582,
  "ĠLavoro": 11984,
  "ĠLazio": 5478,
  "ĠLe": 798,
  "ĠLeague": 9110,
  "ĠLecce": 11558,
  "ĠLecco": 10183,
  "ĠLega": 8266,
  "ĠLegge": 10184,
  "ĠLeggi": 11557,
  "ĠLei": 5799,
  "ĠLeon": 11556,
  "ĠLeone": 10182,
  "ĠLettera": 7558,
  "ĠLi": 1411,
  "ĠLib": 5819,
  "ĠLibri": 10261,
  "ĠLin": 5601,
  "ĠLink": 11142,
  "ĠLis": 5925,
  "ĠLisbona": 9326,
  "ĠLiturgia": 10925,
  "ĠLive": 5400,
  "ĠLo": 1120,
  "ĠLocar": 9649,
  "ĠLocarno": 9890,
  "ĠLogi": 10890,
  "ĠLomb": 3922,
  "ĠLombardi": 7413,
  "ĠLombardia": 6855,
  "ĠLond": 4878,
  "ĠLondra": 5172,
  "ĠLoren": 4612,
  "ĠLorenzo": 5170,
  "ĠLos": 8159,
  "ĠLotus": 11631,
  "ĠLu": 1742,
  "ĠLuca": 4534,
  "ĠLuciano": 10295,
  "ĠLuglio": 10294,
  "ĠLui": 5926,
  "ĠLuigi": 11149,
  "ĠLun": 7853,
  "ĠLuna": 6728,
  "ĠM": 375,
  "ĠMA": 8995,
  "ĠMAG": 8552,
  "ĠMAGLIONE": 9880,
  "ĠMAR": 11402,
  "ĠMB": 8155,
  "ĠMDR": 6961,
  "ĠMIN": 8551,
  "ĠMINERALI": 9358,
  "ĠML": 8550,
  "ĠMLN": 12011,
  "ĠMa": 590,
  "ĠMac": 4597,
  "ĠMacerata": 6631,
  "ĠMad": 5002,
  "ĠMade": 6342,
  "ĠMadia": 4898,
  "ĠMadonna": 7425,
  "ĠMadrid": 10797,
  "ĠMaggi": 10796,
  "ĠMagi": 7589,
  "ĠMal": 4874,
  "ĠMale": 8997,
  "ĠMalesia": 9883,
  "ĠMan": 3298,
  "ĠMana": 10684,
  "ĠMani": 11400,
  "ĠMannino": 11403,
  "ĠMano": 8996,
  "ĠMar": 1018,
  "ĠMarc": 9128,
  "ĠMarche": 11605,
  "ĠMarco": 4431,
  "ĠMare": 7213,
  "ĠMari": 4897,
  "ĠMaria": 4091,
  "ĠMariani": 9820,
  "ĠMarina": 4028,
  "ĠMarinai": 5859,
  "ĠMarini": 7034,
  "ĠMarino": 7309,
  "ĠMario": 5627,
  "ĠMark": 10877,
  "ĠMartini": 11606,
  "ĠMas": 3396,
  "ĠMassi": 3852,
  "ĠMassimo": 9794,
  "ĠMassironi": 5856,
  "ĠMaster": 10381,
  "ĠMatte": 4092,
  "ĠMatteo": 4643,
  "ĠMatti": 10795,
  "ĠMauri": 10132,
  "ĠMaurizio": 11196,
  "ĠMauro": 10131,
  "ĠMax": 8616,
  "ĠMc": 4499,
  "ĠMe": 1880,
  "ĠMedi": 3539,
  "ĠMedia": 8730,
  "ĠMedicina": 9784,
  "ĠMedio": 6396,
  "ĠMediobanca": 9848,
  "ĠMediterran": 10388,
  "ĠMediterraneo": 11199,
  "ĠMeglio": 11743,
  "ĠMel": 6118,
  "ĠMeland": 8332,
  "ĠMelandri": 8451,
  "ĠMele": 7842,
  "ĠMen": 5214,
  "ĠMentre": 6872,
  "ĠMer": 4683,
  "ĠMerk": 8840,
  "ĠMess": 9489,
  "ĠMessa": 8998,
  "ĠMi": 901,
  "ĠMich": 7298,
  "ĠMichael": 8275,
  "ĠMiche": 10858,
  "ĠMichele": 8879,
  "ĠMicro": 5651,
  "ĠMicrosoft": 8050,
  "ĠMiglio": 11582,
  "ĠMil": 5597,
  "ĠMilan": 7022,
  "ĠMilano": 1899,
  "ĠMili": 9627,
  "ĠMillen": 9833,
  "ĠMin": 9488,
  "ĠMinis": 4982,
  "ĠMinistero": 6639,
  "ĠMis": 3742,
  "ĠMiss": 10395,
  "ĠMo": 1161,
  "ĠMobile": 7321,
  "ĠMod": 5988,
  "ĠModure": 3705,
  "ĠModuretic": 3723,
  "ĠMol": 2769,
  "ĠMolinari": 6418,
  "ĠMolti": 11037,
  "ĠMolto": 7707,
  "ĠMon": 1608,
  "ĠMoncler": 10949,
  "ĠMondo": 8318,
  "ĠMone": 11399,
  "ĠMontana": 8999,
  "ĠMontanari": 10494,
  "ĠMonte": 6593,
  "ĠMonti": 3963,
  "ĠMora": 10232,
  "ĠMore": 10895,
  "ĠMos": 6500,
  "ĠMosca": 9852,
  "ĠMovimento": 10233,
  "ĠMt": 7841,
  "ĠMu": 6499,
  "ĠMulti": 10685,
  "ĠMura": 11401,
  "ĠMuse": 4875,
  "ĠMusei": 11917,
  "ĠMuseo": 7748,
  "ĠMusi": 7548,
  "ĠMy": 11398,
  "ĠN": 464,
  "ĠNA": 10743,
  "ĠNO": 9531,
  "ĠNa": 1019,
  "ĠNapoli": 2746,
  "ĠNatale": 3417,
  "ĠNational": 7938,
  "ĠNatura": 7310,
  "ĠNazionale": 5979,
  "ĠNazioni": 9641,
  "ĠNe": 1862,
  "ĠNei": 6141,
  "ĠNel": 1772,
  "ĠNell": 5774,
  "ĠNella": 3858,
  "ĠNelle": 8593,
  "ĠNero": 6520,
  "ĠNess": 9532,
  "ĠNet": 4330,
  "ĠNetfli": 11894,
  "ĠNetflix": 12045,
  "ĠNetwork": 7740,
  "ĠNew": 3884,
  "ĠNews": 7072,
  "ĠNi": 3049,
  "ĠNiccolÃ²": 11051,
  "ĠNico": 6140,
  "ĠNicola": 8438,
  "ĠNikon": 11050,
  "ĠNiss": 11459,
  "ĠNissan": 12040,
  "ĠNo": 1469,
  "ĠNoi": 7057,
  "ĠNon": 1117,
  "ĠNonostante": 9648,
  "ĠNor": 7869,
  "ĠNord": 3255,
  "ĠNorel": 11685,
  "ĠNorelco": 12043,
  "ĠNort": 5773,
  "ĠNorth": 8861,
  "ĠNorton": 11145,
  "ĠNote": 7959,
  "ĠNovar": 10930,
  "ĠNovarum": 11205,
  "ĠNu": 7572,
  "ĠNum": 10744,
  "ĠNun": 11458,
  "ĠNuo": 3638,
  "ĠNuova": 6431,
  "ĠNuovo": 8819,
  "ĠNutri": 11176,
  "ĠO": 587,
  "ĠOb": 9575,
  "ĠOffi": 6997,
  "ĠOffice": 10474,
  "ĠOggi": 4705,
  "ĠOgni": 5001,
  "ĠOlaplex": 5110,
  "ĠOli": 6161,
  "ĠOltre": 4017,
  "ĠOn": 3497,
  "ĠOne": 11501,
  "ĠOnline": 7405,
  "ĠOr": 3697,
  "ĠOra": 5949,
  "ĠOre": 10129,
  "ĠOri": 6160,
  "ĠOrlando": 11083,
  "ĠOrsi": 9576,
  "ĠOs": 5786,
  "ĠOscar": 9835,
  "ĠOsmani": 11147,
  "ĠOsti": 8216,
  "ĠOstiense": 12004,
  "ĠOut": 6537,
  "ĠOutlook": 11957,
  "ĠOver": 10130,
  "ĠOvviamente": 8615,
  "ĠP": 363,
  "ĠPA": 6117,
  "ĠPC": 5085,
  "ĠPD": 7209,
  "ĠPDF": 8877,
  "ĠPER": 5086,
  "ĠPI": 9481,
  "ĠPR": 10035,
  "ĠPRO": 5087,
  "ĠPa": 672,
  "ĠPadova": 5484,
  "ĠPadre": 9084,
  "ĠPaese": 3556,
  "ĠPaesi": 4901,
  "ĠPal": 11392,
  "ĠPala": 10811,
  "ĠPalazzo": 5636,
  "ĠPaler": 4404,
  "ĠPalermo": 4545,
  "ĠPan": 8987,
  "ĠPanta": 7545,
  "ĠPaolo": 4345,
  "ĠPapa": 5635,
  "ĠPar": 1799,
  "ĠPara": 10153,
  "ĠParco": 7362,
  "ĠPari": 4422,
  "ĠParigi": 2455,
  "ĠParisi": 5860,
  "ĠParlamento": 6394,
  "ĠParma": 9199,
  "ĠParola": 8237,
  "ĠParte": 10299,
  "ĠParti": 10680,
  "ĠPas": 4320,
  "ĠPaso": 11529,
  "ĠPasquale": 8836,
  "ĠPatri": 11530,
  "ĠPaul": 10812,
  "ĠPavia": 6766,
  "ĠPd": 5211,
  "ĠPe": 4680,
  "ĠPelle": 10679,
  "ĠPen": 8986,
  "ĠPer": 700,
  "ĠPerchÃ©": 5005,
  "ĠPerrucci": 5794,
  "ĠPers": 9090,
  "ĠPertanto": 9091,
  "ĠPesca": 9483,
  "ĠPeso": 11393,
  "ĠPet": 4681,
  "ĠPetronÃł": 10420,
  "ĠPetya": 11914,
  "ĠPhi": 9482,
  "ĠPi": 1084,
  "ĠPia": 3442,
  "ĠPiano": 6793,
  "ĠPiazza": 5306,
  "ĠPiccolo": 7318,
  "ĠPie": 8989,
  "ĠPiemon": 11189,
  "ĠPier": 8685,
  "ĠPiero": 11623,
  "ĠPietro": 3875,
  "ĠPil": 10036,
  "ĠPin": 7837,
  "ĠPio": 8988,
  "ĠPippo": 11624,
  "ĠPiÃ¹": 7041,
  "ĠPla": 5212,
  "ĠPlay": 11931,
  "ĠPo": 1190,
  "ĠPoi": 3876,
  "ĠPoker": 10902,
  "ĠPokÃ©": 9149,
  "ĠPokÃ©mon": 9362,
  "ĠPol": 8549,
  "ĠPoli": 4185,
  "ĠPolizia": 7737,
  "ĠPom": 6497,
  "ĠPompel": 10466,
  "ĠPompelmo": 10507,
  "ĠPonte": 5916,
  "ĠPopo": 11637,
  "ĠPor": 8548,
  "ĠPorta": 7544,
  "ĠPorto": 5757,
  "ĠPos": 5915,
  "ĠPotre": 8297,
  "ĠPra": 7543,
  "ĠPre": 1387,
  "ĠPremio": 8306,
  "ĠPrenota": 8307,
  "ĠPres": 7211,
  "ĠPresidente": 2719,
  "ĠPrezzo": 9163,
  "ĠPri": 2494,
  "ĠPrima": 4456,
  "ĠPrimo": 11020,
  "ĠPrin": 7210,
  "ĠPrincipe": 11173,
  "ĠPro": 1148,
  "ĠProf": 5812,
  "ĠProfessi": 11946,
  "ĠProgramma": 11634,
  "ĠPron": 7838,
  "ĠPropoli": 9145,
  "ĠProprio": 6575,
  "ĠProvin": 5987,
  "ĠProvincia": 8864,
  "ĠPu": 2016,
  "ĠPubbli": 7377,
  "ĠPubblica": 11976,
  "ĠPuglia": 7376,
  "ĠPuli": 8347,
  "ĠPulizie": 12006,
  "ĠPuoi": 6716,
  "ĠPurtroppo": 8990,
  "ĠPutin": 11755,
  "ĠPuÃ²": 7991,
  "ĠPz": 8151,
  "ĠQ": 2487,
  "ĠQu": 730,
  "ĠQua": 10164,
  "ĠQual": 5252,
  "ĠQuali": 10165,
  "ĠQuando": 3058,
  "ĠQuanto": 10166,
  "ĠQuello": 7281,
  "ĠQuest": 7013,
  "ĠQuesta": 3456,
  "ĠQueste": 7282,
  "ĠQuesti": 4423,
  "ĠQuesto": 2103,
  "ĠQui": 4834,
  "ĠQuindi": 4601,
  "ĠQuo": 11800,
  "ĠR": 456,
  "ĠRE": 6740,
  "ĠROM": 10740,
  "ĠRa": 1957,
  "ĠRaffa": 10314,
  "ĠRai": 5611,
  "ĠRand": 6982,
  "ĠRapp": 10738,
  "ĠRas": 6741,
  "ĠRe": 884,
  "ĠRea": 10854,
  "ĠReal": 7923,
  "ĠRed": 7239,
  "ĠRegi": 5263,
  "ĠRegionale": 9314,
  "ĠRegione": 2837,
  "ĠRegno": 10198,
  "ĠRela": 11580,
  "ĠRen": 6139,
  "ĠRepubblica": 5650,
  "ĠRerum": 10741,
  "ĠRes": 5771,
  "ĠResort": 10455,
  "ĠResponsa": 8189,
  "ĠRete": 9623,
  "ĠRevolut": 9624,
  "ĠRi": 1086,
  "ĠRica": 11626,
  "ĠRiccardo": 8686,
  "ĠRich": 10888,
  "ĠRicor": 9144,
  "ĠRimbor": 7943,
  "ĠRimborsati": 8065,
  "ĠRin": 9528,
  "ĠRis": 4159,
  "ĠRisto": 10739,
  "ĠRo": 1394,
  "ĠRoberto": 5140,
  "ĠRocca": 6586,
  "ĠRock": 5398,
  "ĠRockwood": 8853,
  "ĠRom": 5933,
  "ĠRoma": 1432,
  "ĠRomagna": 7056,
  "ĠRomano": 9839,
  "ĠRome": 11455,
  "ĠRonal": 9039,
  "ĠRonaldo": 9884,
  "ĠRos": 5772,
  "ĠRossi": 5934,
  "ĠRosso": 8188,
  "ĠRu": 6332,
  "ĠRus": 2902,
  "ĠRussia": 4048,
  "ĠRusso": 8382,
  "ĠS": 339,
  "ĠSA": 8531,
  "ĠSAN": 11367,
  "ĠSE": 10651,
  "ĠSI": 6104,
  "ĠSO": 9470,
  "ĠSP": 4398,
  "ĠST": 6956,
  "ĠSU": 7522,
  "ĠSa": 1275,
  "ĠSabato": 10244,
  "ĠSacco": 11658,
  "ĠSaint": 8301,
  "ĠSal": 1740,
  "ĠSala": 5817,
  "ĠSale": 10654,
  "ĠSaler": 6816,
  "ĠSalerno": 9856,
  "ĠSalone": 8723,
  "ĠSalva": 6598,
  "ĠSalvati": 9194,
  "ĠSalvatore": 8872,
  "ĠSalvini": 9195,
  "ĠSam": 4976,
  "ĠSammarco": 8423,
  "ĠSan": 1725,
  "ĠSand": 8141,
  "ĠSanta": 4401,
  "ĠSanto": 4677,
  "ĠSar": 7198,
  "ĠSardegna": 11970,
  "ĠSare": 7833,
  "ĠSarÃł": 7523,
  "ĠSc": 3538,
  "ĠSca": 3688,
  "ĠScar": 9472,
  "ĠScarama": 11867,
  "ĠScarica": 11082,
  "ĠScarpe": 6712,
  "ĠSch": 4399,
  "ĠSchie": 8974,
  "ĠSchievano": 9361,
  "ĠSchool": 11898,
  "ĠSci": 2605,
  "ĠScienza": 11025,
  "ĠScienze": 11810,
  "ĠScimm": 6033,
  "ĠScimmio": 6245,
  "ĠScimmiotte": 7439,
  "ĠSco": 5587,
  "ĠScopri": 9832,
  "ĠScri": 8973,
  "ĠSculto": 9279,
  "ĠScuola": 7406,
  "ĠSe": 776,
  "ĠSeconda": 10176,
  "ĠSecondo": 4100,
  "ĠSecurity": 8659,
  "ĠSei": 9106,
  "ĠSel": 10652,
  "ĠSele": 10655,
  "ĠSempre": 9107,
  "ĠSenato": 6713,
  "ĠSenza": 7832,
  "ĠSer": 2428,
  "ĠSera": 11365,
  "ĠServer": 11017,
  "ĠServi": 4280,
  "ĠServizi": 9802,
  "ĠServizio": 11105,
  "ĠSette": 10010,
  "ĠSh": 4144,
  "ĠShi": 6491,
  "ĠSi": 819,
  "ĠSiamo": 4400,
  "ĠSicilia": 5801,
  "ĠSicu": 7292,
  "ĠSicurezza": 10478,
  "ĠSiena": 10188,
  "ĠSigno": 6175,
  "ĠSignore": 11151,
  "ĠSil": 2384,
  "ĠSilla": 6613,
  "ĠSilvestrelli": 11790,
  "ĠSilvia": 10341,
  "ĠSilvio": 11014,
  "ĠSimone": 11563,
  "ĠSinda": 7524,
  "ĠSindaco": 9352,
  "ĠSiste": 7525,
  "ĠSistema": 8444,
  "ĠSk": 4145,
  "ĠSky": 5711,
  "ĠSm": 11364,
  "ĠSmart": 10657,
  "ĠSo": 1255,
  "ĠSoci": 3818,
  "ĠSociale": 10240,
  "ĠSocietÃł": 4463,
  "ĠSol": 10653,
  "ĠSole": 5991,
  "ĠSolo": 4678,
  "ĠSono": 2532,
  "ĠSony": 5754,
  "ĠSoprin": 9666,
  "ĠSoprintendenza": 9891,
  "ĠSouth": 5278,
  "ĠSp": 1739,
  "ĠSpa": 2472,
  "ĠSpace": 6028,
  "ĠSpagna": 7389,
  "ĠSpe": 4577,
  "ĠSpesso": 10293,
  "ĠSpi": 11366,
  "ĠSpin": 10292,
  "ĠSpinola": 10962,
  "ĠSpor": 10961,
  "ĠSport": 5035,
  "ĠSpreewald": 8975,
  "ĠSta": 2657,
  "ĠStampanti": 7395,
  "ĠStan": 8971,
  "ĠStar": 10012,
  "ĠState": 10656,
  "ĠStati": 2633,
  "ĠStato": 2492,
  "ĠStazione": 10011,
  "ĠSte": 2964,
  "ĠSteam": 8389,
  "ĠStef": 11834,
  "ĠStefano": 8390,
  "ĠSto": 4975,
  "ĠStocco": 9822,
  "ĠStore": 10009,
  "ĠStra": 4146,
  "ĠStre": 4866,
  "ĠStu": 4074,
  "ĠStudi": 11099,
  "ĠStudio": 6054,
  "ĠSu": 1231,
  "ĠSud": 3706,
  "ĠSudafrica": 11647,
  "ĠSul": 7199,
  "ĠSuo": 9471,
  "ĠSuper": 4618,
  "ĠSuperbike": 11913,
  "ĠSupp": 7643,
  "ĠSupra": 3466,
  "ĠSve": 10008,
  "ĠSvi": 5753,
  "ĠSvizzera": 7761,
  "ĠSy": 4676,
  "ĠSystem": 9814,
  "ĠSÃ¬": 8972,
  "ĠT": 431,
  "ĠTOSI": 6736,
  "ĠTU": 10072,
  "ĠTV": 5609,
  "ĠTa": 2519,
  "ĠTacc": 10726,
  "ĠTaccini": 11203,
  "ĠTale": 7567,
  "ĠTali": 7566,
  "ĠTam": 11445,
  "ĠTan": 9518,
  "ĠTar": 10722,
  "ĠTas": 8579,
  "ĠTask": 9881,
  "ĠTe": 1997,
  "ĠTea": 5225,
  "ĠTeam": 8346,
  "ĠTeatro": 6060,
  "ĠTech": 5688,
  "ĠTechnosoft": 9324,
  "ĠTed": 10725,
  "ĠTel": 5767,
  "ĠTempo": 10987,
  "ĠTer": 2539,
  "ĠTeresa": 10348,
  "ĠTerme": 10347,
  "ĠTerra": 4791,
  "ĠTh": 4005,
  "ĠThe": 2358,
  "ĠThi": 10073,
  "ĠThomas": 9291,
  "ĠTi": 2336,
  "ĠTo": 1785,
  "ĠTodi": 11731,
  "ĠTomma": 10074,
  "ĠToni": 10723,
  "ĠTor": 2284,
  "ĠTorino": 3887,
  "ĠTorre": 8176,
  "ĠTos": 3010,
  "ĠToscana": 5845,
  "ĠTosi": 5097,
  "ĠTosini": 5413,
  "ĠToso": 5768,
  "ĠTour": 10972,
  "ĠToyo": 3366,
  "ĠToyota": 3371,
  "ĠTra": 1407,
  "ĠTrama": 9164,
  "ĠTran": 9034,
  "ĠTrap": 10258,
  "ĠTras": 7955,
  "ĠTre": 3694,
  "ĠTren": 6514,
  "ĠTrevi": 5532,
  "ĠTri": 3114,
  "ĠTrib": 9260,
  "ĠTribunale": 10498,
  "ĠTrisconi": 9261,
  "ĠTro": 5096,
  "ĠTru": 10724,
  "ĠTu": 1533,
  "ĠTur": 4692,
  "ĠTurchia": 6869,
  "ĠTuttavia": 5145,
  "ĠTutte": 7962,
  "ĠTutti": 5144,
  "ĠTutto": 4111,
  "ĠTwitter": 8177,
  "ĠU": 562,
  "ĠURL": 6533,
  "ĠUV": 11495,
  "ĠUber": 6994,
  "ĠUcraina": 10122,
  "ĠUdine": 9571,
  "ĠUe": 10121,
  "ĠUli": 10788,
  "ĠUmb": 7887,
  "ĠUmberto": 11995,
  "ĠUmi": 10789,
  "ĠUmiditÃł": 12030,
  "ĠUn": 1347,
  "ĠUna": 1849,
  "ĠUni": 1513,
  "ĠUnite": 10271,
  "ĠUniti": 3181,
  "ĠUnito": 10938,
  "ĠUniversi": 5999,
  "ĠUniversity": 7133,
  "ĠUniversitÃł": 9172,
  "ĠUno": 8210,
  "ĠUomo": 8211,
  "ĠUr": 6158,
  "ĠUrb": 9843,
  "ĠUsa": 5109,
  "ĠV": 523,
  "ĠVI": 7879,
  "ĠVa": 4163,
  "ĠVal": 2585,
  "ĠValen": 5048,
  "ĠValentino": 9310,
  "ĠValle": 6153,
  "ĠVan": 11479,
  "ĠVangelo": 6528,
  "ĠVarese": 9053,
  "ĠVati": 9560,
  "ĠVaticano": 9889,
  "ĠVe": 2636,
  "ĠVedi": 10769,
  "ĠVeglia": 3773,
  "ĠVen": 5229,
  "ĠVendita": 10441,
  "ĠVene": 3863,
  "ĠVeneto": 5857,
  "ĠVenezia": 8825,
  "ĠVer": 3053,
  "ĠVerde": 10369,
  "ĠVerona": 8800,
  "ĠVi": 1262,
  "ĠVia": 3117,
  "ĠVice": 7048,
  "ĠVicenza": 10241,
  "ĠVictoria": 10909,
  "ĠVidoli": 7644,
  "ĠViene": 10908,
  "ĠVilla": 6527,
  "ĠVin": 4337,
  "ĠVincen": 5537,
  "ĠVincenzo": 7127,
  "ĠVir": 9154,
  "ĠVis": 11480,
  "ĠVita": 10907,
  "ĠVittorio": 11654,
  "ĠVo": 3405,
  "ĠVol": 5230,
  "ĠVuoi": 9052,
  "ĠW": 794,
  "ĠWa": 9608,
  "ĠWashington": 9611,
  "ĠWe": 7915,
  "ĠWeb": 9610,
  "ĠWest": 4809,
  "ĠWhatsApp": 7019,
  "ĠWi": 5124,
  "ĠWil": 9609,
  "ĠWilliam": 11554,
  "ĠWindows": 2742,
  "ĠWord": 8661,
  "ĠWorld": 5487,
  "ĠX": 1972,
  "ĠXVI": 10985,
  "ĠXX": 10984,
  "ĠY": 2279,
  "ĠYama": 9736,
  "ĠYamaha": 9894,
  "ĠYo": 6828,
  "ĠYork": 6410,
  "ĠZ": 1525,
  "ĠZa": 4442,
  "ĠZe": 8313,
  "Ġ[": 2367,
  "Ġ[...]": 5158,
  "Ġa": 267,
  "Ġab": 5563,
  "Ġabb": 708,
  "Ġabba": 8642,
  "Ġabband": 4514,
  "Ġabbandonare": 11112,
  "Ġabbas": 2481,
  "Ġabbastanza": 3473,
  "Ġabbattere": 12014,
  "Ġabbi": 4763,
  "Ġabbia": 2498,
  "Ġabbiamo": 1259,
  "Ġabbiano": 6634,
  "Ġabbond": 5249,
  "Ġabbondante": 8427,
  "Ġabbra": 8246,
  "Ġabi": 1756,
  "Ġabili": 8109,
  "ĠabilitÃł": 8496,
  "Ġabita": 7355,
  "Ġabitanti": 6393,
  "Ġabitazioni": 11725,
  "Ġabiti": 10966,
  "Ġabitu": 7356,
  "Ġabitudini": 11975,
  "Ġabusi": 9831,
  "Ġacc": 697,
  "Ġacca": 2329,
  "Ġaccade": 4933,
  "Ġaccaduto": 8000,
  "Ġaccanto": 8243,
  "Ġacce": 3908,
  "Ġaccedere": 4946,
  "Ġaccel": 8640,
  "Ġaccen": 6545,
  "Ġaccer": 6172,
  "Ġaccessi": 5121,
  "Ġaccessibile": 11126,
  "Ġaccesso": 2811,
  "Ġaccessori": 8012,
  "Ġaccetta": 4902,
  "Ġacciaio": 8499,
  "Ġacco": 2229,
  "Ġaccogli": 6216,
  "Ġaccogliere": 11773,
  "Ġaccol": 6689,
  "Ġaccolto": 11960,
  "Ġaccompa": 3015,
  "Ġaccompagna": 9257,
  "Ġaccompagnato": 8797,
  "Ġaccon": 9088,
  "Ġaccor": 4022,
  "Ġaccordi": 11098,
  "Ġaccordo": 3752,
  "Ġaccount": 4046,
  "Ġaccre": 10160,
  "Ġaccres": 9593,
  "Ġaccumu": 5122,
  "Ġaccumulo": 11929,
  "Ġaccura": 7011,
  "Ġaccusa": 9089,
  "Ġacqu": 907,
  "Ġacqua": 2288,
  "Ġacque": 5806,
  "Ġacqui": 11584,
  "Ġacquis": 1524,
  "Ġacquisi": 3560,
  "Ġacquisito": 8818,
  "Ġacquistando": 11692,
  "Ġacquistare": 3139,
  "Ġacquistato": 7656,
  "Ġacquisti": 7655,
  "Ġacquisto": 6806,
  "Ġacu": 11287,
  "Ġad": 501,
  "Ġada": 1901,
  "Ġadatta": 4447,
  "Ġadatte": 10310,
  "Ġadatto": 3716,
  "Ġadd": 3935,
  "Ġadden": 10761,
  "Ġaddestra": 8599,
  "Ġaddetti": 9795,
  "Ġaddi": 3936,
  "Ġaddirittura": 4642,
  "Ġaddo": 9552,
  "Ġaddom": 11093,
  "Ġade": 2599,
  "Ġadegu": 7702,
  "Ġadegua": 4938,
  "Ġadeguata": 11921,
  "Ġadeguato": 9872,
  "Ġader": 7249,
  "Ġadesso": 3403,
  "Ġadi": 6927,
  "Ġado": 2728,
  "Ġadolesc": 8778,
  "Ġadottata": 10357,
  "Ġadulti": 4414,
  "Ġaer": 11286,
  "Ġaere": 4565,
  "Ġaeree": 11114,
  "Ġaeroporti": 8500,
  "Ġaeroporto": 9950,
  "Ġaf": 10592,
  "Ġaff": 1057,
  "Ġaffa": 8287,
  "Ġaffari": 10884,
  "Ġaffas": 5985,
  "Ġaffascin": 6877,
  "Ġaffascinante": 11969,
  "Ġaffatto": 9134,
  "Ġaffer": 2195,
  "Ġafferma": 4368,
  "Ġaffermare": 8751,
  "Ġaffermato": 6407,
  "Ġaffi": 1869,
  "Ġaffida": 5516,
  "Ġaffidabile": 9318,
  "Ġaffidato": 10306,
  "Ġaffin": 5984,
  "ĠaffinchÃ©": 7132,
  "Ġaffron": 1915,
  "Ġaffronta": 11748,
  "Ġaffrontare": 3183,
  "Ġaffrontato": 9706,
  "Ġafri": 10594,
  "Ġag": 1598,
  "Ġage": 4858,
  "Ġagen": 8498,
  "Ġagenti": 5678,
  "Ġagenzie": 9879,
  "Ġagevo": 7422,
  "Ġagg": 3383,
  "Ġaggi": 5564,
  "Ġaggiorna": 2251,
  "Ġaggiornamenti": 6409,
  "Ġaggiornamento": 7690,
  "Ġaggiornati": 11004,
  "Ġaggiornato": 7689,
  "Ġaggiun": 1486,
  "Ġaggiunge": 5029,
  "Ġaggiungere": 4619,
  "Ġaggiungono": 10933,
  "Ġaggiunto": 4914,
  "Ġaggra": 11069,
  "Ġaggre": 7720,
  "Ġaggressi": 9277,
  "Ġagi": 3583,
  "Ġagire": 7109,
  "Ġagisce": 9280,
  "Ġagli": 1248,
  "Ġagosto": 3962,
  "Ġagri": 6390,
  "Ġagrico": 9180,
  "Ġagricoltori": 10465,
  "Ġagron": 10947,
  "Ġai": 572,
  "Ġaiuta": 2452,
  "Ġaiutano": 9233,
  "Ġaiutare": 4703,
  "Ġaiutarti": 8367,
  "Ġaiuti": 7888,
  "Ġaiuto": 4416,
  "Ġal": 311,
  "Ġalb": 7823,
  "Ġalber": 5903,
  "Ġalberghi": 9838,
  "Ġalbergo": 11148,
  "Ġalc": 841,
  "Ġalcun": 3223,
  "Ġalcuna": 5128,
  "Ġalcune": 2121,
  "Ġalcuni": 1323,
  "Ġali": 1931,
  "Ġalimentare": 6206,
  "Ġalimentari": 6603,
  "Ġalimentazione": 8734,
  "Ġalimenti": 6602,
  "Ġall": 518,
  "Ġalla": 474,
  "Ġallar": 4993,
  "Ġallarme": 9823,
  "Ġalle": 615,
  "Ġallena": 5619,
  "Ġallenamento": 8434,
  "Ġaller": 6752,
  "Ġallesti": 6541,
  "Ġallo": 1045,
  "Ġallontana": 7574,
  "Ġallora": 2205,
  "Ġallu": 4776,
  "Ġalluce": 10424,
  "Ġalluminio": 9302,
  "Ġallun": 8602,
  "Ġalmeno": 1816,
  "Ġalta": 2513,
  "Ġaltamente": 9453,
  "Ġalte": 6302,
  "Ġalter": 7824,
  "Ġalterna": 2448,
  "Ġalternativa": 4454,
  "Ġalternative": 6414,
  "Ġaltezza": 7186,
  "Ġalti": 4309,
  "Ġalto": 2799,
  "Ġaltra": 4572,
  "Ġaltre": 1100,
  "Ġaltrettan": 5275,
  "Ġaltrettanto": 6061,
  "Ġaltri": 814,
  "Ġaltrimenti": 5644,
  "Ġaltro": 1367,
  "Ġam": 1485,
  "Ġama": 4216,
  "Ġamano": 10267,
  "Ġamanti": 7337,
  "Ġamare": 10593,
  "Ġambi": 1627,
  "Ġambientale": 7662,
  "Ġambientali": 7967,
  "Ġambiente": 6596,
  "Ġambienti": 6595,
  "Ġambiti": 6811,
  "Ġambito": 5827,
  "Ġambu": 9951,
  "Ġameri": 2345,
  "Ġamericana": 8760,
  "Ġamericane": 10336,
  "Ġamericani": 4741,
  "Ġamericano": 5697,
  "Ġami": 1666,
  "Ġamiche": 10955,
  "Ġamici": 2503,
  "Ġamico": 5034,
  "Ġamm": 1562,
  "Ġamma": 9422,
  "Ġammi": 8311,
  "Ġamministra": 2392,
  "Ġamministrativo": 8762,
  "Ġamministratori": 11792,
  "Ġamministrazione": 5837,
  "Ġamministrazioni": 11015,
  "Ġamo": 9949,
  "Ġamore": 3531,
  "Ġamp": 2571,
  "Ġampia": 4937,
  "Ġampiamente": 11920,
  "Ġampie": 8771,
  "Ġampio": 5566,
  "Ġampli": 8770,
  "Ġan": 355,
  "Ġana": 3849,
  "Ġanaboli": 9792,
  "Ġanali": 6715,
  "Ġanalisi": 5210,
  "Ġanalizza": 11388,
  "Ġanalizzare": 8546,
  "Ġanch": 6310,
  "Ġanche": 470,
  "Ġancor": 8545,
  "Ġancora": 825,
  "Ġand": 1341,
  "Ġandare": 2232,
  "Ġandata": 6311,
  "Ġandato": 6115,
  "Ġandranno": 11665,
  "ĠandrÃł": 6583,
  "Ġangolo": 10032,
  "Ġani": 1878,
  "Ġanima": 2393,
  "Ġanimale": 9228,
  "Ġanimali": 4453,
  "Ġanime": 11742,
  "Ġann": 1565,
  "Ġanni": 693,
  "Ġanno": 1454,
  "Ġannuale": 8716,
  "Ġannunci": 4362,
  "Ġannuncia": 3711,
  "Ġannunciato": 5533,
  "Ġannuncio": 9178,
  "Ġante": 10030,
  "Ġanten": 11387,
  "Ġanti": 1391,
  "Ġantica": 7541,
  "Ġantiche": 11389,
  "Ġantichi": 10921,
  "Ġantici": 3689,
  "Ġanticipa": 8028,
  "Ġanticipo": 8403,
  "Ġantico": 8147,
  "Ġantidupl": 3322,
  "Ġantin": 10031,
  "Ġantinfiamma": 12023,
  "Ġanzi": 2517,
  "Ġanziani": 6222,
  "Ġaper": 1781,
  "Ġaperta": 4628,
  "Ġaperti": 11728,
  "Ġaperto": 3421,
  "Ġapertura": 10297,
  "Ġaposto": 8936,
  "Ġapp": 553,
  "Ġappa": 6339,
  "Ġappar": 4702,
  "Ġappare": 4013,
  "Ġapparen": 9060,
  "Ġappari": 10784,
  "Ġapparire": 11155,
  "Ġappartamenti": 9569,
  "Ġappartamento": 7886,
  "Ġapparten": 6633,
  "Ġappassi": 4595,
  "Ġappassionati": 6867,
  "Ġappello": 11489,
  "Ġappena": 2586,
  "Ġappeti": 11490,
  "Ġappli": 10782,
  "Ġapplica": 1773,
  "Ġapplicare": 7667,
  "Ġapplicata": 7974,
  "Ġapplicazione": 7358,
  "Ġapplicazioni": 4535,
  "Ġappo": 5948,
  "Ġapposi": 5108,
  "Ġappositamente": 11928,
  "Ġapposta": 10783,
  "Ġappre": 11488,
  "Ġappren": 9059,
  "Ġapprezza": 4251,
  "Ġappro": 1492,
  "Ġapproccio": 6587,
  "Ġapprofi": 9681,
  "Ġapprofondi": 3659,
  "Ġapprofondimenti": 11081,
  "Ġapprofondimento": 11080,
  "Ġapprofondire": 9282,
  "Ġappropria": 7338,
  "Ġapprovato": 7961,
  "Ġappuntamenti": 11491,
  "Ġappuntamento": 5372,
  "Ġappunto": 3805,
  "Ġapre": 6688,
  "Ġapri": 1870,
  "Ġaprile": 2525,
  "Ġaprire": 9202,
  "Ġar": 567,
  "Ġara": 8935,
  "Ġarancione": 6928,
  "Ġarcheolo": 11496,
  "Ġarchi": 3171,
  "Ġarchite": 4942,
  "Ġare": 2957,
  "Ġarea": 5436,
  "Ġaree": 3892,
  "Ġarg": 4508,
  "Ġargen": 9066,
  "Ġargomenti": 7743,
  "Ġargomento": 9810,
  "Ġaria": 7172,
  "Ġarma": 8213,
  "Ġarmi": 9573,
  "Ġaro": 6687,
  "Ġaromi": 11164,
  "Ġarra": 10790,
  "Ġarre": 4895,
  "Ġarresta": 10124,
  "Ġarri": 1021,
  "Ġarricchi": 4718,
  "Ġarriva": 4029,
  "Ġarrivano": 9642,
  "Ġarrivare": 3321,
  "Ġarrivata": 6570,
  "Ġarrivati": 10878,
  "Ġarrivato": 5980,
  "ĠarriverÃł": 10879,
  "Ġarrivi": 11607,
  "Ġarrivo": 6185,
  "Ġarro": 5624,
  "Ġarroton": 11940,
  "Ġart": 7259,
  "Ġarte": 7584,
  "Ġarti": 1937,
  "Ġartico": 2638,
  "Ġarticoli": 3969,
  "Ġarticolo": 3866,
  "Ġartifi": 7984,
  "Ġartificiali": 11998,
  "Ġartisti": 4735,
  "Ġartistico": 9209,
  "Ġas": 2381,
  "Ġasc": 8497,
  "Ġasciu": 5332,
  "Ġasciuga": 8852,
  "Ġascol": 4120,
  "Ġascoltare": 8830,
  "Ġasp": 1279,
  "Ġaspetta": 3960,
  "Ġaspettano": 11879,
  "Ġaspettare": 7049,
  "Ġaspettative": 10399,
  "Ġaspetti": 2868,
  "Ġaspettiamo": 8016,
  "Ġaspetto": 3878,
  "Ġaspi": 9155,
  "Ġass": 1185,
  "Ġassa": 5565,
  "Ġassai": 10450,
  "Ġasse": 2509,
  "Ġassegna": 9236,
  "Ġassegnato": 8370,
  "Ġassenza": 7640,
  "Ġassi": 1189,
  "Ġassicu": 3508,
  "Ġassicura": 3509,
  "Ġassicurare": 8399,
  "Ġassicurato": 11077,
  "Ġassicurazioni": 7722,
  "Ġassieme": 6579,
  "Ġassistenza": 3958,
  "Ġassistere": 9148,
  "Ġassistito": 10901,
  "Ġasso": 1168,
  "Ġassocia": 2010,
  "Ġassociate": 10989,
  "Ġassociati": 9717,
  "Ġassociato": 9716,
  "Ġassociazione": 8738,
  "Ġassociazioni": 4450,
  "Ġassolu": 2125,
  "Ġassoluta": 7380,
  "Ġassolutamente": 3093,
  "Ġassoluto": 6824,
  "Ġassor": 9661,
  "Ġassorbi": 10900,
  "Ġassum": 4616,
  "Ġassume": 5021,
  "Ġassumere": 7745,
  "Ġassumono": 11912,
  "Ġassunti": 9147,
  "Ġassunto": 7323,
  "Ġassunzione": 8696,
  "Ġassur": 10899,
  "Ġat": 625,
  "Ġatle": 5952,
  "Ġatleti": 7763,
  "Ġatmos": 5632,
  "Ġatmosferi": 6649,
  "Ġatmosferica": 9346,
  "Ġato": 6926,
  "Ġatta": 2823,
  "Ġattacchi": 8013,
  "Ġattacco": 6421,
  "Ġatte": 2109,
  "Ġatteggiamento": 9724,
  "Ġatten": 1481,
  "Ġattenta": 10265,
  "Ġattentamente": 10266,
  "Ġattenti": 10932,
  "Ġattento": 10264,
  "Ġattenzione": 3091,
  "Ġattesa": 4452,
  "Ġatti": 904,
  "Ġattimo": 10199,
  "Ġattirare": 10859,
  "Ġattiva": 7619,
  "Ġattivare": 11583,
  "Ġattivi": 5805,
  "ĠattivitÃł": 1470,
  "Ġattivo": 5495,
  "Ġatto": 2421,
  "Ġattori": 6280,
  "Ġattorno": 4633,
  "Ġattra": 1085,
  "Ġattrarre": 11625,
  "Ġattraver": 6186,
  "Ġattraverso": 1344,
  "Ġattre": 5953,
  "Ġattrib": 5631,
  "Ġattu": 2185,
  "Ġattua": 8226,
  "Ġattuale": 6215,
  "Ġattuali": 6406,
  "Ġattualmente": 4737,
  "Ġau": 806,
  "Ġaudio": 5125,
  "Ġaugu": 9613,
  "Ġaumenta": 6772,
  "Ġaumentare": 5126,
  "Ġaumento": 4350,
  "Ġauten": 7918,
  "Ġauti": 8495,
  "Ġauto": 1137,
  "Ġautobus": 11633,
  "Ġautomatica": 7042,
  "Ġautomaticamente": 9863,
  "Ġautomobili": 9654,
  "Ġauton": 3354,
  "Ġautonoma": 8813,
  "Ġautonomia": 9275,
  "Ġautonomo": 8812,
  "Ġautore": 6376,
  "Ġautori": 1763,
  "ĠautoritÃł": 6004,
  "Ġautorizza": 10969,
  "Ġautorizzata": 6005,
  "Ġautorizzato": 7068,
  "Ġav": 532,
  "Ġavanti": 3012,
  "Ġavanza": 4892,
  "Ġave": 1082,
  "Ġavendo": 5071,
  "Ġaver": 1422,
  "Ġavere": 1152,
  "Ġavesse": 6990,
  "Ġavessi": 10116,
  "Ġavete": 4263,
  "Ġaveva": 1700,
  "Ġavevamo": 10958,
  "Ġavevano": 4030,
  "Ġavevo": 4182,
  "Ġavrai": 8604,
  "Ġavranno": 6989,
  "Ġavrebbe": 2339,
  "Ġavrebbero": 7881,
  "Ġavrei": 8605,
  "ĠavrÃł": 4164,
  "Ġavuto": 2203,
  "Ġavven": 2375,
  "Ġavveni": 11482,
  "Ġavvenire": 5699,
  "Ġavventura": 10338,
  "Ġavvenuto": 8362,
  "Ġavver": 5371,
  "Ġavversa": 4995,
  "Ġavversari": 9824,
  "Ġavversario": 8424,
  "Ġavvi": 2031,
  "Ġavvia": 4415,
  "Ġavviare": 10411,
  "Ġavviato": 11899,
  "Ġavvicin": 8741,
  "Ġavvicina": 7378,
  "Ġavviene": 5406,
  "Ġavvio": 11757,
  "Ġazienda": 2600,
  "Ġaziendale": 7393,
  "Ġaziendali": 9752,
  "Ġaziende": 2311,
  "Ġazione": 4762,
  "Ġazioni": 2422,
  "Ġazzur": 8937,
  "Ġb": 340,
  "Ġba": 630,
  "Ġbaby": 7003,
  "Ġbackup": 10146,
  "Ġbaga": 7002,
  "Ġbagaglio": 9861,
  "Ġbagni": 9586,
  "Ġbagno": 5003,
  "Ġbal": 3992,
  "Ġbalne": 11880,
  "Ġbamb": 1211,
  "Ġbambini": 1650,
  "Ġbambino": 2779,
  "Ġban": 1771,
  "Ġbanca": 4627,
  "Ġbancario": 8420,
  "Ġbanche": 6205,
  "Ġband": 8535,
  "Ġbandi": 5515,
  "Ġbando": 8534,
  "Ġbar": 2095,
  "Ġbara": 8228,
  "Ġbarbe": 6401,
  "Ġbarbecue": 7768,
  "Ġbarca": 9723,
  "Ġbas": 767,
  "Ġbasa": 7267,
  "Ġbasata": 11515,
  "Ġbasato": 11514,
  "Ġbase": 1157,
  "Ġbasi": 4706,
  "Ġbassa": 3647,
  "Ġbassi": 8657,
  "Ġbasso": 4347,
  "Ġbasta": 3352,
  "Ġbatta": 6166,
  "Ġbattaglia": 8053,
  "Ġbatte": 9079,
  "Ġbatter": 2641,
  "Ġbatteria": 3327,
  "Ġbatti": 8626,
  "Ġbattu": 5116,
  "Ġbattuta": 9826,
  "Ġbe": 2855,
  "Ġbea": 11370,
  "Ġbel": 3845,
  "Ġbella": 2965,
  "Ġbelle": 2801,
  "Ġbellezza": 3620,
  "Ġbelli": 2696,
  "Ġbellissima": 8777,
  "Ġbellissimo": 7089,
  "Ġbello": 3993,
  "Ġben": 988,
  "Ġbene": 1017,
  "Ġbenefi": 6371,
  "Ġbenefici": 7937,
  "Ġbeneficio": 10876,
  "Ġbenessere": 5810,
  "Ġbeni": 4105,
  "Ġbenissimo": 5656,
  "ĠbensÃ¬": 10210,
  "Ġbenvenuto": 10209,
  "Ġbenzina": 11599,
  "Ġber": 8532,
  "Ġbere": 11368,
  "Ġbest": 11371,
  "Ġbeta": 8143,
  "Ġbev": 11042,
  "Ġbi": 649,
  "Ġbian": 2143,
  "Ġbianca": 8353,
  "Ġbianchi": 11767,
  "Ġbianco": 3422,
  "Ġbiancon": 8749,
  "Ġbianconeri": 11188,
  "Ġbiblio": 7268,
  "Ġbiblioteca": 9348,
  "Ġbicchiere": 6170,
  "Ġbici": 9588,
  "Ġbicic": 11521,
  "Ġbig": 11520,
  "Ġbigli": 4344,
  "Ġbiglietti": 6439,
  "Ġbiglietto": 8837,
  "Ġbilan": 3056,
  "Ġbilancia": 9258,
  "Ġbilancio": 4050,
  "Ġbimbi": 7897,
  "Ġbinarie": 11373,
  "Ġbio": 2335,
  "Ġbiologici": 9738,
  "Ġbiologico": 7694,
  "Ġbis": 8533,
  "Ġbiso": 1156,
  "Ġbisogna": 2716,
  "Ġbisogni": 9658,
  "Ġbisogno": 1765,
  "Ġblo": 2025,
  "Ġblocca": 10320,
  "Ġbloccare": 9216,
  "Ġblocco": 9215,
  "Ġblog": 4118,
  "Ġblu": 7527,
  "Ġbmw": 11372,
  "Ġbo": 1656,
  "Ġbocca": 5828,
  "Ġbody": 11710,
  "Ġbol": 10658,
  "Ġbolle": 10660,
  "Ġbolo": 8142,
  "Ġbologna": 9356,
  "Ġbonus": 4867,
  "Ġbor": 3846,
  "Ġbordo": 4781,
  "Ġborghi": 11875,
  "Ġbos": 7526,
  "Ġbosco": 11980,
  "Ġbotti": 10284,
  "Ġbox": 10953,
  "Ġbra": 2078,
  "Ġbraccia": 9719,
  "Ġbraccio": 9720,
  "Ġbrand": 6308,
  "Ġbrani": 8746,
  "Ġbrano": 11762,
  "Ġbravi": 10328,
  "Ġbravo": 8745,
  "Ġbre": 1988,
  "Ġbrev": 9211,
  "Ġbreve": 2951,
  "Ġbrevettata": 12019,
  "Ġbrevi": 7682,
  "Ġbri": 2824,
  "Ġbridge": 11039,
  "Ġbril": 9757,
  "Ġbritan": 5525,
  "Ġbritannico": 6874,
  "Ġbro": 5457,
  "Ġbron": 7200,
  "Ġbrow": 7126,
  "Ġbrowser": 8060,
  "Ġbru": 3006,
  "Ġbrucia": 7098,
  "Ġbruciare": 8796,
  "Ġbu": 921,
  "Ġbuco": 10202,
  "Ġbudget": 9119,
  "Ġbuon": 2544,
  "Ġbuona": 2239,
  "Ġbuone": 7300,
  "Ġbuoni": 4816,
  "Ġbuono": 7025,
  "Ġbura": 11369,
  "Ġburo": 10659,
  "Ġbus": 2892,
  "Ġbusiness": 5527,
  "Ġbut": 11587,
  "Ġby": 5588,
  "Ġc": 264,
  "Ġca": 381,
  "Ġcaccia": 3299,
  "Ġcaduta": 9497,
  "Ġcaff": 4877,
  "ĠcaffÃ¨": 6637,
  "Ġcal": 992,
  "Ġcala": 6722,
  "Ġcalcia": 5271,
  "Ġcalciatore": 6643,
  "Ġcalcio": 2980,
  "Ġcalcola": 10874,
  "Ġcalcolo": 7935,
  "Ġcalda": 7629,
  "Ġcaldi": 11600,
  "Ġcaldo": 4910,
  "Ġcalendario": 10211,
  "Ġcall": 10873,
  "Ġcalo": 3743,
  "Ġcalore": 9005,
  "Ġcalorie": 7111,
  "Ġcambi": 2930,
  "Ġcambia": 1647,
  "Ġcambiamenti": 7348,
  "Ġcambiamento": 5511,
  "Ġcambiare": 4623,
  "Ġcambiato": 5033,
  "Ġcambio": 3970,
  "Ġcamera": 4684,
  "Ġcamere": 4984,
  "Ġcami": 10044,
  "Ġcamm": 3156,
  "Ġcamminare": 11058,
  "Ġcammino": 6047,
  "Ġcamp": 6723,
  "Ġcampa": 3345,
  "Ġcampagna": 3895,
  "Ġcampi": 2100,
  "Ġcampionato": 4119,
  "Ġcampione": 10994,
  "Ġcampioni": 10330,
  "Ġcampo": 1680,
  "Ġcan": 1030,
  "Ġcana": 6683,
  "Ġcanadese": 8441,
  "Ġcanale": 5981,
  "Ġcanali": 5660,
  "Ġcanc": 3561,
  "Ġcancella": 5851,
  "Ġcancellazione": 9325,
  "Ġcancro": 10881,
  "Ġcandi": 3814,
  "Ġcandidati": 5855,
  "Ġcane": 5559,
  "Ġcani": 7165,
  "Ġcanta": 11278,
  "Ġcantante": 10880,
  "Ġcanti": 8489,
  "Ġcantina": 11610,
  "Ġcanto": 8927,
  "Ġcanz": 5386,
  "Ġcanzone": 8048,
  "Ġcanzoni": 10444,
  "Ġcap": 1989,
  "Ġcapa": 1905,
  "Ġcapace": 4921,
  "Ġcapaci": 7367,
  "ĠcapacitÃł": 2818,
  "Ġcapelli": 3513,
  "Ġcapi": 1010,
  "Ġcapire": 2745,
  "Ġcapisce": 11750,
  "Ġcapitale": 3954,
  "Ġcapitali": 6184,
  "Ġcapitalismo": 11950,
  "Ġcapitano": 11604,
  "Ġcapitato": 9640,
  "Ġcapito": 3460,
  "Ġcapitolo": 7107,
  "Ġcapo": 2495,
  "Ġcapol": 10317,
  "Ġcapolavo": 7699,
  "Ġcapolavoro": 11988,
  "Ġcapp": 7848,
  "Ġcar": 785,
  "Ġcara": 1316,
  "Ġcaratter": 1640,
  "Ġcarattere": 4525,
  "Ġcaratteri": 2844,
  "Ġcaratteris": 2592,
  "Ġcaratteristica": 7701,
  "Ġcaratteristiche": 3517,
  "Ġcaratterizza": 11041,
  "Ġcaratterizzata": 11826,
  "Ġcaratterizzato": 8015,
  "Ġcarb": 8259,
  "Ġcarc": 10835,
  "Ġcarcere": 5257,
  "Ġcard": 9606,
  "Ġcardia": 8261,
  "Ġcardio": 11551,
  "Ġcari": 5598,
  "Ġcarica": 5599,
  "Ġcarico": 3998,
  "ĠcaritÃł": 5219,
  "Ġcarne": 5797,
  "Ġcaro": 5088,
  "Ġcarote": 10433,
  "Ġcarre": 8260,
  "Ġcarriera": 5798,
  "Ġcarro": 6360,
  "Ġcarrozz": 11157,
  "Ġcarta": 2391,
  "Ġcarte": 4025,
  "Ġcarto": 7913,
  "Ġcartu": 7017,
  "Ġcartucce": 10475,
  "Ġcas": 1158,
  "Ġcasa": 1027,
  "Ġcase": 4354,
  "Ġcasi": 2254,
  "Ġcasino": 7043,
  "ĠcasinÃ²": 4355,
  "Ġcaso": 879,
  "Ġcass": 7947,
  "Ġcassa": 7320,
  "Ġcata": 3488,
  "Ġcatalano": 11076,
  "Ġcatalogo": 8024,
  "Ġcatego": 2931,
  "Ġcategoria": 4284,
  "Ġcategorie": 6619,
  "Ġcatene": 10691,
  "Ġcatto": 4876,
  "Ġcattolici": 9818,
  "Ġcattolico": 11918,
  "Ġcattura": 9496,
  "Ġcausa": 1694,
  "Ġcause": 8557,
  "Ġcaval": 5353,
  "Ġcavalca": 11133,
  "Ġcavali": 10045,
  "Ġcavi": 11405,
  "Ġcavo": 9495,
  "Ġce": 2420,
  "Ġcel": 2351,
  "Ġcele": 3630,
  "Ġceleb": 6853,
  "Ġcelebre": 9281,
  "Ġcelia": 11785,
  "Ġcellu": 2922,
  "Ġcellulare": 6042,
  "Ġcellule": 7095,
  "Ġcellulite": 11831,
  "Ġcen": 847,
  "Ġcentina": 5803,
  "Ġcentinaia": 6063,
  "Ġcento": 5968,
  "Ġcentra": 2287,
  "Ġcentrale": 3184,
  "Ġcentrali": 8757,
  "Ġcentri": 5012,
  "Ġcentro": 1434,
  "Ġcentroca": 8709,
  "Ġcentrocampo": 11187,
  "Ġcer": 864,
  "Ġcera": 9945,
  "Ġcerca": 1734,
  "Ġcercando": 5013,
  "Ġcercano": 10196,
  "Ġcercare": 3420,
  "Ġcercato": 7664,
  "Ġcerchi": 11574,
  "Ġcere": 8107,
  "Ġcereali": 12001,
  "Ġceri": 7482,
  "Ġcerimonia": 10480,
  "Ġcerta": 4813,
  "Ġcertamente": 5262,
  "Ġcerte": 6363,
  "Ġcertezza": 6560,
  "Ġcerti": 2940,
  "Ġcertificato": 11045,
  "Ġcertificazione": 9759,
  "Ġcerto": 2122,
  "Ġch": 2528,
  "Ġchat": 6415,
  "Ġche": 314,
  "Ġcheck": 11344,
  "Ġchi": 583,
  "Ġchia": 963,
  "Ġchiama": 5016,
  "Ġchiamata": 7031,
  "Ġchiamati": 8281,
  "Ġchiamato": 5130,
  "Ġchiara": 7301,
  "Ġchiaramente": 7933,
  "Ġchiari": 7030,
  "Ġchiaro": 3757,
  "Ġchiave": 4817,
  "Ġchied": 4016,
  "Ġchiede": 4704,
  "Ġchiedere": 4340,
  "Ġchiedo": 11500,
  "Ġchiedono": 11881,
  "Ġchiesa": 4417,
  "Ġchiesto": 4168,
  "Ġchilo": 5374,
  "Ġchilometri": 7430,
  "Ġchimica": 5479,
  "Ġchirur": 3351,
  "Ġchirurgia": 9274,
  "Ġchirurgico": 6847,
  "ĠchissÃł": 9237,
  "Ġchiu": 5239,
  "Ġchiude": 10442,
  "Ġchiudere": 11933,
  "Ġchiunque": 5785,
  "Ġchiusa": 10128,
  "Ġchiuse": 11499,
  "Ġchiuso": 6758,
  "Ġchiusura": 5625,
  "Ġci": 438,
  "Ġcia": 3381,
  "Ġciasc": 3722,
  "Ġciascun": 8404,
  "Ġciascuna": 9286,
  "Ġciascuno": 7726,
  "Ġcibo": 4991,
  "Ġcic": 3933,
  "Ġcicli": 10398,
  "Ġciclo": 6856,
  "Ġcielo": 6133,
  "Ġcifra": 8179,
  "Ġcifre": 9520,
  "Ġcilin": 11449,
  "Ġcin": 2159,
  "Ġcine": 2250,
  "Ġcinema": 3719,
  "Ġcinemato": 5518,
  "Ġcinese": 9729,
  "Ġcinqu": 9728,
  "Ġcinquanta": 12021,
  "Ġcinque": 3141,
  "Ġcio": 2092,
  "Ġcioccolato": 7683,
  "ĠcioÃ¨": 2819,
  "Ġcir": 947,
  "Ġcirc": 4519,
  "Ġcirca": 1442,
  "Ġcirco": 5653,
  "Ġcircolare": 7929,
  "Ġcircolazione": 7434,
  "Ġcircon": 4430,
  "Ġcirconda": 11109,
  "Ġcircos": 7930,
  "Ġcircostante": 11903,
  "Ġcircuito": 6866,
  "Ġcitato": 10729,
  "Ġcitta": 1728,
  "Ġcittadinanza": 10959,
  "Ġcittadini": 2464,
  "Ġcittadino": 5830,
  "ĠcittÃł": 1095,
  "Ġcivi": 2285,
  "Ġcivile": 3665,
  "Ġcivili": 6218,
  "ĠciviltÃł": 9737,
  "ĠciÃ²": 1439,
  "Ġcl": 9944,
  "Ġcla": 1188,
  "Ġclasse": 2985,
  "Ġclassi": 1619,
  "Ġclassica": 10951,
  "Ġclassici": 8319,
  "Ġclassico": 5283,
  "Ġclassifica": 3881,
  "Ġclassifiche": 10952,
  "Ġclen": 7167,
  "Ġclenbuterolo": 7443,
  "Ġcli": 1303,
  "Ġclicca": 10913,
  "Ġcliccando": 11661,
  "Ġcliente": 3467,
  "Ġclientela": 10384,
  "Ġclienti": 2918,
  "Ġclima": 5670,
  "Ġclini": 7806,
  "Ġcloud": 7483,
  "Ġclub": 6684,
  "Ġcm": 4386,
  "Ġco": 537,
  "Ġcode": 10117,
  "Ġcodice": 3550,
  "Ġcodici": 10776,
  "Ġcoer": 8204,
  "Ġcogliere": 10775,
  "Ġcoi": 7884,
  "Ġcoin": 2183,
  "Ġcoinci": 8750,
  "Ġcoinvol": 2466,
  "Ġcoinvolgere": 9748,
  "Ġcoinvolgimento": 11797,
  "Ġcoinvolti": 8368,
  "Ġcoinvolto": 11796,
  "Ġcol": 600,
  "Ġcolazione": 7576,
  "Ġcolla": 9579,
  "Ġcollabo": 1541,
  "Ġcollabora": 5146,
  "Ġcollaboratore": 8047,
  "Ġcollaboratori": 7340,
  "Ġcollaborazione": 2325,
  "Ġcolle": 1408,
  "Ġcollega": 2815,
  "Ġcollegamenti": 10362,
  "Ġcollegamento": 8781,
  "Ġcollegate": 10361,
  "Ġcollegati": 11825,
  "Ġcollegato": 11676,
  "Ġcolleghi": 7651,
  "Ġcollettivo": 10259,
  "Ġcollezione": 7956,
  "Ġcollezioni": 8308,
  "Ġcollo": 3121,
  "Ġcollocamento": 11838,
  "Ġcolo": 5943,
  "Ġcolonna": 9072,
  "Ġcolonne": 11505,
  "Ġcolore": 2773,
  "Ġcolori": 2809,
  "Ġcoloro": 3119,
  "Ġcolpa": 7892,
  "Ġcolpi": 3408,
  "Ġcolpisce": 8618,
  "Ġcolpito": 8815,
  "Ġcolpo": 7264,
  "Ġcoltiva": 5629,
  "Ġcom": 351,
  "Ġcomando": 10674,
  "Ġcomba": 4980,
  "Ġcombattere": 10430,
  "Ġcombina": 5461,
  "Ġcombinazione": 10447,
  "Ġcome": 472,
  "Ġcomfort": 7540,
  "Ġcomin": 3209,
  "Ġcomincia": 9265,
  "Ġcominciare": 7716,
  "Ġcominciato": 9771,
  "Ġcomma": 2353,
  "Ġcommedia": 8543,
  "Ġcommenti": 5592,
  "Ġcommento": 6112,
  "Ġcommer": 2097,
  "Ġcommerci": 11764,
  "Ġcommerciale": 6606,
  "Ġcommerciali": 4367,
  "Ġcommercio": 5690,
  "Ġcommis": 4316,
  "Ġcommissa": 7739,
  "Ġcommissione": 7539,
  "Ġcommissioni": 11892,
  "Ġcomo": 3111,
  "Ġcomodamente": 11053,
  "Ġcomodo": 9259,
  "Ġcomp": 521,
  "Ġcompa": 1669,
  "Ġcompagni": 5682,
  "Ġcompagnia": 4533,
  "Ġcompagnie": 11144,
  "Ġcompagno": 7969,
  "Ġcomparsa": 6753,
  "Ġcomparto": 11478,
  "Ġcompati": 7968,
  "Ġcompet": 2807,
  "Ġcompetente": 11824,
  "Ġcompetenza": 8379,
  "Ġcompetenze": 5524,
  "Ġcompeti": 5370,
  "Ġcompetizione": 11937,
  "Ġcompi": 2179,
  "Ġcompiere": 6827,
  "Ġcompito": 5692,
  "Ġcompiuto": 9730,
  "Ġcomple": 908,
  "Ġcomplessi": 3356,
  "Ġcomplesso": 5267,
  "Ġcompleta": 3412,
  "Ġcompletamente": 3224,
  "Ġcompletamento": 11071,
  "Ġcompletare": 10860,
  "Ġcomplete": 11585,
  "Ġcompleto": 3022,
  "Ġcompli": 7252,
  "Ġcomplica": 6152,
  "Ġcompon": 3169,
  "Ġcomponente": 5304,
  "Ġcomponenti": 7715,
  "Ġcompongono": 11842,
  "Ġcompor": 10768,
  "Ġcomporta": 2319,
  "Ġcomportamenti": 7079,
  "Ġcomportamento": 4631,
  "Ġcomposizione": 6959,
  "Ġcomposta": 6988,
  "Ġcomposto": 4090,
  "Ġcompra": 11477,
  "Ġcomprare": 5620,
  "Ġcompre": 1936,
  "Ġcompren": 2480,
  "Ġcomprende": 6029,
  "Ġcomprendere": 5841,
  "Ġcompresa": 5517,
  "Ġcomprese": 11749,
  "Ġcompresi": 8339,
  "Ġcompreso": 5038,
  "Ġcompressa": 10115,
  "Ġcompressione": 9208,
  "Ġcompresso": 10313,
  "Ġcompro": 8201,
  "Ġcomputer": 3862,
  "Ġcomun": 6496,
  "Ġcomunale": 4317,
  "Ġcomunali": 9341,
  "Ġcomune": 2150,
  "Ġcomuni": 994,
  "Ġcomunicare": 7308,
  "Ġcomunicato": 5500,
  "Ġcomunicazione": 3320,
  "Ġcomunicazioni": 7936,
  "ĠcomunitÃł": 2617,
  "Ġcomunque": 1657,
  "Ġcon": 305,
  "Ġconc": 2678,
  "Ġconce": 4226,
  "Ġconcentra": 3390,
  "Ġconcentrazione": 6848,
  "Ġconcer": 3738,
  "Ġconcerti": 9789,
  "Ġconcerto": 7727,
  "Ġconcessi": 8009,
  "Ġconcessiona": 11999,
  "Ġconcessione": 11338,
  "Ġconcetti": 10354,
  "Ġconcetto": 5843,
  "Ġconclu": 1922,
  "Ġconclude": 5154,
  "Ġconclusa": 9707,
  "Ġconclusione": 6012,
  "Ġconcluso": 8338,
  "Ġconcor": 3586,
  "Ġconcorrenza": 7723,
  "Ġconcorso": 6480,
  "Ġconcre": 4306,
  "Ġconcreta": 11106,
  "Ġconcreti": 7417,
  "Ġconcreto": 6300,
  "Ġcond": 4968,
  "Ġcondanna": 7424,
  "Ġcondi": 1079,
  "Ġcondivi": 2646,
  "Ġcondividere": 5701,
  "Ġcondivisione": 9755,
  "Ġcondiviso": 11028,
  "Ġcondizionata": 10223,
  "Ġcondizione": 3817,
  "Ġcondizioni": 2036,
  "Ġcondotta": 10626,
  "Ġcondotto": 10625,
  "Ġcondu": 3684,
  "Ġconduce": 9285,
  "Ġcondurre": 11866,
  "Ġconf": 797,
  "Ġconfer": 1789,
  "Ġconferenza": 7069,
  "Ġconferi": 11555,
  "Ġconferma": 4919,
  "Ġconfermando": 11732,
  "Ġconfermare": 10298,
  "Ġconfermato": 6006,
  "Ġconfezione": 7290,
  "Ġconfi": 4142,
  "Ġconfigura": 11884,
  "Ġconfigurazione": 8413,
  "Ġconfine": 7917,
  "Ġconfini": 7916,
  "Ġconfli": 6771,
  "Ġconflitti": 11966,
  "Ġconfor": 6299,
  "ĠconformitÃł": 11153,
  "Ġconforte": 9987,
  "Ġconfortevole": 11193,
  "Ġconfron": 1762,
  "Ġconfrontare": 10968,
  "Ġconfronti": 3365,
  "Ġconfronto": 3964,
  "Ġcongi": 5745,
  "Ġconi": 5573,
  "Ġconiu": 6062,
  "Ġconn": 2888,
  "Ġconnesse": 11829,
  "Ġconnessi": 8788,
  "Ġconnessione": 6422,
  "Ġconos": 1164,
  "Ġconosce": 6378,
  "Ġconoscenza": 4184,
  "Ġconoscenze": 8694,
  "Ġconoscere": 3464,
  "Ġconosci": 2983,
  "Ġconosciuta": 8793,
  "Ġconosciuto": 6423,
  "Ġconoscono": 10896,
  "Ġconqu": 5340,
  "Ġconquista": 11935,
  "Ġcons": 756,
  "Ġconsa": 3072,
  "Ġconsape": 3424,
  "Ġconsapevole": 4053,
  "Ġconsapevolezza": 5710,
  "Ġconse": 1488,
  "Ġconsecu": 10934,
  "Ġconsegna": 7960,
  "Ġconsegnato": 8711,
  "Ġconsegu": 2274,
  "Ġconseguente": 9224,
  "Ġconseguenza": 4369,
  "Ġconseguenze": 5294,
  "Ġconsegui": 8312,
  "Ġconsen": 5007,
  "Ġconsenso": 4807,
  "Ġconsente": 3502,
  "Ġconsenti": 2977,
  "Ġconsentire": 6043,
  "Ġconsentito": 7097,
  "Ġconsentono": 6640,
  "Ġconser": 5253,
  "Ġconserva": 3059,
  "Ġconservare": 8428,
  "Ġconservazione": 5846,
  "Ġconsi": 1066,
  "Ġconsider": 8129,
  "Ġconsidera": 1770,
  "Ġconsiderare": 6204,
  "Ġconsiderata": 9197,
  "Ġconsiderato": 5514,
  "Ġconsiderazione": 4626,
  "Ġconsigli": 2778,
  "Ġconsiglia": 3873,
  "Ġconsigliabile": 8031,
  "Ġconsigliato": 10221,
  "Ġconsigliere": 5019,
  "Ġconsiglio": 3358,
  "Ġconsiste": 6373,
  "Ġconsistenza": 10886,
  "Ġconsoli": 4490,
  "Ġconsolidare": 11902,
  "Ġconsta": 8960,
  "Ġconsu": 2321,
  "Ġconsul": 2434,
  "Ġconsulenza": 9745,
  "Ġconsultare": 10344,
  "Ġconsultato": 7083,
  "Ġconsuma": 4632,
  "Ġconsumatori": 6632,
  "Ġconsumi": 7693,
  "Ġconsumo": 7080,
  "Ġconta": 1329,
  "Ġcontagio": 11664,
  "Ġcontanti": 11337,
  "Ġcontare": 8515,
  "Ġcontatta": 5397,
  "Ġcontattare": 7647,
  "Ġcontatti": 5138,
  "Ġcontatto": 4527,
  "Ġconte": 1549,
  "Ġcontempo": 2665,
  "Ġcontemporan": 3328,
  "Ġcontemporanea": 4749,
  "Ġcontemporaneamente": 8842,
  "Ġcontemporaneo": 9777,
  "Ġconten": 1198,
  "Ġcontenere": 8697,
  "Ġcontengono": 7642,
  "Ġconteni": 9663,
  "Ġcontento": 11640,
  "Ġcontenute": 11641,
  "Ġcontenuti": 2867,
  "Ġcontenuto": 3613,
  "Ġcontesto": 4112,
  "Ġconti": 7820,
  "Ġcontiene": 4227,
  "Ġcontin": 1105,
  "Ġcontinu": 1356,
  "Ġcontinua": 2323,
  "Ġcontinuamente": 9225,
  "Ġcontinuano": 8706,
  "Ġcontinuare": 4529,
  "Ġcontinuato": 10916,
  "Ġcontinui": 5502,
  "ĠcontinuitÃł": 8049,
  "Ġcontinuo": 8688,
  "Ġconto": 2603,
  "Ġcontra": 1047,
  "Ġcontraddis": 11619,
  "Ġcontraddistin": 12042,
  "Ġcontrario": 4611,
  "Ġcontrastare": 7940,
  "Ġcontrasto": 5983,
  "Ġcontratti": 9133,
  "Ġcontratto": 2981,
  "Ġcontrib": 1903,
  "Ġcontribu": 9704,
  "Ġcontribuire": 8335,
  "Ġcontribuito": 7677,
  "Ġcontributi": 7366,
  "Ġcontributo": 3765,
  "Ġcontro": 923,
  "Ġcontrolla": 4717,
  "Ġcontrollare": 5268,
  "Ġcontrolli": 6783,
  "Ġcontrollo": 2563,
  "Ġconve": 8128,
  "Ġconven": 3842,
  "Ġconveni": 6094,
  "Ġconveniente": 8437,
  "Ġconvenzione": 9791,
  "Ġconver": 4071,
  "Ġconversione": 10406,
  "Ġconvi": 11336,
  "Ġconvin": 3341,
  "Ġconvinto": 11849,
  "Ġconvinzione": 11850,
  "Ġconviv": 10627,
  "Ġconvo": 9448,
  "Ġcook": 4165,
  "Ġcookie": 4840,
  "Ġcoopera": 8205,
  "Ġcooperazione": 7885,
  "Ġcoordina": 4166,
  "Ġcoordinazione": 11102,
  "Ġcoper": 3118,
  "Ġcopertina": 11837,
  "Ġcoperto": 11054,
  "Ġcopertura": 5705,
  "Ġcopia": 5105,
  "Ġcoppia": 4011,
  "Ġcoppie": 10118,
  "Ġcopri": 10774,
  "Ġcor": 578,
  "Ġcora": 11483,
  "Ġcoraggio": 5784,
  "Ġcornice": 10794,
  "Ġcorona": 8612,
  "Ġcoronavirus": 12012,
  "Ġcorpi": 10127,
  "Ġcorpo": 1311,
  "Ġcorpora": 11663,
  "Ġcorporeo": 4824,
  "Ġcorre": 1588,
  "Ġcorrente": 7586,
  "Ġcorrere": 7889,
  "Ġcorretta": 7659,
  "Ġcorrettamente": 5677,
  "Ġcorrette": 10946,
  "Ġcorretto": 6590,
  "Ġcorrezione": 10282,
  "Ġcorri": 2741,
  "Ġcorrispon": 3475,
  "Ġcorrisponde": 9782,
  "Ġcorrispondenza": 11074,
  "Ġcorro": 11498,
  "Ġcorsa": 6340,
  "Ġcorsi": 3551,
  "Ġcorso": 1672,
  "Ġcorte": 9069,
  "Ġcorteo": 10793,
  "Ġcorto": 7585,
  "Ġcortomet": 11177,
  "Ġcos": 476,
  "Ġcosa": 997,
  "Ġcosci": 6143,
  "Ġcoscienza": 8052,
  "Ġcose": 1623,
  "Ġcosi": 7254,
  "Ġcosid": 5622,
  "Ġcosiddetta": 11939,
  "Ġcosmo": 9537,
  "Ġcosta": 3934,
  "Ġcostante": 3080,
  "Ġcostantemente": 8802,
  "Ġcoste": 10751,
  "Ġcosti": 3548,
  "Ġcostitu": 1729,
  "Ġcostitui": 6392,
  "Ġcostituisce": 5513,
  "Ġcostituiscono": 8721,
  "Ġcostituita": 11954,
  "Ġcostituito": 8323,
  "Ġcostituzionale": 11719,
  "Ġcostituzione": 7972,
  "Ġcosto": 2771,
  "Ġcostr": 2140,
  "Ġcostre": 5475,
  "Ġcostretto": 9317,
  "Ġcostru": 5366,
  "Ġcostrui": 6402,
  "Ġcostruire": 3966,
  "Ġcostruita": 11955,
  "Ġcostruito": 6020,
  "Ġcostruzione": 3115,
  "Ġcostu": 7871,
  "Ġcostume": 11178,
  "ĠcosÃ¬": 906,
  "Ġcotone": 9566,
  "Ġcottura": 5944,
  "Ġcoup": 11484,
  "Ġcover": 9055,
  "Ġcre": 612,
  "Ġcrea": 1908,
  "Ġcreando": 6760,
  "Ġcreare": 2320,
  "Ġcreati": 10311,
  "Ġcreativa": 10981,
  "ĠcreativitÃł": 6397,
  "Ġcreato": 4169,
  "Ġcreazione": 4419,
  "Ġcrede": 6540,
  "Ġcredere": 7265,
  "Ġcredi": 2340,
  "Ġcrediti": 6413,
  "Ġcredito": 3823,
  "Ġcredo": 3946,
  "Ġcrema": 5950,
  "Ġcresc": 3698,
  "Ġcresce": 10140,
  "Ġcrescente": 8821,
  "Ġcrescere": 5054,
  "Ġcresci": 7597,
  "Ġcrescita": 2682,
  "Ġcri": 1034,
  "Ġcrimina": 9644,
  "Ġcrisi": 2839,
  "Ġcrista": 3225,
  "Ġcristall": 9267,
  "Ġcristalli": 6846,
  "Ġcristallo": 9268,
  "Ġcristi": 3955,
  "Ġcristiana": 7734,
  "Ġcriteri": 8682,
  "Ġcritica": 4719,
  "Ġcritiche": 10218,
  "Ġcritici": 9130,
  "Ġcro": 2652,
  "Ġcrona": 8929,
  "Ġcronaca": 12017,
  "Ġcroni": 8928,
  "Ġcrosta": 11813,
  "Ġcru": 7166,
  "Ġcu": 1417,
  "Ġcucchia": 9676,
  "Ġcucina": 3266,
  "Ġcui": 585,
  "Ġcul": 6923,
  "Ġcultura": 1714,
  "Ġculturale": 3883,
  "Ġculturali": 5683,
  "Ġcuo": 1892,
  "Ġcuocere": 11745,
  "Ġcuore": 2246,
  "Ġcupo": 11677,
  "Ġcur": 3678,
  "Ġcura": 1260,
  "Ġcurare": 8699,
  "Ġcure": 9416,
  "Ġcuri": 9165,
  "ĠcuriositÃł": 11678,
  "Ġcurva": 6625,
  "Ġcusto": 5434,
  "Ġd": 261,
  "Ġda": 353,
  "Ġdagli": 2114,
  "Ġdai": 1125,
  "Ġdal": 418,
  "Ġdall": 775,
  "Ġdalla": 656,
  "Ġdalle": 1055,
  "Ġdallo": 5359,
  "Ġdando": 4856,
  "Ġdanne": 5328,
  "Ġdanni": 3378,
  "Ġdanno": 3984,
  "Ġdar": 4855,
  "Ġdare": 1861,
  "Ġdata": 2098,
  "Ġdate": 5593,
  "Ġdati": 1115,
  "Ġdato": 1924,
  "Ġdatore": 6113,
  "Ġdavanti": 3113,
  "Ġdavvero": 2070,
  "Ġde": 345,
  "Ġdebba": 11380,
  "Ġdebi": 10666,
  "Ġdebito": 7531,
  "Ġdebole": 7533,
  "Ġdebu": 7532,
  "Ġdebutto": 9869,
  "Ġdec": 6105,
  "Ġdecen": 6106,
  "Ġdecenni": 9842,
  "Ġdeci": 1051,
  "Ġdecide": 7314,
  "Ġdecidere": 5018,
  "Ġdecine": 11379,
  "Ġdecisamente": 8286,
  "Ġdecisione": 3816,
  "Ġdecisioni": 7037,
  "Ġdeciso": 2748,
  "Ġdecora": 5206,
  "Ġdecorazioni": 11930,
  "Ġdecre": 10018,
  "Ġdecreto": 3245,
  "Ġdedi": 2606,
  "Ġdedica": 2514,
  "Ġdedicata": 4742,
  "Ġdedicati": 6615,
  "Ġdedicato": 3720,
  "Ġdef": 6492,
  "Ġdefici": 11378,
  "Ġdefini": 1607,
  "Ġdefinire": 9688,
  "Ġdefinitiva": 4729,
  "Ġdefinitivamente": 10948,
  "Ġdefinitivo": 11702,
  "Ġdefinito": 6592,
  "Ġdefinizione": 4917,
  "Ġdeformazione": 8538,
  "Ġdegli": 659,
  "Ġdegus": 10667,
  "Ġdei": 441,
  "Ġdel": 293,
  "Ġdele": 4486,
  "Ġdelega": 9299,
  "Ġdeli": 3839,
  "Ġdelica": 5896,
  "Ġdell": 462,
  "Ġdella": 370,
  "Ġdelle": 473,
  "Ġdello": 1289,
  "Ġdemo": 2298,
  "Ġdemocra": 2722,
  "Ġdemocratico": 9247,
  "Ġdemocrazia": 4541,
  "Ġden": 1755,
  "Ġdena": 3730,
  "Ġdenaro": 3828,
  "Ġdenomina": 7354,
  "Ġdenti": 7164,
  "Ġdentro": 3714,
  "Ġdenuncia": 4625,
  "Ġdenunciato": 11115,
  "Ġdep": 10017,
  "Ġdeposi": 3395,
  "Ġdepositi": 11853,
  "Ġdeposito": 6049,
  "Ġdepressione": 10019,
  "Ġder": 8926,
  "Ġderi": 2849,
  "Ġderiva": 7398,
  "Ġderivanti": 7709,
  "Ġdero": 10578,
  "Ġdes": 1024,
  "Ġdescri": 2618,
  "Ġdescritto": 11026,
  "Ġdescrizione": 9753,
  "Ġdesider": 3917,
  "Ġdesidera": 4229,
  "Ġdesideri": 7534,
  "Ġdesiderio": 5057,
  "Ġdesign": 4148,
  "Ġdesigner": 8831,
  "Ġdestina": 2220,
  "Ġdestinata": 8753,
  "Ġdestinati": 7994,
  "Ġdestinato": 8357,
  "Ġdestinazione": 7688,
  "Ġdestino": 11608,
  "Ġdestra": 4352,
  "Ġdet": 4561,
  "Ġdeten": 8042,
  "Ġdeter": 1884,
  "Ġdetermin": 9205,
  "Ġdetermina": 2378,
  "Ġdeterminare": 10339,
  "Ġdeterminata": 9741,
  "Ġdeterminato": 6831,
  "Ġdeterminazione": 9227,
  "Ġdetta": 2293,
  "Ġdettagli": 4930,
  "Ġdettaglio": 6411,
  "Ġdetto": 1875,
  "Ġdeva": 8978,
  "Ġdeve": 1232,
  "Ġdevi": 3295,
  "Ġdeviazione": 10668,
  "Ġdevo": 4579,
  "Ġdevono": 2515,
  "Ġdi": 275,
  "Ġdia": 2268,
  "Ġdiabete": 7998,
  "Ġdiagnos": 11008,
  "Ġdiagnosi": 11007,
  "Ġdiagnostica": 11206,
  "Ġdialogo": 9223,
  "Ġdiam": 6082,
  "Ġdiametro": 9331,
  "Ġdibatti": 5193,
  "Ġdibattito": 6443,
  "Ġdice": 1180,
  "Ġdicembre": 1820,
  "Ġdicendo": 8113,
  "Ġdiceva": 10235,
  "Ġdichia": 1974,
  "Ġdichiara": 6208,
  "Ġdichiarato": 5039,
  "Ġdichiarazione": 8735,
  "Ġdichiarazioni": 7680,
  "Ġdici": 8942,
  "Ġdiciamo": 9964,
  "Ġdico": 6284,
  "Ġdicono": 6083,
  "Ġdida": 11296,
  "Ġdie": 3067,
  "Ġdieci": 3893,
  "Ġdieta": 3203,
  "Ġdietro": 3286,
  "Ġdif": 1769,
  "Ġdifendere": 8327,
  "Ġdifenso": 7666,
  "Ġdifensori": 11987,
  "Ġdifesa": 3820,
  "Ġdifetti": 11726,
  "Ġdifetto": 8326,
  "Ġdiff": 2382,
  "Ġdiffer": 1591,
  "Ġdifferente": 8718,
  "Ġdifferenti": 4826,
  "Ġdifferenza": 3570,
  "Ġdifferenze": 10283,
  "Ġdifferenzia": 5509,
  "Ġdiffi": 2511,
  "Ġdiffici": 2294,
  "Ġdifficile": 3094,
  "Ġdifficili": 6829,
  "Ġdifficilmente": 11781,
  "ĠdifficoltÃł": 2668,
  "Ġdiffon": 6832,
  "Ġdiffondere": 11968,
  "Ġdiffusi": 10340,
  "Ġdiffusione": 6833,
  "Ġdiffuso": 9742,
  "Ġdigi": 1578,
  "Ġdigital": 7064,
  "Ġdigitale": 2221,
  "Ġdigitali": 5508,
  "Ġdigni": 6081,
  "ĠdignitÃł": 7437,
  "Ġdila": 9963,
  "Ġdim": 1605,
  "Ġdimag": 4666,
  "Ġdimagrire": 7420,
  "Ġdimen": 2131,
  "Ġdimensione": 4278,
  "Ġdimensioni": 3268,
  "Ġdimenti": 3105,
  "Ġdimenticare": 6425,
  "Ġdimin": 3819,
  "Ġdiminuzione": 8410,
  "Ġdimostra": 2262,
  "Ġdimostrare": 9222,
  "Ġdimostrato": 5519,
  "Ġdimostrazioni": 11006,
  "Ġdin": 7804,
  "Ġdina": 4061,
  "Ġdinamica": 9797,
  "Ġdinamiche": 9798,
  "Ġdinamico": 11883,
  "Ġdintorni": 11990,
  "Ġdio": 8941,
  "Ġdip": 6933,
  "Ġdipen": 2068,
  "Ġdipende": 5835,
  "Ġdipendente": 8742,
  "Ġdipendenti": 4630,
  "Ġdipendenza": 8349,
  "Ġdiplo": 6084,
  "Ġdiploma": 11150,
  "Ġdire": 752,
  "Ġdirei": 10171,
  "Ġdiretta": 4023,
  "Ġdirettamente": 2034,
  "Ġdiretti": 9601,
  "Ġdiretto": 4904,
  "Ġdirettore": 4806,
  "Ġdirezione": 3700,
  "Ġdiri": 1338,
  "Ġdirig": 3986,
  "Ġdirigente": 7115,
  "Ġdirigenti": 11096,
  "Ġdiritti": 2362,
  "Ġdiritto": 2242,
  "Ġdirlo": 10602,
  "Ġdirti": 11298,
  "ĠdirÃł": 11297,
  "Ġdis": 640,
  "Ġdisa": 2489,
  "Ġdisabili": 7390,
  "Ġdisabilitati": 11977,
  "ĠdisabilitÃł": 11801,
  "Ġdisagio": 9234,
  "Ġdiscip": 4803,
  "Ġdisciplina": 6635,
  "Ġdiscipline": 10425,
  "Ġdisco": 5248,
  "Ġdiscorso": 6169,
  "Ġdiscre": 9080,
  "Ġdiscu": 6168,
  "Ġdiscus": 3555,
  "Ġdiscussione": 4639,
  "Ġdiscutere": 9335,
  "Ġdise": 4302,
  "Ġdisegna": 10603,
  "Ġdisegni": 9805,
  "Ġdisegno": 9806,
  "Ġdiso": 4766,
  "Ġdisoccupa": 5311,
  "Ġdisoccupazione": 8851,
  "Ġdisp": 669,
  "Ġdispone": 6543,
  "Ġdisponi": 1383,
  "Ġdisponibile": 2501,
  "Ġdisponibili": 2565,
  "ĠdisponibilitÃł": 5506,
  "Ġdisporre": 7270,
  "Ġdisposi": 1162,
  "Ġdispositivi": 4183,
  "Ġdispositivo": 3463,
  "Ġdisposizione": 2037,
  "Ġdisposizioni": 4435,
  "Ġdisposte": 10151,
  "Ġdisposti": 11526,
  "Ġdisposto": 8236,
  "Ġdisse": 9587,
  "Ġdista": 4767,
  "Ġdistacco": 8421,
  "Ġdistante": 11516,
  "Ġdistanza": 3498,
  "Ġdistanze": 8627,
  "Ġdistin": 3454,
  "Ġdistingu": 8023,
  "Ġdistra": 8229,
  "Ġdistrib": 3218,
  "Ġdistribuzione": 6845,
  "Ġdistru": 5954,
  "Ġdistur": 5955,
  "Ġdisturbi": 7436,
  "Ġdito": 10601,
  "Ġditta": 5892,
  "Ġdiv": 4301,
  "Ġdivario": 5334,
  "Ġdiven": 1138,
  "Ġdivenne": 10892,
  "Ġdiventa": 3505,
  "Ġdiventando": 7944,
  "Ġdiventano": 9655,
  "Ġdiventare": 2866,
  "Ġdiventata": 10893,
  "Ġdiventato": 5986,
  "Ġdiver": 782,
  "Ġdiversa": 5011,
  "Ġdiverse": 1774,
  "Ġdiversi": 1743,
  "Ġdiverso": 4348,
  "Ġdivertente": 5256,
  "Ġdivertenti": 7288,
  "Ġdiverti": 4102,
  "Ġdivertimento": 7118,
  "Ġdivi": 2330,
  "Ġdivide": 6219,
  "Ġdivul": 9295,
  "Ġdo": 457,
  "Ġdobbiamo": 4887,
  "Ġdoccia": 8192,
  "Ġdocente": 7867,
  "Ġdocenti": 5935,
  "Ġdocu": 1305,
  "Ġdocumenta": 10248,
  "Ġdocumentari": 10249,
  "Ġdocumentazione": 6191,
  "Ġdocumenti": 2590,
  "Ġdocumento": 3136,
  "Ġdodici": 11457,
  "Ġdol": 2249,
  "Ġdolce": 6611,
  "Ġdolci": 8358,
  "Ġdollari": 4279,
  "Ġdollaro": 9221,
  "Ġdolore": 3547,
  "Ġdolori": 9529,
  "Ġdoloro": 9530,
  "Ġdom": 1179,
  "Ġdomanda": 2984,
  "Ġdomande": 3507,
  "Ġdomani": 5392,
  "Ġdomenica": 3198,
  "Ġdomestici": 10897,
  "Ġdomici": 8695,
  "Ġdomin": 6578,
  "Ġdon": 1437,
  "Ġdona": 5729,
  "Ġdonna": 2461,
  "Ġdonne": 2566,
  "Ġdono": 8488,
  "Ġdopo": 831,
  "Ġdoppia": 5227,
  "Ġdoppio": 5472,
  "Ġdormi": 8106,
  "Ġdormire": 10485,
  "Ġdosa": 11275,
  "Ġdose": 5186,
  "Ġdotata": 11456,
  "Ġdotate": 10095,
  "Ġdotato": 8191,
  "Ġdotazione": 10094,
  "Ġdotto": 8190,
  "Ġdottrina": 9040,
  "Ġdov": 826,
  "Ġdove": 931,
  "Ġdover": 4329,
  "Ġdovere": 6774,
  "Ġdovesse": 7614,
  "Ġdoveva": 9121,
  "Ġdovranno": 5802,
  "Ġdovre": 8268,
  "Ġdovrebbe": 2204,
  "Ġdovrebbero": 5646,
  "ĠdovrÃł": 4103,
  "Ġdovuta": 5966,
  "Ġdovute": 10845,
  "Ġdovuti": 7613,
  "Ġdovuto": 3173,
  "Ġdownload": 10742,
  "Ġdra": 3983,
  "Ġdramma": 6053,
  "Ġdri": 5558,
  "Ġdriver": 10448,
  "Ġdu": 555,
  "Ġdubbi": 3865,
  "Ġdubbio": 5858,
  "Ġdue": 702,
  "Ġdunque": 2107,
  "Ġdup": 10785,
  "Ġdura": 4999,
  "Ġdurante": 1321,
  "Ġdurata": 3602,
  "Ġdure": 10786,
  "Ġdurezza": 9061,
  "Ġduro": 8609,
  "ĠdÃł": 4297,
  "Ġe": 280,
  "Ġebbe": 9435,
  "Ġecc": 1397,
  "Ġecce": 3632,
  "Ġeccell": 5399,
  "Ġeccessi": 4360,
  "Ġeccessiva": 9297,
  "Ġeccessivo": 8040,
  "Ġeccesso": 5027,
  "Ġeccezionale": 7725,
  "Ġeccezione": 11079,
  "Ġecco": 4960,
  "Ġeco": 6286,
  "Ġeconom": 1160,
  "Ġeconomia": 6576,
  "Ġeconomica": 3131,
  "Ġeconomiche": 4614,
  "Ġeconomici": 4613,
  "Ġeconomico": 2944,
  "Ġed": 573,
  "Ġedi": 1377,
  "Ġedifici": 7055,
  "Ġedificio": 10919,
  "Ġedili": 7649,
  "Ġeditori": 11669,
  "Ġedizione": 3137,
  "Ġedizioni": 8305,
  "Ġeducazione": 10606,
  "Ġeff": 980,
  "Ġeffet": 1752,
  "Ġeffetti": 1909,
  "Ġeffettivamente": 5686,
  "Ġeffetto": 3653,
  "Ġeffettu": 3324,
  "Ġeffettua": 2524,
  "Ġeffettuare": 3894,
  "Ġeffettuata": 7391,
  "Ġeffettuate": 8005,
  "Ġeffettuati": 11806,
  "Ġeffettuato": 5842,
  "Ġeffica": 2368,
  "Ġefficace": 3185,
  "Ġefficaci": 7388,
  "Ġefficacia": 11787,
  "Ġel": 959,
  "Ġelabo": 3585,
  "Ġelaborati": 11860,
  "Ġelaborato": 11859,
  "Ġele": 1350,
  "Ġelegante": 7333,
  "Ġelementi": 3614,
  "Ġelemento": 5993,
  "Ġelen": 4520,
  "Ġelenco": 7744,
  "Ġelet": 1688,
  "Ġeletto": 3812,
  "Ġelettorale": 8409,
  "Ġelettori": 9190,
  "Ġelettr": 3363,
  "Ġelettri": 3028,
  "Ġelettrica": 7399,
  "Ġelettrici": 9762,
  "Ġelettrico": 7099,
  "Ġelettro": 10956,
  "Ġelettroni": 5416,
  "Ġelettronica": 5848,
  "Ġelettronici": 11136,
  "Ġelevata": 10914,
  "Ġelevato": 6584,
  "Ġelezioni": 7953,
  "Ġeli": 3125,
  "Ġeliminare": 5302,
  "Ġem": 8505,
  "Ġemail": 6085,
  "Ġemer": 2574,
  "Ġemerge": 9751,
  "Ġemergenza": 9241,
  "Ġemo": 2761,
  "Ġemor": 5893,
  "Ġemorroidi": 6447,
  "Ġemozioni": 5523,
  "Ġen": 812,
  "Ġencic": 5259,
  "Ġenciclica": 6642,
  "Ġener": 2777,
  "Ġenerge": 4199,
  "Ġenergetica": 9801,
  "Ġenergetico": 7738,
  "Ġenergia": 6419,
  "Ġenorme": 8267,
  "Ġenti": 3629,
  "Ġentra": 1775,
  "Ġentrambe": 7976,
  "Ġentrambi": 5036,
  "Ġentrare": 5287,
  "Ġentrate": 7975,
  "Ġentro": 2914,
  "Ġentusias": 6773,
  "Ġentusiasmo": 11166,
  "Ġepi": 4569,
  "Ġepisodi": 10416,
  "Ġepisodio": 10415,
  "Ġepoca": 11303,
  "Ġequi": 3068,
  "Ġequilibrio": 7100,
  "Ġer": 1308,
  "Ġera": 854,
  "Ġerano": 2169,
  "Ġeravamo": 10194,
  "Ġere": 6275,
  "Ġeri": 11273,
  "Ġero": 2674,
  "Ġerro": 3179,
  "Ġerrore": 5847,
  "Ġerrori": 5163,
  "Ġes": 445,
  "Ġesa": 1876,
  "Ġesag": 9203,
  "Ġesame": 9701,
  "Ġesami": 7673,
  "Ġesattamente": 6600,
  "Ġesauri": 9204,
  "Ġesce": 10731,
  "Ġesclu": 1855,
  "Ġesclusi": 2484,
  "Ġesclusiva": 7698,
  "Ġesclusivamente": 5045,
  "Ġesclusivo": 11799,
  "Ġese": 979,
  "Ġesegui": 3318,
  "Ġeseguire": 6427,
  "Ġeseguito": 9776,
  "Ġesemp": 7306,
  "Ġesempi": 7627,
  "Ġesempio": 1335,
  "Ġeser": 8586,
  "Ġeserci": 3213,
  "Ġesercita": 9882,
  "Ġesercitare": 7717,
  "Ġesercizi": 9772,
  "Ġesercizio": 8020,
  "Ġesi": 1109,
  "Ġesibi": 8689,
  "Ġesigenze": 3088,
  "Ġesiste": 3704,
  "Ġesistente": 9647,
  "Ġesistenti": 11629,
  "Ġesistono": 5020,
  "Ġesor": 10084,
  "Ġesp": 755,
  "Ġespan": 7908,
  "Ġesperi": 3754,
  "Ġesperienza": 2939,
  "Ġesperienze": 4641,
  "Ġesperti": 3559,
  "Ġesplici": 10173,
  "Ġesplo": 5795,
  "Ġesplorare": 11945,
  "Ġespon": 7284,
  "Ġesponenti": 9866,
  "Ġesposi": 5486,
  "Ġespressa": 10829,
  "Ġespressamente": 10830,
  "Ġespressi": 9100,
  "Ġespressione": 7605,
  "Ġespresso": 8654,
  "Ġespri": 4257,
  "Ġesprime": 11889,
  "Ġesprimere": 8835,
  "Ġess": 525,
  "Ġessa": 4006,
  "Ġesse": 6518,
  "Ġessen": 2936,
  "Ġessendo": 3750,
  "Ġessenziale": 5299,
  "Ġessenziali": 7711,
  "Ġessenzialmente": 8388,
  "Ġesser": 6754,
  "Ġesserci": 5942,
  "Ġessere": 560,
  "Ġesseri": 9561,
  "Ġessi": 4885,
  "Ġesso": 3695,
  "Ġestate": 7865,
  "Ġeste": 3545,
  "Ġesten": 8181,
  "Ġester": 2317,
  "Ġesterna": 6738,
  "Ġesterni": 4740,
  "Ġesterno": 5410,
  "Ġestetica": 9785,
  "Ġestetico": 8402,
  "Ġestiva": 10732,
  "Ġestivo": 10733,
  "Ġestra": 4240,
  "Ġestre": 3161,
  "Ġestrema": 11841,
  "Ġestremamente": 5707,
  "Ġet": 3106,
  "Ġetc": 7102,
  "Ġetiche": 9436,
  "Ġetta": 9434,
  "ĠetÃł": 4482,
  "Ġeuro": 829,
  "Ġeurope": 1790,
  "Ġeuropea": 3471,
  "Ġeuropee": 6007,
  "Ġeuropei": 5403,
  "Ġeuropeo": 5685,
  "Ġeva": 6934,
  "Ġeventi": 3287,
  "Ġevento": 3987,
  "Ġeventu": 2296,
  "Ġeventuale": 10335,
  "Ġeventuali": 3095,
  "Ġeventualmente": 7384,
  "Ġevi": 1378,
  "Ġeviden": 5025,
  "Ġevidente": 4724,
  "Ġevidenza": 11670,
  "Ġevidenzia": 11923,
  "Ġevitare": 2750,
  "Ġevol": 4137,
  "Ġevoluzione": 10407,
  "Ġex": 1921,
  "Ġextra": 4364,
  "Ġf": 297,
  "Ġfa": 411,
  "Ġfabb": 6972,
  "Ġfabbrica": 9347,
  "Ġfacce": 10060,
  "Ġfaccia": 2829,
  "Ġfacciamo": 7708,
  "Ġfacciata": 11040,
  "Ġfaccio": 4407,
  "Ġface": 4689,
  "Ġfacendo": 2898,
  "Ġfaceva": 8841,
  "Ġfaci": 1360,
  "Ġfacile": 2261,
  "Ġfacili": 3568,
  "Ġfacilmente": 4439,
  "ĠfacoltÃł": 8573,
  "Ġfai": 6971,
  "Ġfal": 2677,
  "Ġfalli": 6034,
  "Ġfam": 3543,
  "Ġfame": 10714,
  "Ġfami": 1325,
  "Ġfamiglia": 2086,
  "Ġfamiglie": 3761,
  "Ġfamiliare": 6802,
  "Ġfamiliari": 9160,
  "Ġfamosa": 8817,
  "Ġfamose": 11858,
  "Ġfamosi": 11430,
  "Ġfamoso": 6050,
  "Ġfan": 5900,
  "Ġfanno": 2162,
  "Ġfanta": 2352,
  "Ġfantasia": 5698,
  "Ġfantastica": 11786,
  "Ġfantastico": 7387,
  "Ġfar": 777,
  "Ġfaranno": 11429,
  "Ġfare": 770,
  "Ġfarina": 7287,
  "Ġfarine": 11549,
  "Ġfarla": 10177,
  "Ġfarlo": 3315,
  "Ġfarma": 4024,
  "Ġfarmaci": 6241,
  "Ġfarmacista": 11951,
  "Ġfarmaco": 10403,
  "Ġfarmi": 11548,
  "Ġfarsi": 5010,
  "Ġfarvi": 10833,
  "ĠfarÃł": 6359,
  "Ġfas": 1606,
  "Ġfasci": 7965,
  "Ġfascia": 6809,
  "Ġfase": 2873,
  "Ġfasi": 5604,
  "Ġfasti": 9181,
  "Ġfastidio": 10497,
  "Ġfate": 9022,
  "Ġfatica": 4690,
  "Ġfatta": 2828,
  "Ġfatte": 6730,
  "Ġfatti": 2770,
  "Ġfatto": 840,
  "Ġfattore": 9114,
  "Ġfattori": 7616,
  "Ġfattura": 4327,
  "Ġfatturato": 11893,
  "Ġfatture": 8572,
  "Ġfau": 9511,
  "Ġfavo": 1617,
  "Ġfavore": 2567,
  "Ġfavorevole": 9750,
  "Ġfavori": 7660,
  "Ġfavorire": 5825,
  "Ġfavorito": 9689,
  "Ġfe": 1204,
  "Ġfebb": 2717,
  "Ġfebbraio": 3064,
  "Ġfece": 10237,
  "Ġfeci": 6795,
  "Ġfed": 3290,
  "Ġfede": 3877,
  "Ġfedel": 10375,
  "Ġfedeli": 9775,
  "Ġfederale": 11065,
  "Ġfegato": 11642,
  "Ġfel": 7817,
  "Ġfeli": 3107,
  "Ġfelice": 4838,
  "Ġfelici": 8805,
  "ĠfelicitÃł": 11052,
  "Ġfemm": 4186,
  "Ġfemmini": 4753,
  "Ġfemminile": 5716,
  "Ġfenomen": 3151,
  "Ġfenomeni": 10372,
  "Ġfenomeno": 4052,
  "Ġfer": 1580,
  "Ġferi": 5572,
  "Ġferite": 11139,
  "Ġfermare": 11700,
  "Ġfermata": 8316,
  "Ġfermato": 10281,
  "Ġfermo": 9179,
  "Ġferro": 4190,
  "Ġferrovia": 6436,
  "Ġferroviaria": 9849,
  "Ġfesta": 4140,
  "Ġfeste": 6701,
  "Ġfestival": 8953,
  "Ġfette": 9982,
  "Ġfi": 547,
  "Ġfia": 6478,
  "Ġfianco": 10779,
  "Ġfibra": 8209,
  "Ġfid": 8208,
  "Ġfidanza": 9877,
  "Ġfidu": 4250,
  "Ġfiducia": 4465,
  "Ġfigli": 3696,
  "Ġfiglia": 9057,
  "Ġfiglio": 4167,
  "Ġfigu": 6531,
  "Ġfigura": 5236,
  "Ġfigure": 8870,
  "Ġfil": 1107,
  "Ġfila": 6530,
  "Ġfile": 2216,
  "Ġfili": 7578,
  "Ġfiliera": 11983,
  "Ġfilm": 1522,
  "Ġfilo": 5235,
  "Ġfiloso": 3564,
  "Ġfilosofia": 6851,
  "Ġfiltra": 11628,
  "Ġfin": 1031,
  "Ġfina": 2630,
  "Ġfinale": 2470,
  "Ġfinali": 7704,
  "ĠfinalitÃł": 4635,
  "Ġfinalmente": 5661,
  "Ġfinanza": 10215,
  "Ġfinanzia": 1818,
  "Ġfinanziamenti": 9200,
  "Ġfinanziamento": 7363,
  "Ġfinanziari": 6817,
  "Ġfinanziaria": 7070,
  "Ġfinanziarie": 7668,
  "Ġfinanziario": 6599,
  "Ġfine": 1104,
  "Ġfinestra": 6791,
  "Ġfinestre": 11611,
  "Ġfini": 2077,
  "Ġfinire": 8743,
  "Ġfinis": 9981,
  "Ġfinisce": 8513,
  "Ġfinita": 8744,
  "Ġfinito": 6016,
  "Ġfino": 1025,
  "Ġfinora": 7630,
  "Ġfiori": 5446,
  "Ġfir": 2613,
  "Ġfirma": 5521,
  "Ġfirmato": 7703,
  "Ġfis": 1830,
  "Ġfiscale": 5831,
  "Ġfiscali": 8329,
  "Ġfisi": 2047,
  "Ġfisica": 5156,
  "Ġfisicamente": 11759,
  "Ġfisici": 9718,
  "Ġfisico": 4831,
  "Ġfissa": 10977,
  "Ġfissato": 9699,
  "Ġfisso": 10301,
  "Ġfiume": 8608,
  "Ġfl": 4305,
  "Ġfla": 9443,
  "Ġfle": 6700,
  "Ġflessi": 8873,
  "Ġflo": 8952,
  "Ġflu": 10618,
  "Ġflui": 7120,
  "Ġfluo": 7416,
  "Ġflus": 7507,
  "Ġflusso": 9868,
  "Ġfo": 915,
  "Ġfoglie": 7924,
  "Ġfol": 6293,
  "Ġfolli": 11324,
  "Ġfon": 918,
  "Ġfonda": 1503,
  "Ġfondamentale": 3061,
  "Ġfondamentali": 5142,
  "Ġfondatore": 8714,
  "Ġfondi": 7024,
  "Ġfondo": 2712,
  "Ġfonte": 5974,
  "Ġfonti": 5973,
  "Ġfor": 502,
  "Ġfore": 10201,
  "Ġforesta": 7299,
  "Ġforma": 748,
  "Ġformaggio": 8651,
  "Ġformale": 8650,
  "Ġformano": 10762,
  "Ġformare": 6552,
  "Ġformati": 11541,
  "Ġformativa": 11542,
  "Ġformative": 11543,
  "Ġformativi": 9600,
  "Ġformativo": 9097,
  "Ġformato": 3607,
  "Ġformazione": 2008,
  "Ġforme": 3404,
  "Ġformu": 3167,
  "Ġformula": 5303,
  "Ġformule": 8807,
  "Ġforni": 1477,
  "Ġfornire": 4042,
  "Ġfornisce": 7059,
  "Ġfornite": 9169,
  "Ġforniti": 7058,
  "Ġfornito": 6804,
  "Ġfornitori": 10931,
  "Ġfornitura": 9170,
  "Ġforno": 5940,
  "Ġforse": 2167,
  "Ġforte": 2079,
  "Ġfortemente": 7379,
  "Ġforti": 4798,
  "Ġfortuna": 4010,
  "Ġforum": 6748,
  "Ġforza": 2236,
  "Ġforze": 4009,
  "Ġfos": 1987,
  "Ġfosse": 2621,
  "Ġfossero": 6399,
  "Ġfossi": 9983,
  "Ġfoto": 1212,
  "Ġfotocamera": 10903,
  "Ġfotogra": 2460,
  "Ġfotografia": 7697,
  "Ġfotografie": 8003,
  "Ġfotografo": 10345,
  "Ġfr": 5899,
  "Ġfra": 960,
  "Ġfragi": 7932,
  "ĠfragilitÃł": 11180,
  "Ġfran": 2013,
  "Ġfrancese": 3368,
  "Ġfrancesi": 7990,
  "Ġfrase": 5384,
  "Ġfratelli": 6366,
  "Ġfratello": 6367,
  "Ġfrati": 11594,
  "Ġfrattempo": 7624,
  "Ġfrazione": 11323,
  "Ġfre": 1318,
  "Ġfred": 6192,
  "Ġfredda": 7438,
  "Ġfreddo": 5024,
  "Ġfree": 5137,
  "Ġfreelance": 9311,
  "Ġfrequ": 2871,
  "Ġfrequenza": 8380,
  "Ġfres": 3841,
  "Ġfresca": 10397,
  "Ġfresco": 8824,
  "Ġfretta": 10251,
  "Ġfri": 5200,
  "Ġfrom": 8954,
  "Ġfron": 1724,
  "Ġfronte": 2074,
  "Ġfronti": 9193,
  "Ġfru": 3840,
  "Ġfrui": 10459,
  "Ġfrus": 9984,
  "Ġfrutta": 7508,
  "Ġfrutti": 11089,
  "Ġfrutto": 6238,
  "Ġfu": 1088,
  "Ġfum": 9444,
  "Ġfun": 1146,
  "Ġfunzion": 6377,
  "Ġfunziona": 2144,
  "Ġfunzionale": 8693,
  "ĠfunzionalitÃł": 5691,
  "Ġfunzionamento": 6826,
  "Ġfunzionano": 9846,
  "Ġfunzionare": 9727,
  "Ġfunzione": 3759,
  "Ġfunzioni": 5390,
  "Ġfuo": 1508,
  "Ġfuoco": 5030,
  "Ġfuori": 1803,
  "Ġfuoriescono": 11735,
  "Ġfur": 2795,
  "Ġfurgone": 11822,
  "Ġfurono": 3891,
  "Ġfutu": 2341,
  "Ġfuture": 10889,
  "Ġfuturi": 8759,
  "Ġfuturo": 2648,
  "Ġg": 310,
  "Ġga": 946,
  "Ġgall": 5083,
  "Ġgalleria": 11123,
  "Ġgallerie": 11926,
  "Ġgam": 5451,
  "Ġgamba": 10866,
  "Ġgambe": 6786,
  "Ġgame": 10865,
  "Ġgamma": 7431,
  "Ġgara": 2713,
  "Ġgarage": 11820,
  "Ġgaran": 7027,
  "Ġgarantendo": 8876,
  "Ġgaranti": 1991,
  "Ġgarantire": 3768,
  "Ġgarantisce": 7374,
  "Ġgarantito": 9713,
  "Ġgaranzia": 8674,
  "Ġgare": 6483,
  "Ġgas": 3153,
  "Ġgastron": 10373,
  "Ġgatti": 6704,
  "Ġgatto": 10864,
  "Ġge": 1885,
  "Ġgel": 10634,
  "Ġgelato": 10307,
  "Ġgen": 713,
  "Ġgene": 5575,
  "Ġgener": 5250,
  "Ġgenera": 1312,
  "Ġgenerale": 2290,
  "Ġgenerali": 7646,
  "Ġgeneralmente": 7429,
  "Ġgenerazione": 4036,
  "Ġgenerazioni": 7952,
  "Ġgenere": 2271,
  "Ġgeneri": 10820,
  "Ġgeni": 2775,
  "Ġgenitori": 3574,
  "Ġgennaio": 2776,
  "Ġgente": 3003,
  "Ġgenti": 6301,
  "Ġgentile": 10464,
  "Ġgeo": 4830,
  "Ġgeoide": 11119,
  "Ġgeomet": 6011,
  "Ġges": 6944,
  "Ġgesti": 1379,
  "Ġgestione": 2307,
  "Ġgestire": 4269,
  "Ġgestito": 10255,
  "Ġgesto": 8519,
  "Ġgestore": 11168,
  "Ġgg": 11340,
  "Ġghi": 8518,
  "Ġghiaccio": 6484,
  "Ġghiandole": 12010,
  "Ġgi": 454,
  "Ġgia": 1692,
  "Ġgiallo": 7970,
  "Ġgiappone": 11715,
  "Ġgiapponese": 7350,
  "Ġgiapponesi": 12044,
  "Ġgiar": 3092,
  "Ġgiardino": 3621,
  "Ġgino": 9992,
  "Ġgio": 602,
  "Ġgioca": 1624,
  "Ġgiocare": 3553,
  "Ġgiocato": 11506,
  "Ġgiocatore": 4363,
  "Ġgiocatori": 2946,
  "Ġgiocatto": 11707,
  "Ġgiochi": 2217,
  "Ġgioco": 1528,
  "Ġgioi": 5241,
  "Ġgioia": 7893,
  "Ġgioielli": 7428,
  "Ġgior": 616,
  "Ġgiorna": 1286,
  "Ġgiornale": 9667,
  "Ġgiornali": 2438,
  "Ġgiornaliera": 9232,
  "Ġgiornalista": 6221,
  "Ġgiornalisti": 11794,
  "Ġgiornata": 2437,
  "Ġgiornate": 5396,
  "Ġgiorni": 1080,
  "Ġgiorno": 1101,
  "Ġgiov": 1317,
  "Ġgiovane": 3025,
  "Ġgiovani": 1802,
  "Ġgiovanile": 8328,
  "ĠgiovedÃ¬": 6344,
  "Ġgira": 11452,
  "Ġgirare": 6331,
  "Ġgirata": 10091,
  "Ġgirato": 10090,
  "Ġgiro": 2832,
  "Ġgirone": 10092,
  "Ġgiu": 1257,
  "Ġgiudi": 3133,
  "Ġgiudici": 8698,
  "Ġgiudizia": 11839,
  "Ġgiudizio": 5415,
  "Ġgiugno": 2436,
  "Ġgiun": 7238,
  "Ġgiunta": 6138,
  "Ġgiunto": 8589,
  "Ġgiuri": 5666,
  "Ġgiuris": 11652,
  "Ġgius": 1251,
  "Ġgiusta": 5022,
  "Ġgiusti": 7047,
  "Ġgiustizia": 2687,
  "Ġgiusto": 2546,
  "ĠgiÃł": 870,
  "Ġgli": 541,
  "Ġglo": 9452,
  "Ġglob": 3243,
  "Ġglobale": 4460,
  "Ġglobalizza": 11061,
  "Ġglobalizzazione": 12032,
  "Ġglu": 7822,
  "Ġglutine": 11991,
  "Ġgo": 1044,
  "Ġgodere": 9132,
  "Ġgol": 4395,
  "Ġgola": 6792,
  "Ġgomma": 10635,
  "Ġgon": 8517,
  "Ġgover": 1464,
  "Ġgoverna": 4041,
  "Ġgovernatore": 11882,
  "Ġgoverni": 6384,
  "Ġgoverno": 2127,
  "Ġgr": 8962,
  "Ġgra": 548,
  "Ġgradi": 4997,
  "Ġgrado": 1630,
  "Ġgradu": 5106,
  "Ġgradualmente": 8848,
  "Ġgrafica": 7579,
  "Ġgrafico": 7257,
  "Ġgran": 732,
  "Ġgrande": 1015,
  "Ġgrandezza": 10214,
  "Ġgrandi": 1649,
  "Ġgrano": 5945,
  "Ġgrassi": 4338,
  "Ġgrasso": 1865,
  "Ġgratis": 5623,
  "Ġgratui": 1967,
  "Ġgratuita": 7987,
  "Ġgratuitamente": 7371,
  "Ġgratuiti": 6013,
  "Ġgratuito": 3821,
  "Ġgrave": 4998,
  "Ġgravi": 3943,
  "Ġgravidanza": 7580,
  "ĠgravitÃł": 9058,
  "Ġgrazie": 1441,
  "Ġgre": 4308,
  "Ġgreca": 11890,
  "Ġgreco": 11891,
  "Ġgri": 3791,
  "Ġgro": 3485,
  "Ġgrossa": 11855,
  "Ġgrosso": 9783,
  "Ġgru": 1405,
  "Ġgruppi": 3709,
  "Ġgruppo": 1814,
  "Ġgu": 1073,
  "Ġgua": 3178,
  "Ġguada": 3972,
  "Ġguadagnare": 9796,
  "Ġguar": 2813,
  "Ġguard": 7316,
  "Ġguarda": 5702,
  "Ġguardando": 11974,
  "Ġguardare": 6228,
  "Ġguardi": 10887,
  "Ġguari": 9140,
  "Ġguerra": 3128,
  "Ġguerre": 9645,
  "Ġgui": 1510,
  "Ġguida": 1837,
  "Ġguidare": 9171,
  "Ġguidata": 10303,
  "Ġgus": 5574,
  "Ġgusti": 11140,
  "Ġgusto": 3739,
  "Ġh": 383,
  "Ġha": 450,
  "Ġhai": 1935,
  "Ġhanno": 636,
  "Ġhe": 9943,
  "Ġhi": 7849,
  "Ġhigh": 11993,
  "Ġho": 765,
  "Ġhome": 9499,
  "Ġhotel": 3503,
  "Ġhouse": 9602,
  "Ġhttp": 5600,
  "Ġhttps": 8857,
  "Ġi": 286,
  "ĠiOS": 7814,
  "ĠiP": 8119,
  "ĠiPhone": 10487,
  "Ġid": 2959,
  "Ġide": 1667,
  "Ġidea": 5148,
  "Ġideale": 4730,
  "Ġideali": 11712,
  "Ġidee": 4193,
  "Ġidenti": 2629,
  "Ġidentificare": 9244,
  "Ġidentificato": 11811,
  "ĠidentitÃł": 7394,
  "Ġidone": 7096,
  "Ġidra": 6620,
  "Ġidrau": 11958,
  "Ġidro": 6087,
  "Ġieri": 3437,
  "Ġigi": 7813,
  "Ġigno": 7499,
  "Ġil": 313,
  "Ġille": 5576,
  "Ġillega": 10451,
  "Ġillu": 4778,
  "Ġillustra": 6705,
  "Ġim": 1877,
  "Ġimb": 5740,
  "Ġimballa": 11942,
  "Ġimm": 2423,
  "Ġimma": 1902,
  "Ġimmagine": 7073,
  "Ġimmagini": 2781,
  "Ġimmedia": 2667,
  "Ġimmediata": 11030,
  "Ġimmediatamente": 4281,
  "Ġimmediato": 9756,
  "Ġimmer": 5700,
  "Ġimmersi": 11016,
  "Ġimmigra": 11741,
  "Ġimmobili": 7674,
  "Ġimmuni": 9230,
  "Ġimp": 528,
  "Ġimpa": 2905,
  "Ġimparare": 7093,
  "Ġimpatto": 8383,
  "Ġimpe": 1959,
  "Ġimpedi": 4248,
  "Ġimpedire": 8415,
  "Ġimpedisce": 10409,
  "Ġimpegna": 8341,
  "Ġimpegnati": 8342,
  "Ġimpegnato": 10983,
  "Ġimpegni": 7985,
  "Ġimpegno": 5687,
  "Ġimper": 5782,
  "Ġimpermea": 10456,
  "Ġimpi": 3170,
  "Ġimpianti": 5050,
  "Ġimpianto": 6622,
  "Ġimpie": 10771,
  "Ġimpiega": 5783,
  "Ġimplica": 10772,
  "Ġimpo": 9562,
  "Ġimpone": 10770,
  "Ġimpor": 1063,
  "Ġimporta": 8202,
  "Ġimportante": 1745,
  "Ġimportanti": 2062,
  "Ġimportanza": 7315,
  "Ġimpos": 5232,
  "Ġimpossi": 3939,
  "Ġimpossibile": 4750,
  "Ġimposta": 6755,
  "Ġimpostare": 8850,
  "Ġimpostazioni": 11963,
  "Ġimpre": 2006,
  "Ġimprendi": 4506,
  "Ġimprenditore": 11111,
  "Ġimprenditori": 8041,
  "Ġimpresa": 7075,
  "Ġimprese": 3367,
  "Ġimpro": 5231,
  "Ġimprobabile": 11932,
  "Ġimprovvi": 9313,
  "Ġin": 291,
  "Ġinacc": 9440,
  "Ġinas": 11319,
  "Ġinau": 6698,
  "Ġinaugu": 8058,
  "Ġinc": 5441,
  "Ġinca": 2960,
  "Ġincapa": 9254,
  "Ġincenti": 11320,
  "Ġincentra": 9977,
  "Ġincer": 7505,
  "Ġinci": 3002,
  "Ġincidenti": 8795,
  "Ġinclu": 2447,
  "Ġincludere": 11795,
  "Ġincludono": 8366,
  "Ġinclusi": 8765,
  "Ġincluso": 9746,
  "Ġincom": 5079,
  "Ġincon": 1429,
  "Ġincontr": 8708,
  "Ġincontra": 4361,
  "Ġincontrato": 11108,
  "Ġincontri": 3323,
  "Ġincontro": 4038,
  "Ġincor": 9976,
  "Ġincora": 6091,
  "Ġincre": 3071,
  "Ġincredibili": 11836,
  "Ġincrementare": 10371,
  "Ġincremento": 10370,
  "Ġincro": 8124,
  "Ġincu": 7502,
  "Ġind": 8510,
  "Ġinda": 4392,
  "Ġindagine": 9807,
  "Ġindagini": 11897,
  "Ġinde": 4668,
  "Ġindesidera": 8043,
  "Ġindesiderati": 10484,
  "Ġindi": 720,
  "Ġindica": 2081,
  "Ġindicare": 7603,
  "Ġindicata": 10992,
  "Ġindicate": 9219,
  "Ġindicati": 8350,
  "Ġindicativamente": 10329,
  "Ġindicato": 6548,
  "Ġindicazioni": 6212,
  "Ġindice": 9095,
  "Ġindietro": 5123,
  "Ġindimenti": 10162,
  "Ġindimenticabile": 11197,
  "Ġindipen": 6173,
  "Ġindipendente": 8439,
  "Ġindire": 7602,
  "Ġindirettamente": 11985,
  "Ġindiri": 3124,
  "Ġindirizzo": 6046,
  "Ġindispensa": 5638,
  "Ġindispensabile": 9834,
  "Ġindispensabili": 9322,
  "Ġindivi": 2082,
  "Ġindivid": 6822,
  "Ġindividu": 2441,
  "Ġindividuale": 8365,
  "Ġindividuali": 8763,
  "Ġindividuato": 8764,
  "Ġindividui": 9857,
  "Ġindo": 8511,
  "Ġindos": 5080,
  "Ġindossare": 8846,
  "Ġindu": 4669,
  "Ġindubbiamente": 10419,
  "Ġindustri": 3484,
  "Ġindustriale": 6428,
  "Ġindustriali": 8397,
  "Ġinedi": 7503,
  "Ġiner": 7500,
  "Ġinerenti": 11978,
  "Ġinevita": 6699,
  "Ġinevitabile": 11961,
  "Ġinf": 731,
  "Ġinfatti": 1307,
  "Ġinfer": 3457,
  "Ġinferiore": 4944,
  "Ġinferiori": 11854,
  "Ġinfezioni": 9595,
  "Ġinfi": 7501,
  "Ġinfiamma": 5963,
  "Ġinfine": 4346,
  "Ġinfini": 8249,
  "Ġinfl": 10824,
  "Ġinflu": 4256,
  "Ġinfluenza": 6438,
  "Ġinfo": 7907,
  "Ġinfor": 6476,
  "Ġinforma": 1135,
  "Ġinformarsi": 11162,
  "Ġinformazione": 10891,
  "Ġinformazioni": 1543,
  "Ġinfrastrutture": 8250,
  "Ġing": 6697,
  "Ġingegn": 6291,
  "Ġingegneri": 8866,
  "Ġingius": 11321,
  "Ġingle": 3789,
  "Ġinglese": 4839,
  "Ġinglesi": 10396,
  "Ġingre": 2926,
  "Ġingredi": 4201,
  "Ġingredienti": 4841,
  "Ġingresso": 6840,
  "Ġini": 941,
  "Ġinizi": 4607,
  "Ġinizia": 1264,
  "Ġiniziale": 6580,
  "Ġinizialmente": 7928,
  "Ġiniziare": 5395,
  "Ġiniziata": 11655,
  "Ġiniziativa": 5992,
  "Ġiniziative": 3567,
  "Ġiniziato": 4266,
  "Ġinizio": 3811,
  "Ġinn": 4862,
  "Ġinna": 5337,
  "Ġinnamo": 6645,
  "Ġinnamorato": 11959,
  "Ġinno": 9975,
  "Ġinnova": 2887,
  "Ġinnovative": 11043,
  "Ġinnovativo": 9250,
  "Ġinnovazione": 10364,
  "Ġinnumere": 10426,
  "Ġinnumerevoli": 10506,
  "Ġinoltre": 2161,
  "Ġinqu": 9439,
  "Ġins": 1519,
  "Ġinse": 3788,
  "Ġinsegn": 7411,
  "Ġinsegna": 5895,
  "Ġinsegnanti": 11175,
  "Ġinser": 8951,
  "Ġinseri": 2145,
  "Ġinserire": 5041,
  "Ġinseriti": 7076,
  "Ġinserito": 8354,
  "Ġinsi": 5199,
  "Ġinsieme": 1614,
  "Ġinsomma": 9173,
  "Ġinsta": 6290,
  "Ġinstalla": 4393,
  "Ġinstallare": 9338,
  "Ġinstallazione": 8838,
  "Ġinte": 1462,
  "Ġinteg": 9168,
  "Ġintegra": 2000,
  "Ġintegrare": 11753,
  "Ġintegrata": 9212,
  "Ġintegrato": 10988,
  "Ġintegrazione": 7375,
  "Ġintelle": 9441,
  "Ġintelli": 7506,
  "Ġintelligente": 11979,
  "Ġinten": 1748,
  "Ġintende": 4276,
  "ĠintensitÃł": 7973,
  "Ġintenso": 10296,
  "Ġintenzione": 11721,
  "Ġinter": 543,
  "Ġintera": 3941,
  "Ġinteramente": 6239,
  "Ġinterc": 10119,
  "Ġinteress": 2663,
  "Ġinteressa": 2431,
  "Ġinteressante": 4540,
  "Ġinteressanti": 5411,
  "Ġinteressata": 9744,
  "Ġinteressati": 6220,
  "Ġinteressato": 8364,
  "Ġinteresse": 3942,
  "Ġinteressi": 5233,
  "Ġinteriore": 10778,
  "Ġinterlocu": 11485,
  "Ġinterna": 1433,
  "Ġinternazionale": 2308,
  "Ġinternazionali": 4039,
  "Ġinterne": 7255,
  "Ġinternet": 4507,
  "Ġinterni": 6991,
  "Ġinterno": 4249,
  "Ġintero": 6155,
  "Ġinterpre": 4012,
  "Ġinterro": 6529,
  "Ġinterval": 10777,
  "Ġintervenire": 6156,
  "Ġinterventi": 2706,
  "Ġintervento": 3082,
  "Ġintervista": 8606,
  "Ġintesa": 10929,
  "Ġinti": 6940,
  "Ġintito": 9978,
  "Ġinto": 8950,
  "Ġintorno": 3340,
  "Ġintra": 3989,
  "Ġintro": 4224,
  "Ġintui": 7504,
  "Ġinutile": 11322,
  "Ġinutili": 10615,
  "Ġinva": 5571,
  "Ġinvece": 1221,
  "Ġinven": 7180,
  "Ġinver": 4963,
  "Ġinvernali": 9821,
  "Ġinverno": 8512,
  "Ġinvesti": 2313,
  "Ġinvestimenti": 5295,
  "Ġinvestimento": 6025,
  "Ġinvestire": 7386,
  "Ġinvi": 2369,
  "Ġinvia": 3038,
  "Ġinviare": 6232,
  "Ġinviato": 9763,
  "Ġinvol": 7181,
  "Ġio": 1685,
  "Ġiper": 6937,
  "Ġipo": 5078,
  "Ġipotesi": 8046,
  "Ġir": 3339,
  "Ġirre": 7177,
  "Ġirri": 5052,
  "Ġis": 1757,
  "Ġiscri": 2885,
  "Ġiscritti": 10363,
  "Ġiscritto": 8787,
  "Ġiso": 7812,
  "Ġisola": 6938,
  "Ġisole": 5741,
  "Ġispi": 4771,
  "Ġisraeli": 7357,
  "Ġistan": 10967,
  "Ġistitu": 2576,
  "Ġistitui": 9970,
  "Ġistituti": 8772,
  "Ġistituzionale": 11809,
  "Ġistituzioni": 4835,
  "Ġistruzioni": 6203,
  "Ġit": 8508,
  "Ġitali": 917,
  "Ġitalia": 9629,
  "Ġitaliana": 2435,
  "Ġitaliane": 3261,
  "Ġitaliani": 2543,
  "Ġitaliano": 2021,
  "Ġitinera": 10610,
  "Ġj": 3432,
  "Ġja": 10382,
  "Ġk": 1531,
  "Ġkg": 6807,
  "Ġkm": 2439,
  "Ġl": 336,
  "Ġla": 304,
  "Ġlabo": 4070,
  "Ġlaboratori": 8038,
  "Ġlaboratorio": 6859,
  "Ġlago": 6298,
  "Ġlama": 10624,
  "Ġlan": 2197,
  "Ġlana": 8959,
  "Ġlancia": 5693,
  "Ġlanciare": 10999,
  "Ġlanciato": 6609,
  "Ġlancio": 8355,
  "Ġlar": 3790,
  "Ġlarga": 11087,
  "Ġlargo": 8029,
  "Ġlasc": 9447,
  "Ġlasci": 4775,
  "Ġlascia": 1557,
  "Ġlasciando": 7421,
  "Ġlasciare": 4916,
  "Ġlasciato": 5147,
  "Ġlater": 6943,
  "Ġlati": 8514,
  "Ġlato": 3737,
  "Ġlatte": 4489,
  "Ġlatto": 11335,
  "Ġlattosio": 12037,
  "Ġlaure": 5902,
  "Ġlaurea": 9837,
  "Ġlava": 4488,
  "Ġlavaggio": 10413,
  "Ġlavo": 626,
  "Ġlavora": 1521,
  "Ġlavorando": 9585,
  "Ġlavorano": 9174,
  "Ġlavorare": 3055,
  "Ġlavorativa": 10273,
  "Ġlavorato": 8227,
  "Ġlavoratore": 9175,
  "Ġlavoratori": 2816,
  "Ġlavorazione": 10801,
  "Ġlavori": 2433,
  "Ġlavoro": 909,
  "Ġle": 352,
  "Ġleader": 3296,
  "Ġleadership": 11848,
  "Ġleague": 8544,
  "Ġlega": 1500,
  "Ġlegale": 5822,
  "Ġlegali": 11690,
  "Ġlegame": 10269,
  "Ġlegami": 10936,
  "Ġlegata": 8713,
  "Ġlegate": 5998,
  "Ġlegati": 5675,
  "Ġlegato": 6385,
  "Ġlegg": 948,
  "Ġlegge": 1600,
  "Ġleggenda": 11590,
  "Ġlegger": 7931,
  "Ġleggera": 6787,
  "Ġleggere": 2645,
  "Ġleggermente": 9873,
  "Ġleggero": 7028,
  "Ġleggi": 4152,
  "Ġlegi": 3210,
  "Ġlegisla": 8810,
  "Ġlegitti": 8809,
  "Ġlegittima": 9266,
  "Ġlegno": 5209,
  "Ġlei": 3112,
  "Ġlenta": 8529,
  "Ġlentamente": 10489,
  "Ġlente": 10006,
  "Ġlenti": 10649,
  "Ġlesioni": 10029,
  "Ġlett": 11385,
  "Ġletter": 2408,
  "Ġlettera": 2783,
  "Ġletteratura": 8010,
  "Ġlettere": 7834,
  "Ġletto": 3007,
  "Ġlettore": 11386,
  "Ġlettori": 8982,
  "Ġlettura": 4230,
  "Ġletture": 10675,
  "Ġlezione": 9480,
  "Ġlezioni": 10028,
  "Ġli": 513,
  "Ġlib": 839,
  "Ġliber": 3316,
  "Ġlibera": 3952,
  "Ġlibere": 9618,
  "Ġliberi": 7294,
  "Ġlibero": 4714,
  "ĠlibertÃł": 4943,
  "Ġlibr": 7615,
  "Ġlibreria": 11986,
  "Ġlibri": 2915,
  "Ġlibro": 1949,
  "Ġlice": 9050,
  "Ġlicenza": 5618,
  "Ġlievi": 8199,
  "Ġlimi": 1534,
  "Ġlimita": 8715,
  "Ġlimitata": 11694,
  "Ġlimitato": 5823,
  "Ġlimite": 6386,
  "Ġlimiti": 4622,
  "Ġlimitro": 10940,
  "Ġlimone": 10112,
  "Ġlin": 1798,
  "Ġline": 1438,
  "Ġlinea": 2156,
  "Ġlinee": 5141,
  "Ġlingua": 2817,
  "Ġlinguaggio": 6420,
  "Ġlingue": 9698,
  "Ġlink": 4920,
  "Ġlipos": 9558,
  "Ġliqui": 3640,
  "Ġliquida": 11862,
  "Ġliquidi": 8820,
  "Ġliquido": 10390,
  "Ġlire": 8197,
  "Ġlista": 3639,
  "Ġliste": 8198,
  "Ġliv": 1228,
  "Ġlive": 9557,
  "Ġlivelli": 4265,
  "Ġlivello": 1505,
  "Ġlo": 466,
  "Ġloca": 1447,
  "Ġlocale": 3227,
  "Ġlocali": 2547,
  "ĠlocalitÃł": 7654,
  "Ġlogica": 6742,
  "Ġlogo": 11462,
  "Ġlomb": 9534,
  "Ġlon": 10005,
  "Ġlontan": 11357,
  "Ġlontana": 11356,
  "Ġlontano": 4575,
  "Ġloro": 705,
  "Ġlos": 9469,
  "Ġlotta": 5474,
  "Ġlotte": 9535,
  "Ġlu": 1147,
  "Ġluce": 2306,
  "Ġluci": 6574,
  "Ġluglio": 2749,
  "Ġlui": 1933,
  "Ġlum": 5752,
  "Ġlumin": 7760,
  "Ġlun": 987,
  "Ġluna": 11598,
  "ĠlunedÃ¬": 4909,
  "Ġlung": 6369,
  "Ġlunga": 4026,
  "Ġlungarno": 10872,
  "Ġlunghe": 4819,
  "Ġlunghezza": 6636,
  "Ġlunghi": 8284,
  "Ġlungo": 1927,
  "Ġlungomare": 11159,
  "Ġlungomet": 11158,
  "Ġluo": 1490,
  "Ġluoghi": 3468,
  "Ġluogo": 1941,
  "Ġlus": 6102,
  "ĠlÃ¬": 3741,
  "ĠlÃł": 4865,
  "Ġm": 283,
  "ĠmAh": 4770,
  "Ġma": 386,
  "Ġmacch": 2557,
  "Ġmacchina": 3771,
  "Ġmacchine": 6031,
  "Ġmach": 6725,
  "Ġmachine": 7771,
  "Ġmacro": 10047,
  "Ġmadre": 5920,
  "Ġmaestro": 9008,
  "Ġmagari": 2802,
  "Ġmaggio": 1132,
  "Ġmaggior": 2165,
  "Ġmaggioranza": 4721,
  "Ġmaggiore": 2361,
  "Ġmaggiori": 3657,
  "Ġmaggiormente": 5292,
  "Ġmagi": 4785,
  "Ġmagia": 10695,
  "Ġmagistra": 6243,
  "Ġmagistrati": 11152,
  "Ġmagli": 8559,
  "Ġmaglia": 7219,
  "Ġmagni": 10046,
  "Ġmai": 1194,
  "Ġmail": 7220,
  "Ġmal": 2676,
  "Ġmala": 2387,
  "Ġmalatti": 2569,
  "Ġmalattia": 3270,
  "Ġmalattie": 6836,
  "Ġmale": 2473,
  "Ġmalware": 11031,
  "Ġmamm": 8560,
  "Ġmamma": 6963,
  "Ġman": 742,
  "Ġmana": 5195,
  "Ġmanagement": 10437,
  "Ġmanager": 7750,
  "Ġmanca": 4602,
  "Ġmancano": 10167,
  "Ġmancanza": 4712,
  "Ġmancare": 8646,
  "Ġmancata": 9598,
  "Ġmancato": 8645,
  "Ġmandato": 6551,
  "Ġmandor": 8647,
  "Ġmangi": 9597,
  "Ġmangia": 3646,
  "Ġmangiare": 4462,
  "Ġmani": 1069,
  "Ġmaniera": 2377,
  "Ġmanif": 1900,
  "Ġmanifes": 6601,
  "Ġmanifesta": 2465,
  "Ġmanifestazione": 3472,
  "Ġmanifestazioni": 8766,
  "Ġmanifesto": 10980,
  "Ġmano": 1843,
  "Ġmanovra": 11738,
  "Ġmanten": 2187,
  "Ġmantenere": 3886,
  "Ġmantenimento": 7381,
  "Ġmanu": 3645,
  "Ġmanuale": 10827,
  "Ġmanutenzione": 4640,
  "Ġmappa": 6964,
  "Ġmar": 969,
  "Ġmarca": 8676,
  "Ġmarchi": 6566,
  "Ġmarchio": 4521,
  "Ġmarcia": 7304,
  "Ġmare": 2535,
  "Ġmari": 9501,
  "Ġmarito": 10048,
  "Ġmarket": 5977,
  "Ġmarketing": 9327,
  "ĠmartedÃ¬": 7626,
  "Ġmarzo": 2457,
  "Ġmas": 1645,
  "Ġmasch": 9187,
  "Ġmaschera": 11190,
  "Ġmaschi": 5510,
  "Ġmaschile": 8432,
  "Ġmassa": 3362,
  "Ġmassi": 1563,
  "Ġmassima": 3660,
  "Ġmassimo": 2417,
  "Ġmaster": 9691,
  "Ġmatch": 10696,
  "Ġmate": 8558,
  "Ġmater": 6503,
  "Ġmateria": 1512,
  "Ġmateriale": 3419,
  "Ġmateriali": 4110,
  "Ġmaterie": 8869,
  "Ġmatrimonio": 5463,
  "Ġmatt": 2582,
  "Ġmattina": 3474,
  "Ġmattino": 11024,
  "Ġmatura": 7553,
  "ĠmaÃ®tre": 10697,
  "Ġme": 489,
  "Ġmecc": 3549,
  "Ġmeccani": 5417,
  "Ġmeccanica": 8854,
  "Ġmeccanismo": 8025,
  "Ġmedesi": 5615,
  "Ġmedesima": 9321,
  "Ġmedesimo": 8597,
  "Ġmedi": 1110,
  "Ġmedia": 2004,
  "Ġmediante": 4107,
  "Ġmedica": 7634,
  "Ġmedici": 6375,
  "Ġmedicina": 3359,
  "Ġmedicinale": 9779,
  "Ġmedicinali": 6234,
  "Ġmedico": 3130,
  "Ġmedie": 6572,
  "Ġmedio": 3860,
  "Ġmega": 7876,
  "Ġmeglio": 1560,
  "Ġmemb": 3451,
  "Ġmembri": 5530,
  "Ġmembro": 6850,
  "Ġmemo": 3051,
  "Ġmemoria": 3775,
  "Ġmen": 721,
  "Ġmeno": 1245,
  "Ġmensile": 9096,
  "Ġmente": 4221,
  "Ġmentre": 1235,
  "Ġmer": 3534,
  "Ġmeravi": 3735,
  "Ġmeravigli": 5167,
  "Ġmeraviglioso": 11128,
  "Ġmerca": 1445,
  "Ġmercati": 5996,
  "Ġmercato": 1675,
  "ĠmercoledÃ¬": 5531,
  "Ġmeri": 2069,
  "Ġmeridi": 10327,
  "Ġmerita": 7992,
  "Ġmerito": 3769,
  "Ġmesco": 6086,
  "Ġmese": 1691,
  "Ġmesi": 1697,
  "Ġmessa": 1932,
  "Ġmessaggi": 6398,
  "Ġmessaggio": 3766,
  "Ġmessi": 5196,
  "Ġmesso": 3205,
  "Ġmesti": 11306,
  "Ġmet": 1285,
  "Ġmeta": 2635,
  "Ġmetaboli": 6224,
  "Ġmetabolismo": 6879,
  "Ġmetafo": 11812,
  "Ġmete": 7875,
  "Ġmeteo": 10759,
  "Ġmeto": 2560,
  "Ġmetodi": 7086,
  "Ġmetodo": 3370,
  "Ġmetri": 2945,
  "Ġmetro": 5197,
  "Ġmetropoli": 7427,
  "Ġmetropolitana": 9349,
  "Ġmette": 3535,
  "Ġmettendo": 7951,
  "Ġmetter": 4437,
  "Ġmettere": 2869,
  "Ġmettersi": 9808,
  "Ġmettono": 8302,
  "ĠmetÃł": 3483,
  "Ġmezz": 9544,
  "Ġmezza": 10758,
  "Ġmezzi": 4161,
  "Ġmezzo": 2430,
  "Ġmi": 475,
  "Ġmia": 1579,
  "Ġmicro": 4332,
  "Ġmie": 5776,
  "Ġmiei": 3214,
  "Ġmiele": 9536,
  "Ġmiglia": 5936,
  "Ġmigliaia": 7131,
  "Ġmiglio": 912,
  "Ġmiglior": 4410,
  "Ġmigliora": 4516,
  "Ġmiglioramento": 6865,
  "Ġmigliorare": 3175,
  "Ġmigliore": 2050,
  "Ġmigliori": 1984,
  "Ġmila": 4889,
  "Ġmilan": 10099,
  "Ġmilanese": 10504,
  "Ġmili": 1099,
  "Ġmiliardi": 2982,
  "Ġmiliardo": 8687,
  "Ġmilione": 11627,
  "Ġmilioni": 1940,
  "Ġmilitare": 7319,
  "Ġmilitari": 6374,
  "Ġmille": 5228,
  "Ġmilli": 6522,
  "Ġmillimetri": 8055,
  "Ġmin": 1177,
  "Ġmina": 4138,
  "Ġminacce": 10408,
  "Ġminaccia": 6860,
  "Ġminerale": 8295,
  "Ġminerali": 4264,
  "Ġmini": 1976,
  "Ġminima": 5404,
  "Ġminimi": 8736,
  "Ġminimo": 4366,
  "Ġminis": 2512,
  "Ġministeriale": 11805,
  "Ġministero": 7085,
  "Ġministro": 4371,
  "Ġmino": 3436,
  "Ġminore": 8396,
  "Ġminori": 6849,
  "Ġminuti": 1753,
  "Ġminuto": 7322,
  "Ġmio": 1254,
  "Ġmira": 6142,
  "Ġmis": 920,
  "Ġmisce": 9630,
  "Ġmisericordia": 4908,
  "Ġmissione": 5807,
  "Ġmisteri": 8277,
  "Ġmistero": 7620,
  "Ġmisura": 2376,
  "Ġmisure": 2942,
  "Ġmix": 5365,
  "Ġml": 8948,
  "Ġmm": 3837,
  "Ġmo": 482,
  "Ġmobile": 5939,
  "Ġmobili": 5102,
  "ĠmobilitÃł": 6746,
  "Ġmod": 1395,
  "Ġmoda": 1980,
  "ĠmodalitÃł": 2920,
  "Ġmodelli": 3879,
  "Ġmodello": 3060,
  "Ġmoder": 2935,
  "Ġmoderata": 10923,
  "Ġmoderati": 11674,
  "Ġmoderna": 8386,
  "Ġmoderne": 8387,
  "Ġmoderni": 9252,
  "Ġmoderno": 8385,
  "Ġmodi": 1696,
  "Ġmodifica": 3364,
  "Ġmodificare": 7352,
  "Ġmodifiche": 6814,
  "Ġmodo": 815,
  "Ġmodu": 6524,
  "Ġmodulo": 9342,
  "Ġmoglie": 7246,
  "Ġmol": 579,
  "Ġmole": 10103,
  "Ġmolta": 4896,
  "Ġmolte": 2238,
  "Ġmolteplici": 7997,
  "Ġmolti": 1536,
  "Ġmoltiplica": 10941,
  "Ġmoltissime": 11695,
  "Ġmolto": 701,
  "Ġmomenti": 4303,
  "Ġmomento": 1203,
  "Ġmon": 688,
  "Ġmondia": 2303,
  "Ġmondiale": 2782,
  "Ġmondiali": 7385,
  "Ġmondo": 919,
  "Ġmone": 5076,
  "Ġmoneta": 11924,
  "Ġmonete": 11925,
  "Ġmoni": 4667,
  "Ġmonito": 5171,
  "Ġmonitoraggio": 9827,
  "Ġmonitorare": 11129,
  "Ġmono": 3734,
  "Ġmontagna": 7905,
  "Ġmonte": 8241,
  "Ġmonu": 7009,
  "Ġmonumenti": 11171,
  "Ġmor": 3787,
  "Ġmorale": 6146,
  "Ġmorbi": 7728,
  "Ġmore": 10756,
  "Ġmorire": 10104,
  "Ġmorta": 11307,
  "Ġmorte": 2529,
  "Ġmorti": 7498,
  "Ġmorto": 8117,
  "Ġmos": 3338,
  "Ġmossa": 10377,
  "Ġmostra": 2230,
  "Ġmostrato": 7996,
  "Ġmostre": 11067,
  "Ġmotiva": 6145,
  "Ġmotivi": 3749,
  "Ġmotivo": 3349,
  "Ġmoto": 4796,
  "Ġmotore": 4088,
  "Ġmovimenti": 6147,
  "Ġmovimento": 3164,
  "Ġmq": 5739,
  "Ġmu": 2851,
  "Ġmuco": 5526,
  "Ġmul": 5194,
  "Ġmulti": 2575,
  "Ġmultinazionali": 9312,
  "Ġmultiplo": 8372,
  "Ġmuo": 3001,
  "Ġmuove": 8391,
  "Ġmuoversi": 9256,
  "Ġmura": 6694,
  "Ġmuro": 8116,
  "Ġmus": 2469,
  "Ġmuscolare": 6027,
  "Ġmuscoli": 10346,
  "Ġmuscolo": 11798,
  "Ġmuse": 4861,
  "Ġmusei": 7747,
  "Ġmuseo": 11916,
  "Ġmusi": 1963,
  "Ġmusica": 2568,
  "Ġmusicale": 7679,
  "Ġmusicali": 11808,
  "Ġmusici": 9710,
  "Ġmutazione": 11308,
  "Ġn": 288,
  "Ġna": 655,
  "Ġnapole": 10150,
  "Ġnar": 10614,
  "Ġnarra": 9973,
  "Ġnas": 1914,
  "Ġnasc": 7369,
  "Ġnasce": 4448,
  "Ġnascere": 11747,
  "Ġnascita": 6820,
  "Ġnascon": 8337,
  "Ġnaso": 10807,
  "Ġnata": 5957,
  "Ġnatali": 5958,
  "Ġnatalizio": 9840,
  "Ġnato": 4509,
  "Ġnatura": 1282,
  "Ġnaturale": 3418,
  "Ġnaturali": 4267,
  "Ġnaturalmente": 6380,
  "Ġnave": 8232,
  "Ġnavi": 3500,
  "Ġnavigare": 11856,
  "Ġnavigazione": 8398,
  "Ġnazionale": 2032,
  "Ġnazionali": 4094,
  "Ġnazione": 10806,
  "Ġne": 495,
  "Ġneanche": 6525,
  "Ġnec": 1000,
  "Ġnecessa": 1313,
  "Ġnecessari": 8703,
  "Ġnecessaria": 3658,
  "Ġnecessariamente": 10391,
  "Ġnecessarie": 5671,
  "Ġnecessario": 1992,
  "Ġnecessi": 2398,
  "ĠnecessitÃł": 2751,
  "Ġnega": 3804,
  "Ġnegativo": 8408,
  "Ġnegli": 1609,
  "Ġnego": 3452,
  "Ġnegozi": 5849,
  "Ġnegozio": 7721,
  "Ġnei": 805,
  "Ġnel": 373,
  "Ġnell": 860,
  "Ġnella": 556,
  "Ġnelle": 900,
  "Ġnello": 2701,
  "Ġnemmeno": 4698,
  "Ġneo": 6986,
  "Ġneppure": 9550,
  "Ġner": 10613,
  "Ġnera": 8121,
  "Ġnero": 4571,
  "Ġness": 1809,
  "Ġnessun": 5152,
  "Ġnessuna": 4629,
  "Ġnessuno": 2948,
  "Ġnet": 6474,
  "Ġnetta": 9972,
  "Ġnetwork": 8440,
  "Ġneu": 9546,
  "Ġneve": 9548,
  "Ġnew": 9547,
  "Ġnews": 9549,
  "Ġni": 2601,
  "Ġniente": 3824,
  "Ġnn": 11315,
  "Ġno": 563,
  "Ġnoi": 1234,
  "Ġnome": 1986,
  "Ġnomi": 3988,
  "Ġnomina": 4222,
  "Ġnominato": 8832,
  "Ġnon": 374,
  "ĠnonchÃ¨": 10039,
  "ĠnonchÃ©": 3247,
  "Ġnonostante": 3486,
  "Ġnor": 1345,
  "Ġnord": 6289,
  "Ġnorma": 1712,
  "Ġnormale": 4445,
  "Ġnormali": 8720,
  "Ġnormativa": 6003,
  "Ġnormative": 9192,
  "Ġnorme": 5674,
  "Ġnos": 599,
  "Ġnostra": 1111,
  "Ġnostre": 2522,
  "Ġnostri": 1673,
  "Ġnostro": 1005,
  "Ġnot": 10123,
  "Ġnota": 2861,
  "Ġnotare": 5373,
  "Ġnotato": 9572,
  "Ġnote": 2681,
  "Ġnotevole": 6838,
  "Ġnotevolmente": 10355,
  "Ġnoti": 3120,
  "Ġnotizia": 4596,
  "Ġnotizie": 5301,
  "Ġnoto": 3944,
  "Ġnotte": 2833,
  "Ġnottu": 8212,
  "Ġnottur": 11182,
  "Ġnove": 2587,
  "Ġnovembre": 3666,
  "ĠnovitÃł": 4014,
  "Ġnu": 2253,
  "Ġnucle": 8359,
  "Ġnulla": 2174,
  "Ġnum": 1008,
  "Ġnumer": 5131,
  "Ġnumeri": 6568,
  "Ġnumerica": 11603,
  "Ġnumero": 1265,
  "Ġnumerose": 5862,
  "Ġnumerosi": 4032,
  "Ġnuo": 597,
  "Ġnuova": 1064,
  "Ġnuovamente": 5274,
  "Ġnuove": 1896,
  "Ġnuovi": 1683,
  "Ġnuovo": 1114,
  "Ġnutri": 5293,
  "ĠnÃ©": 3070,
  "Ġo": 330,
  "Ġob": 6710,
  "Ġobbli": 2426,
  "Ġobbliga": 3369,
  "Ġobbligazioni": 10378,
  "Ġobblighi": 9743,
  "Ġobbligo": 11793,
  "Ġobiettivi": 4493,
  "Ġobiettivo": 4312,
  "Ġocc": 4574,
  "Ġoccasione": 3074,
  "Ġoccasioni": 6711,
  "Ġocchi": 3844,
  "Ġocchia": 7830,
  "Ġocchiali": 9353,
  "Ġocchio": 10646,
  "Ġocci": 5751,
  "Ġoccidentale": 7759,
  "Ġoccor": 11909,
  "Ġoccorre": 6440,
  "Ġoccu": 8967,
  "Ġoccup": 6954,
  "Ġoccupa": 3393,
  "Ġodier": 8968,
  "Ġof": 1706,
  "Ġoff": 1261,
  "Ġoffer": 2111,
  "Ġofferta": 6019,
  "Ġofferte": 3770,
  "Ġofferti": 8351,
  "Ġofferto": 10995,
  "Ġoffre": 2192,
  "Ġoffrendo": 7950,
  "Ġoffri": 7328,
  "Ġoffrire": 5136,
  "Ġoffrono": 5815,
  "Ġoggetti": 4143,
  "Ġoggetto": 3687,
  "Ġoggi": 1102,
  "Ġogni": 778,
  "Ġognuno": 5204,
  "Ġoli": 4973,
  "Ġolio": 4864,
  "Ġoltre": 1090,
  "Ġom": 3831,
  "Ġoma": 8486,
  "Ġomaggio": 9357,
  "Ġombre": 8411,
  "Ġomo": 11274,
  "Ġon": 1022,
  "Ġonde": 8679,
  "Ġoneri": 9129,
  "Ġonline": 1744,
  "Ġono": 6465,
  "Ġonore": 11161,
  "Ġop": 1558,
  "Ġoper": 5750,
  "Ġopera": 1169,
  "Ġoperare": 9660,
  "Ġoperativo": 5664,
  "Ġoperatori": 5989,
  "Ġoperazione": 6577,
  "Ġoperazioni": 4615,
  "Ġopere": 3229,
  "Ġopini": 6000,
  "Ġopinioni": 9328,
  "Ġopp": 1309,
  "Ġopport": 2718,
  "ĠopportunitÃł": 4282,
  "Ġopportuno": 6839,
  "Ġoppure": 2155,
  "Ġopzione": 11697,
  "Ġopzioni": 5032,
  "Ġor": 707,
  "Ġora": 1128,
  "Ġorale": 10230,
  "Ġorari": 8692,
  "Ġorario": 9652,
  "Ġordina": 3258,
  "Ġordinario": 11062,
  "Ġordine": 4172,
  "Ġordini": 7278,
  "Ġore": 1075,
  "Ġorg": 8641,
  "Ġorgani": 4097,
  "Ġorganizza": 1625,
  "Ġorganizzare": 6199,
  "Ġorganizzata": 7345,
  "Ġorganizzato": 7065,
  "Ġorganizzazione": 7966,
  "Ġorganizzazioni": 5680,
  "Ġori": 3392,
  "Ġorienta": 10380,
  "Ġorientamento": 11852,
  "Ġorig": 1834,
  "Ġorigina": 3965,
  "Ġoriginale": 3715,
  "Ġoriginali": 6240,
  "Ġorigine": 6395,
  "Ġorigini": 10302,
  "Ġorizz": 10379,
  "Ġormai": 2153,
  "Ġoro": 6953,
  "Ġorto": 6547,
  "Ġos": 881,
  "Ġoscura": 11578,
  "Ġospedale": 11579,
  "Ġospedali": 9116,
  "Ġospi": 2035,
  "Ġospita": 9217,
  "Ġospite": 10323,
  "Ġospiti": 4194,
  "Ġosse": 10853,
  "Ġosser": 2685,
  "Ġosserva": 4636,
  "Ġosservare": 11817,
  "Ġosservazioni": 9813,
  "Ġossi": 6562,
  "Ġossia": 7297,
  "Ġossigeno": 9344,
  "Ġosta": 5494,
  "Ġotta": 11354,
  "Ġotten": 1466,
  "Ġottenere": 2104,
  "Ġottenuti": 8710,
  "Ġottenuto": 5997,
  "Ġotti": 1707,
  "Ġottima": 4731,
  "Ġottimale": 11117,
  "Ġottimi": 4115,
  "Ġottimo": 4732,
  "Ġotto": 1833,
  "Ġottobre": 2105,
  "Ġout": 5584,
  "Ġoutlet": 9320,
  "Ġov": 2334,
  "Ġove": 10004,
  "Ġovunque": 8361,
  "Ġovvero": 3439,
  "Ġovviamente": 3326,
  "Ġp": 266,
  "Ġpa": 465,
  "Ġpacche": 4503,
  "Ġpacchetti": 8839,
  "Ġpacchetto": 6864,
  "Ġpace": 3803,
  "Ġpad": 4241,
  "Ġpadre": 4696,
  "Ġpadrone": 11104,
  "Ġpadroni": 8834,
  "Ġpaesa": 5775,
  "Ġpaesaggi": 8862,
  "Ġpaesaggio": 11146,
  "Ġpaese": 2397,
  "Ġpaesi": 2318,
  "Ġpag": 7240,
  "Ġpaga": 2662,
  "Ġpagamenti": 11029,
  "Ġpagamento": 3825,
  "Ġpagare": 4331,
  "Ġpagato": 10748,
  "Ġpagina": 2450,
  "Ġpagine": 3303,
  "Ġpaio": 4242,
  "Ġpal": 4062,
  "Ġpala": 10098,
  "Ġpalazzo": 9533,
  "Ġpalco": 8828,
  "Ġpale": 4888,
  "Ġpalestra": 9308,
  "Ġpali": 10589,
  "Ġpall": 5562,
  "Ġpalla": 5891,
  "Ġpallone": 9319,
  "Ġpalo": 10745,
  "Ġpan": 3680,
  "Ġpanchina": 11865,
  "Ġpancia": 9284,
  "Ġpane": 5331,
  "Ġpann": 8934,
  "Ġpanni": 7807,
  "Ġpanno": 8933,
  "Ġpanora": 3832,
  "Ġpanorama": 6051,
  "Ġpap": 10097,
  "Ġpapa": 7241,
  "Ġpar": 444,
  "Ġpara": 1659,
  "Ġparadi": 8321,
  "Ġparados": 10286,
  "Ġparall": 10954,
  "Ġparametri": 7349,
  "Ġparametro": 9692,
  "Ġparche": 4884,
  "Ġparcheggio": 6638,
  "Ġparchi": 9523,
  "Ġparco": 5770,
  "Ġpare": 2449,
  "Ġparere": 6135,
  "Ġparete": 9747,
  "Ġpari": 2257,
  "Ġparigi": 10747,
  "ĠparitÃł": 11778,
  "Ġparla": 2520,
  "Ġparlando": 4992,
  "Ġparlano": 9036,
  "Ġparlar": 8584,
  "Ġparlare": 2612,
  "Ġparlato": 5100,
  "Ġparliamo": 9524,
  "Ġparo": 1612,
  "Ġparola": 3470,
  "Ġparole": 2243,
  "Ġparro": 7236,
  "Ġparrocchia": 8878,
  "Ġparte": 628,
  "Ġpartecip": 3808,
  "Ġpartecipa": 2218,
  "Ġpartecipanti": 4945,
  "Ġpartecipare": 5408,
  "Ġpartecipato": 9734,
  "Ġpartecipazione": 3967,
  "Ġpartendo": 6737,
  "Ġpartenza": 5226,
  "Ġparti": 929,
  "Ġpartico": 1076,
  "Ġparticolar": 11621,
  "Ġparticolare": 1552,
  "Ġparticolari": 3874,
  "Ġparticolarmente": 3563,
  "Ġpartire": 2259,
  "Ġpartita": 3609,
  "Ġpartite": 4518,
  "Ġpartiti": 5496,
  "Ġpartito": 3755,
  "Ġpartner": 3746,
  "Ġpartnership": 11085,
  "Ġparto": 8180,
  "Ġpartono": 8585,
  "Ġparz": 8583,
  "Ġparziale": 9037,
  "Ġpas": 674,
  "Ġpass": 7903,
  "Ġpassa": 1033,
  "Ġpassaggi": 7939,
  "Ġpassaggio": 3758,
  "Ġpassando": 8238,
  "Ġpassare": 3177,
  "Ġpassata": 10216,
  "Ġpassate": 10217,
  "Ġpassati": 5982,
  "Ġpassato": 2747,
  "Ġpasse": 3257,
  "Ġpassegg": 4287,
  "Ġpasseggeri": 5712,
  "Ġpasseggero": 9803,
  "Ġpassi": 4020,
  "Ġpassione": 3949,
  "Ġpasso": 2938,
  "Ġpasta": 9085,
  "Ġpasti": 8636,
  "Ġpatch": 11461,
  "Ġpato": 4502,
  "Ġpatologia": 7742,
  "Ġpatologie": 9809,
  "Ġpatria": 10749,
  "Ġpatrimonio": 5473,
  "Ġpatto": 10746,
  "Ġpattu": 7870,
  "Ġpaura": 4243,
  "Ġpausa": 11460,
  "Ġpavimento": 7242,
  "Ġpazi": 2903,
  "Ġpaziente": 6229,
  "Ġpazienti": 4542,
  "Ġpc": 7485,
  "Ġpe": 1290,
  "Ġpec": 8701,
  "Ġpeccato": 10246,
  "Ġpecu": 9668,
  "Ġpeda": 9157,
  "Ġpeggio": 4438,
  "Ġpelle": 2653,
  "Ġpelli": 6925,
  "Ġpellicola": 10472,
  "Ġpen": 804,
  "Ġpena": 5890,
  "Ġpenale": 10185,
  "Ġpenet": 10841,
  "Ġpenisola": 11560,
  "Ġpenna": 9112,
  "Ġpensa": 3648,
  "Ġpensando": 10186,
  "Ġpensare": 2913,
  "Ġpensate": 9612,
  "Ġpensato": 3410,
  "Ġpensi": 2664,
  "Ġpensiero": 3774,
  "Ġpenso": 5488,
  "Ġpenti": 9420,
  "Ġpepe": 9158,
  "Ġper": 302,
  "Ġperaltro": 9986,
  "Ġperce": 9446,
  "Ġpercen": 4773,
  "Ġpercentuale": 5861,
  "Ġperch": 7819,
  "Ġperche": 10623,
  "ĠperchÃ¨": 2331,
  "ĠperchÃ©": 813,
  "ĠperciÃ²": 7183,
  "Ġpercor": 4141,
  "Ġpercorsi": 7415,
  "Ġpercorso": 2729,
  "Ġperde": 11331,
  "Ġperdere": 1946,
  "Ġperdita": 2196,
  "Ġperdite": 5744,
  "Ġperf": 1622,
  "Ġperfe": 9690,
  "Ġperfetta": 3361,
  "Ġperfettamente": 6623,
  "Ġperfetti": 11706,
  "Ġperfetto": 4444,
  "Ġperfino": 7661,
  "Ġperfor": 5743,
  "Ġperformance": 6875,
  "Ġperi": 4772,
  "Ġperico": 5449,
  "Ġpericol": 6445,
  "Ġpericolo": 4672,
  "Ġpericolosa": 11160,
  "Ġperiferi": 11915,
  "Ġperio": 1782,
  "Ġperiodi": 7977,
  "Ġperiodicamente": 11729,
  "Ġperiodo": 2075,
  "Ġperm": 10622,
  "Ġperman": 4774,
  "Ġpermanente": 9301,
  "Ġpermanenti": 10423,
  "Ġpermea": 11334,
  "Ġpermesso": 4967,
  "Ġpermet": 1573,
  "Ġpermette": 2872,
  "Ġpermettendo": 10278,
  "Ġpermetter": 9684,
  "Ġpermettere": 8315,
  "ĠpermetterÃł": 7063,
  "Ġpermettono": 5824,
  "Ġperple": 11333,
  "Ġpers": 605,
  "Ġperse": 6703,
  "Ġpersi": 8958,
  "Ġpersino": 8619,
  "Ġperso": 5082,
  "Ġpersona": 769,
  "Ġpersonaggi": 5255,
  "Ġpersonaggio": 6174,
  "Ġpersonale": 1730,
  "Ġpersonali": 3018,
  "ĠpersonalitÃł": 7912,
  "Ġpersonalizza": 3314,
  "Ġpersonalizzate": 7403,
  "Ġpersonalizzato": 9273,
  "Ġpersonalmente": 8219,
  "Ġpersone": 1077,
  "Ġpertanto": 4966,
  "Ġpertin": 11332,
  "ĠperÃ²": 1404,
  "Ġpes": 3200,
  "Ġpesante": 9770,
  "Ġpesanti": 8018,
  "Ġpesca": 11059,
  "Ġpesi": 10591,
  "Ġpeso": 1807,
  "Ġpetro": 8494,
  "Ġpetrolio": 12009,
  "Ġpetto": 10590,
  "Ġpezzi": 7330,
  "Ġpezzo": 8702,
  "Ġph": 10588,
  "Ġpi": 393,
  "Ġpia": 869,
  "Ġpiace": 2643,
  "Ġpiacere": 4176,
  "Ġpiacevole": 7088,
  "Ġpiaci": 6364,
  "Ġpiaciuto": 9845,
  "Ġpian": 8161,
  "Ġpiane": 4989,
  "Ġpianeta": 6058,
  "Ġpiani": 3800,
  "Ġpianificazione": 11873,
  "Ġpiano": 2101,
  "Ġpianta": 8564,
  "Ġpiante": 4583,
  "Ġpiastra": 9622,
  "Ġpiatta": 2500,
  "Ġpiattaforma": 3029,
  "Ġpiattaforme": 8369,
  "Ġpiatti": 10197,
  "Ġpiatto": 5972,
  "Ġpiazza": 2941,
  "Ġpiazze": 10852,
  "Ġpicco": 1092,
  "Ġpiccola": 3610,
  "Ġpiccole": 4433,
  "Ġpiccoli": 2619,
  "Ġpiccolo": 2289,
  "Ġpie": 6121,
  "Ġpiede": 5221,
  "Ġpiedi": 4156,
  "Ġpiena": 3251,
  "Ġpienamente": 8021,
  "Ġpieno": 4000,
  "Ġpiet": 4686,
  "Ġpietra": 6868,
  "Ġpietre": 10421,
  "Ġpilo": 6122,
  "Ġpilota": 9333,
  "Ġpio": 3530,
  "Ġpiogge": 10386,
  "Ġpioggia": 5850,
  "Ġpis": 3201,
  "Ġpiscina": 4637,
  "Ġpiscine": 11060,
  "Ġpista": 5435,
  "Ġpiu": 2474,
  "Ġpiuttosto": 4455,
  "Ġpizza": 10051,
  "Ġpizzi": 9016,
  "ĠpiÃ¹": 446,
  "Ġpla": 2173,
  "Ġplane": 7686,
  "Ġplastica": 6608,
  "Ġplu": 6685,
  "Ġpo": 400,
  "Ġpoca": 7559,
  "Ġpoch": 7224,
  "Ġpoche": 4235,
  "Ġpochi": 2166,
  "Ġpoco": 1467,
  "Ġpoe": 5762,
  "Ġpoesi": 8167,
  "Ġpoesia": 7762,
  "Ġpoesie": 8449,
  "Ġpoeta": 11420,
  "Ġpoi": 807,
  "ĠpoichÃ©": 3868,
  "Ġpoker": 7225,
  "Ġpol": 2310,
  "Ġpole": 6967,
  "Ġpoli": 924,
  "Ġpolitica": 1813,
  "Ġpolitiche": 3651,
  "Ġpolitici": 4517,
  "Ġpolitico": 3262,
  "Ġpolizia": 5015,
  "Ġpollici": 11010,
  "Ġpolvere": 6024,
  "Ġpom": 4215,
  "Ġpomeri": 4543,
  "Ġpomeriggio": 5169,
  "Ġpone": 7486,
  "Ġponte": 3237,
  "Ġponti": 6686,
  "Ġpopo": 1727,
  "Ġpopolare": 4275,
  "Ġpopolari": 7353,
  "Ġpopolazione": 4446,
  "Ġpopoli": 9018,
  "Ġpopolo": 6391,
  "Ġpopuli": 6508,
  "Ġpopulista": 10467,
  "Ġpor": 1029,
  "Ġporre": 9643,
  "Ġport": 7487,
  "Ġporta": 1270,
  "Ġportale": 11657,
  "Ġportali": 11609,
  "Ġportando": 8680,
  "Ġportano": 10243,
  "Ġportare": 2715,
  "Ġportata": 4823,
  "Ġportato": 3176,
  "Ġporte": 7311,
  "ĠporterÃł": 8681,
  "Ġporti": 5659,
  "Ġportiere": 8859,
  "Ġporto": 5733,
  "Ġpos": 487,
  "Ġposi": 1446,
  "Ġpositiva": 11683,
  "Ġpositivi": 9680,
  "Ġpositivo": 7957,
  "Ġposizione": 2462,
  "Ġposizioni": 10928,
  "Ġposs": 890,
  "Ġpossa": 2389,
  "Ġpossano": 5264,
  "Ġposse": 8596,
  "Ġpossedere": 11186,
  "Ġpossesso": 4907,
  "Ġpossi": 703,
  "Ġpossiamo": 3123,
  "Ġpossibile": 1050,
  "Ġpossibili": 3950,
  "ĠpossibilitÃł": 1718,
  "Ġpossiede": 7906,
  "Ġposso": 3116,
  "Ġpossono": 1007,
  "Ġpost": 3350,
  "Ġposta": 4412,
  "Ġposteriore": 11472,
  "Ġposti": 3215,
  "Ġposto": 1457,
  "Ġpotassi": 10056,
  "Ġpotassio": 11194,
  "Ġpote": 2058,
  "Ġpoten": 1979,
  "Ġpotente": 7373,
  "Ġpotenti": 10316,
  "Ġpotenza": 8343,
  "Ġpotenziale": 8737,
  "Ġpotenziali": 6014,
  "ĠpotenzialitÃł": 7765,
  "Ġpoter": 1695,
  "Ġpotere": 3491,
  "Ġpoteri": 7351,
  "Ġpotete": 4451,
  "Ġpoteva": 4926,
  "Ġpotevano": 10326,
  "Ġpotra": 2282,
  "Ġpotrai": 5044,
  "Ġpotranno": 3143,
  "Ġpotre": 1004,
  "Ġpotrebbe": 1504,
  "Ġpotrebbero": 3416,
  "Ġpotremmo": 11602,
  "Ġpotresti": 11601,
  "Ġpotrete": 4609,
  "ĠpotrÃł": 2932,
  "Ġpotuto": 7226,
  "Ġpover": 6323,
  "Ġpoveri": 6968,
  "ĠpovertÃł": 6881,
  "Ġpp": 9419,
  "Ġpra": 1386,
  "Ġpranzo": 9421,
  "Ġpratica": 2012,
  "Ġpraticamente": 6605,
  "Ġpratiche": 5994,
  "Ġpratici": 11673,
  "Ġpratico": 6194,
  "Ġpre": 376,
  "Ġpreca": 8553,
  "Ġprece": 1709,
  "Ġprecedente": 2874,
  "Ġprecedentemente": 8381,
  "Ġprecedenti": 3572,
  "Ġprecedenza": 9695,
  "Ġpreci": 1708,
  "Ġprecipi": 5149,
  "Ġprecipitazioni": 10436,
  "Ġprecisa": 6202,
  "Ġprecisamente": 11717,
  "Ġprecisione": 5512,
  "Ġpreciso": 7971,
  "Ġprede": 7844,
  "Ġpredi": 5215,
  "Ġpredisp": 9828,
  "Ġpref": 7214,
  "Ġprefer": 5351,
  "Ġpreferi": 3920,
  "Ġpreferito": 8826,
  "Ġpreghi": 6119,
  "Ġpreghiera": 6878,
  "Ġpregi": 9490,
  "Ġpreli": 9000,
  "Ġprem": 10040,
  "Ġpremi": 3248,
  "Ġpremia": 5759,
  "Ġpremier": 4286,
  "Ġpremio": 6317,
  "Ġpren": 1296,
  "Ġprende": 4034,
  "Ġprendere": 2343,
  "Ġprendersi": 10912,
  "Ġpreno": 1726,
  "Ġprenota": 3713,
  "Ġprenotare": 5829,
  "Ġprenotazione": 4274,
  "Ġprenotazioni": 10289,
  "Ġpreo": 3076,
  "Ġpreoccup": 8801,
  "Ġpreoccupa": 4051,
  "Ġpreoccupazioni": 8037,
  "Ġprepa": 2027,
  "Ġpreparare": 8740,
  "Ġpreparato": 10321,
  "Ġpreparazione": 5289,
  "Ġprepu": 6719,
  "Ġprepuzio": 7770,
  "Ġpres": 618,
  "Ġpresa": 6315,
  "Ġprescin": 8625,
  "Ġprescindere": 10491,
  "Ġprescri": 9582,
  "Ġprese": 6316,
  "Ġpresen": 2453,
  "Ġpresenta": 1574,
  "Ġpresentano": 7341,
  "Ġpresentare": 5520,
  "Ġpresentata": 6808,
  "Ġpresentato": 4936,
  "Ġpresentazione": 5676,
  "Ġpresente": 1698,
  "Ġpresenti": 2019,
  "Ġpresenza": 2020,
  "Ġpresi": 7843,
  "Ġpresid": 6501,
  "Ġpresidente": 1854,
  "Ġpreso": 4322,
  "Ġpressi": 6962,
  "Ġpressione": 3154,
  "Ġpresso": 1593,
  "Ġpresta": 2164,
  "Ġprestare": 11513,
  "Ġprestazione": 6403,
  "Ġprestazioni": 3663,
  "Ġpresti": 4405,
  "Ġprestigi": 8417,
  "Ġpresto": 5115,
  "Ġpresu": 9077,
  "Ġpresupp": 12018,
  "Ġpreval": 3853,
  "Ġprevalentemente": 6432,
  "Ġpreve": 2137,
  "Ġprevede": 2845,
  "Ġprevedono": 9726,
  "Ġpreven": 10686,
  "Ġprevenire": 7845,
  "Ġpreventi": 5216,
  "Ġpreventivo": 10439,
  "Ġprevenzione": 7215,
  "Ġprevi": 1300,
  "Ġprevisione": 6801,
  "Ġprevisioni": 7050,
  "Ġprevista": 5505,
  "Ġpreviste": 5669,
  "Ġprevisti": 5279,
  "Ġprevisto": 2870,
  "Ġpreziosi": 7846,
  "Ġprezioso": 9491,
  "Ġprezzi": 2894,
  "Ġprezzo": 1845,
  "Ġpri": 511,
  "Ġprima": 681,
  "Ġprimavera": 4513,
  "Ġprime": 2860,
  "Ġprimi": 2119,
  "Ġprimis": 9556,
  "Ġprimo": 1028,
  "Ġprin": 1145,
  "Ġprincip": 1721,
  "Ġprincipale": 3023,
  "Ġprincipali": 2947,
  "Ġprincipalmente": 4733,
  "Ġprincipi": 4434,
  "Ġprincipio": 5150,
  "Ġprio": 5561,
  "ĠprioritÃł": 7433,
  "Ġprivacy": 6749,
  "Ġprivata": 6336,
  "Ġprivate": 9049,
  "Ġprivati": 3938,
  "Ġprivato": 5941,
  "Ġprivile": 6987,
  "Ġprivo": 8196,
  "Ġpro": 341,
  "Ġproba": 2634,
  "Ġprobabile": 11027,
  "ĠprobabilitÃł": 8775,
  "Ġprobabilmente": 3772,
  "Ġproble": 871,
  "Ġproblema": 1224,
  "Ġproblematica": 11644,
  "Ġproblematiche": 6379,
  "Ġproblemi": 1639,
  "Ġproc": 1668,
  "Ġproce": 1956,
  "Ġprocedere": 7370,
  "Ġprocedura": 6207,
  "Ġprocedure": 4365,
  "Ġprocessi": 5285,
  "Ġprocesso": 2244,
  "Ġprocura": 9473,
  "Ġprodo": 837,
  "Ġprodotta": 10846,
  "Ġprodotti": 1207,
  "Ġprodotto": 1596,
  "Ġprodu": 1058,
  "Ġproduce": 7038,
  "Ġprodurre": 5662,
  "Ġproduttive": 9136,
  "Ġproduttore": 7632,
  "Ġproduttori": 5273,
  "Ġproduzione": 2168,
  "Ġproduzioni": 9135,
  "Ġprof": 942,
  "Ġprofessi": 1582,
  "Ġprofessionale": 3512,
  "Ġprofessionali": 7343,
  "ĠprofessionalitÃł": 8717,
  "Ġprofessione": 10863,
  "Ġprofessionista": 6389,
  "Ġprofessionisti": 4191,
  "Ġprofessor": 11589,
  "Ġprofi": 2966,
  "Ġprofili": 8791,
  "Ġprofilo": 6841,
  "Ġprofitto": 10368,
  "Ġprofonda": 6565,
  "Ġprofondamente": 11163,
  "Ġprofondi": 5269,
  "ĠprofonditÃł": 6444,
  "Ġprofondo": 8278,
  "Ġprofu": 5652,
  "Ġprofumi": 8673,
  "Ġprofumo": 8051,
  "Ġprog": 937,
  "Ġprogetta": 7927,
  "Ġprogettato": 9632,
  "Ġprogettazione": 11996,
  "Ġprogetti": 3357,
  "Ġprogetto": 1370,
  "Ġprogra": 1170,
  "Ġprogramma": 1416,
  "Ġprogrammazione": 6196,
  "Ġprogrammi": 3506,
  "Ġprogressi": 4606,
  "Ġprogressivo": 11911,
  "Ġproi": 7201,
  "Ġproietta": 11971,
  "Ġprolun": 9474,
  "Ġprom": 2178,
  "Ġpromet": 7202,
  "Ġpromo": 2765,
  "Ġpromossa": 11768,
  "Ġpromozione": 4458,
  "Ġpromozioni": 10359,
  "Ġpromuo": 3573,
  "Ġpromuovere": 5308,
  "Ġpron": 1913,
  "Ġpronostici": 7368,
  "Ġpronta": 7678,
  "Ġprontamente": 10312,
  "Ġpronti": 9705,
  "Ġpronto": 4922,
  "Ġpronuncia": 8336,
  "Ġprop": 544,
  "Ġpropa": 10661,
  "Ġpropone": 4799,
  "Ġpropor": 8206,
  "Ġproporre": 7577,
  "Ġproposi": 6714,
  "Ġproposito": 7769,
  "Ġproposta": 4594,
  "Ġproposte": 5234,
  "Ġproposto": 7256,
  "Ġpropri": 1306,
  "Ġpropria": 1660,
  "Ġproprie": 2410,
  "Ġproprietari": 10343,
  "Ġproprietario": 9229,
  "ĠproprietÃł": 2154,
  "Ġproprio": 872,
  "Ġprose": 3394,
  "Ġprosegue": 7404,
  "Ġprosegui": 9781,
  "Ġproseguire": 9278,
  "Ġprosp": 4147,
  "Ġprospettiva": 7119,
  "Ġprossima": 4782,
  "Ġprossime": 10662,
  "Ġprossimi": 3848,
  "Ġprossimo": 2967,
  "Ġprotag": 2697,
  "Ġprotagonista": 4744,
  "Ġprotagonisti": 5297,
  "Ġprote": 1409,
  "Ġprotegg": 10260,
  "Ġproteggere": 7336,
  "Ġproteine": 8309,
  "Ġprotezione": 3265,
  "Ġprotezioni": 10924,
  "Ġproto": 7528,
  "Ġprotocollo": 11981,
  "Ġprov": 2493,
  "Ġprova": 2385,
  "Ġprovare": 5589,
  "Ġprovato": 3847,
  "Ġprove": 8536,
  "Ġproveni": 3208,
  "Ġproveniente": 8808,
  "Ġprovenienti": 4745,
  "Ġprovenire": 11374,
  "Ġprovin": 1923,
  "Ġprovincia": 2875,
  "Ġprovinciale": 4536,
  "Ġprovo": 3043,
  "Ġprovoca": 8798,
  "Ġprovocare": 11835,
  "Ġprovve": 8004,
  "Ġprovvedere": 11803,
  "Ġprovvedi": 7084,
  "Ġprovvedimenti": 10476,
  "Ġprovviso": 11802,
  "Ġpru": 7169,
  "Ġpsi": 3732,
  "Ġpsico": 5534,
  "Ġpsicolo": 8406,
  "Ġpsicologia": 11183,
  "Ġpsicologico": 11938,
  "Ġpu": 498,
  "Ġpubbli": 791,
  "Ġpubblica": 1827,
  "Ġpubblicamente": 11737,
  "Ġpubblicare": 10837,
  "Ġpubblicata": 10300,
  "Ġpubblicate": 7979,
  "Ġpubblicati": 7669,
  "Ġpubblicato": 4259,
  "Ġpubblicazione": 8263,
  "Ġpubbliche": 5641,
  "Ġpubblici": 4424,
  "Ġpubblicita": 6361,
  "Ġpubblico": 1719,
  "Ġpul": 5330,
  "Ġpuli": 2215,
  "Ġpulire": 11001,
  "Ġpulita": 11771,
  "Ġpulito": 11002,
  "Ġpulizia": 4738,
  "Ġpulizie": 8752,
  "Ġpulsante": 7754,
  "Ġpun": 764,
  "Ġpuni": 7171,
  "Ġpunizione": 11172,
  "Ġpunta": 4713,
  "Ġpuntata": 7606,
  "Ġpuntate": 10174,
  "Ġpunte": 6554,
  "Ġpunteggio": 9854,
  "Ġpunti": 2061,
  "Ġpunto": 1201,
  "Ġpuo": 5732,
  "Ġpuoi": 2067,
  "Ġpur": 1966,
  "Ġpure": 4008,
  "Ġpurtroppo": 4449,
  "ĠpuÃ²": 673,
  "ĠpÃ²": 7170,
  "Ġq": 10575,
  "Ġqu": 321,
  "Ġqua": 1358,
  "Ġquad": 2577,
  "Ġquadri": 11023,
  "Ġquadro": 4198,
  "Ġqual": 691,
  "Ġqualc": 1482,
  "Ġqualche": 1299,
  "Ġqualcosa": 1911,
  "Ġqualcuno": 4272,
  "Ġquale": 1199,
  "Ġquali": 788,
  "Ġqualifica": 8660,
  "ĠqualitÃł": 1687,
  "Ġqualora": 7054,
  "Ġqualsiasi": 1631,
  "Ġqualunque": 5793,
  "Ġquando": 843,
  "Ġquante": 10643,
  "Ġquanti": 2198,
  "ĠquantitÃł": 2952,
  "Ġquanto": 823,
  "Ġquaran": 10252,
  "Ġquarti": 4228,
  "Ġquartiere": 8039,
  "Ġquartieri": 11103,
  "Ġquarto": 5749,
  "Ġquasi": 1689,
  "Ġquattro": 2163,
  "Ġquegli": 9998,
  "Ġquei": 4311,
  "Ġquel": 524,
  "Ġquell": 4701,
  "Ġquella": 975,
  "Ġquelle": 1686,
  "Ġquelli": 1648,
  "Ġquello": 873,
  "Ġques": 419,
  "Ġquest": 1835,
  "Ġquesta": 692,
  "Ġqueste": 1463,
  "Ġquesti": 883,
  "Ġquestione": 2483,
  "Ġquestioni": 4604,
  "Ġquesto": 539,
  "Ġqui": 1474,
  "Ġquindi": 905,
  "Ġquinta": 9997,
  "Ġquinto": 8135,
  "Ġquo": 1705,
  "Ġquota": 4624,
  "Ġquote": 11716,
  "Ġquotidi": 2463,
  "Ġquotidiana": 4634,
  "Ġquotidianamente": 10418,
  "Ġquotidiani": 11018,
  "Ġquotidiano": 6026,
  "Ġr": 1213,
  "Ġra": 479,
  "Ġracc": 1710,
  "Ġracchi": 9539,
  "Ġracco": 4411,
  "Ġraccoglie": 10410,
  "Ġraccogliere": 7741,
  "Ġraccol": 2388,
  "Ġraccolta": 3269,
  "Ġraccolti": 11791,
  "Ġraccolto": 10342,
  "Ġraccomanda": 6815,
  "Ġraccon": 2666,
  "Ġracconta": 4918,
  "Ġraccontare": 6225,
  "Ġracconto": 5522,
  "Ġraddo": 11466,
  "Ġradica": 6523,
  "Ġradio": 7244,
  "Ġraff": 3050,
  "Ġraffor": 5414,
  "Ġrafforza": 11135,
  "Ġrafforzare": 10445,
  "Ġraffre": 8799,
  "Ġraffreddo": 12016,
  "Ġraga": 1863,
  "Ġragazza": 7672,
  "Ġragazze": 10305,
  "Ġragazzi": 2949,
  "Ġragazzo": 7983,
  "Ġraggiun": 1551,
  "Ġraggiunge": 9683,
  "Ġraggiungere": 2843,
  "Ġraggiunto": 5031,
  "Ġragi": 10754,
  "Ġragione": 3495,
  "Ġragioni": 5938,
  "Ġrall": 8193,
  "Ġram": 9538,
  "Ġran": 6276,
  "Ġrapi": 2559,
  "Ġrapida": 3515,
  "Ġrapidamente": 5307,
  "Ġrapido": 11022,
  "Ġrapp": 899,
  "Ġrapporti": 3608,
  "Ġrapporto": 2123,
  "Ġrappres": 1334,
  "Ġrappresen": 2344,
  "Ġrappresenta": 2063,
  "Ġrappresentano": 6400,
  "Ġrappresentante": 11784,
  "Ġrappresentanti": 8001,
  "Ġrappresentanza": 7082,
  "Ġrappresentare": 7081,
  "Ġrappresentato": 9739,
  "Ġrappresentazione": 11761,
  "Ġraramente": 7245,
  "Ġrassegna": 11467,
  "Ġrazza": 11465,
  "Ġrazzi": 10755,
  "Ġre": 380,
  "Ġrea": 6319,
  "Ġreal": 1741,
  "Ġreale": 3591,
  "Ġreali": 3590,
  "Ġrealizza": 1277,
  "Ġrealizzare": 3959,
  "Ġrealizzata": 5667,
  "Ġrealizzate": 7645,
  "Ġrealizzati": 8700,
  "Ġrealizzato": 3707,
  "Ġrealizzazione": 4188,
  "Ġrealmente": 6720,
  "ĠrealtÃł": 1815,
  "Ġreazione": 9004,
  "Ġrec": 11404,
  "Ġrecen": 3540,
  "Ġrecensioni": 4461,
  "Ġrecente": 2661,
  "Ġrecentemente": 8375,
  "Ġrecenti": 6502,
  "Ġrecip": 7216,
  "Ġrecipro": 7445,
  "Ġrecord": 5352,
  "Ġrecu": 2315,
  "Ġrecupera": 3888,
  "Ġrecuperare": 7731,
  "Ġrecuperata": 11876,
  "Ġrecupero": 4370,
  "Ġreddi": 5218,
  "Ġreddito": 7125,
  "Ġrefer": 8157,
  "Ġrega": 2895,
  "Ġregalare": 9758,
  "Ġregalo": 6040,
  "Ġregi": 861,
  "Ġregia": 8555,
  "Ġregime": 5971,
  "Ġregionale": 2219,
  "Ġregionali": 6781,
  "Ġregione": 3317,
  "Ġregioni": 6780,
  "Ġregista": 5383,
  "Ġregisti": 11573,
  "Ġregistra": 2272,
  "Ġregistrare": 8756,
  "Ġregistrato": 7691,
  "Ġregistrazione": 8360,
  "Ġregistro": 5493,
  "Ġregno": 10043,
  "Ġrego": 1539,
  "Ġregola": 3267,
  "Ġregolamento": 9272,
  "Ġregolare": 7062,
  "Ġregolarmente": 6589,
  "Ġregole": 4443,
  "Ġrein": 10041,
  "Ġrela": 1359,
  "Ġrelativa": 5280,
  "Ġrelativamente": 10253,
  "Ġrelative": 4913,
  "Ġrelativi": 4825,
  "Ġrelativo": 5818,
  "Ġrelax": 9671,
  "Ġrelazione": 3249,
  "Ġrelazioni": 7334,
  "Ġrele": 10689,
  "Ġreli": 3155,
  "Ġreligi": 4374,
  "Ġreligione": 9769,
  "Ġreligioso": 9298,
  "Ġren": 1276,
  "Ġrende": 3134,
  "Ġrendendo": 11659,
  "Ġrender": 6799,
  "Ġrendere": 3024,
  "Ġrendono": 7329,
  "Ġrep": 3344,
  "Ġreparto": 9494,
  "Ġreper": 10042,
  "Ġreport": 11851,
  "Ġrepubbli": 7217,
  "Ġrepubblica": 10690,
  "Ġrepubblicano": 11972,
  "Ġres": 2970,
  "Ġresa": 9492,
  "Ġresi": 3044,
  "Ġresid": 3077,
  "Ġresidenti": 6044,
  "Ġresidenza": 7714,
  "Ġresistenza": 6621,
  "Ġresistere": 11048,
  "Ġreso": 4983,
  "Ġresp": 8156,
  "Ġrespi": 4079,
  "Ġrespiratorie": 11100,
  "Ġresponsa": 2057,
  "Ġresponsabile": 5040,
  "Ġresponsabili": 6015,
  "ĠresponsabilitÃł": 3618,
  "Ġresta": 2827,
  "Ġrestano": 8784,
  "Ġrestare": 8792,
  "Ġrestitu": 6721,
  "Ġrestitui": 8556,
  "Ġresto": 3487,
  "Ġrestri": 11046,
  "Ġrete": 2581,
  "Ġreti": 5760,
  "Ġretrib": 9003,
  "Ġretro": 7847,
  "Ġretta": 9493,
  "Ġretti": 9002,
  "Ġri": 328,
  "Ġria": 6951,
  "Ġriass": 10001,
  "Ġrib": 5905,
  "Ġriba": 6486,
  "Ġribelli": 11948,
  "Ġric": 808,
  "Ġrica": 2732,
  "Ġricarica": 7397,
  "Ġricca": 6307,
  "Ġricche": 11562,
  "Ġricchezza": 7610,
  "Ġricchi": 7291,
  "Ġricco": 5345,
  "Ġrice": 1783,
  "Ġricer": 5643,
  "Ġricerca": 1206,
  "Ġricercatore": 11643,
  "Ġricercatori": 7046,
  "Ġricerche": 6244,
  "Ġricetta": 7020,
  "Ġricette": 10187,
  "Ġricev": 4044,
  "Ġriceve": 10971,
  "Ġricevere": 4829,
  "ĠriceverÃł": 11730,
  "Ġricevuto": 6435,
  "Ġrichi": 1074,
  "Ġrichia": 5454,
  "Ġrichied": 5663,
  "Ġrichiede": 4822,
  "Ġrichiedere": 7633,
  "Ġrichiedono": 9323,
  "Ġrichiesta": 2241,
  "Ġrichieste": 4181,
  "Ġrichiesti": 9141,
  "Ġrichiesto": 5389,
  "Ġricic": 8139,
  "Ġrico": 3796,
  "Ġricom": 6557,
  "Ġricon": 1860,
  "Ġriconos": 2263,
  "Ġriconoscere": 9735,
  "Ġriconosci": 3142,
  "Ġriconoscimento": 8393,
  "Ġriconosciuta": 11840,
  "Ġriconosciuto": 9768,
  "Ġricoperto": 11088,
  "Ġricor": 1352,
  "Ġricorda": 6382,
  "Ġricordare": 7052,
  "Ġricordato": 7954,
  "Ġricordi": 8705,
  "Ġricordo": 4528,
  "Ġricorre": 11666,
  "Ġricorso": 9669,
  "Ġricos": 4811,
  "Ġricostr": 9305,
  "Ġricostruzione": 9306,
  "Ġricre": 11561,
  "Ġridi": 9462,
  "Ġridotta": 9464,
  "Ġridotto": 8528,
  "Ġridu": 2015,
  "Ġridurre": 3717,
  "Ġriduzione": 4924,
  "Ġrie": 5453,
  "Ġriempi": 8431,
  "Ġrientra": 4779,
  "Ġrientro": 11353,
  "Ġries": 3042,
  "Ġriesce": 4049,
  "Ġriescono": 9764,
  "Ġrievo": 9463,
  "Ġrif": 1886,
  "Ġrifer": 5455,
  "Ġriferi": 1749,
  "Ġriferimenti": 9696,
  "Ġriferimento": 2401,
  "Ġriferisce": 9830,
  "Ġriferito": 7067,
  "Ġrifi": 2891,
  "Ġrifiuta": 10365,
  "Ġrifiuti": 4459,
  "Ġrifle": 2222,
  "Ġriflessione": 5043,
  "Ġriflessioni": 7995,
  "Ġriflettere": 6610,
  "Ġriforma": 6100,
  "Ġrifu": 11744,
  "Ġrighe": 10000,
  "Ġrigi": 5583,
  "Ġrigo": 4573,
  "Ġrigoro": 7122,
  "Ġriguar": 1340,
  "Ġriguard": 6803,
  "Ġriguarda": 2206,
  "Ġriguardano": 7648,
  "Ġriguardante": 11167,
  "Ġriguardanti": 11967,
  "Ġriguardo": 4189,
  "Ġrila": 2556,
  "Ġrilan": 5906,
  "Ġrilascia": 4743,
  "Ġrilasciato": 9815,
  "Ġrilascio": 10350,
  "Ġrilass": 8769,
  "Ġrile": 2177,
  "Ġrileva": 7077,
  "Ġrilevante": 7687,
  "Ġrilevanti": 9220,
  "Ġrilevanza": 10997,
  "Ġrilievo": 9465,
  "Ġrim": 5203,
  "Ġrima": 3004,
  "Ġriman": 2733,
  "Ġrimane": 3073,
  "Ġrimanere": 5412,
  "Ġrimangono": 10358,
  "Ġrimar": 8527,
  "Ġrimasta": 7712,
  "Ġrimasti": 8392,
  "Ġrimasto": 6231,
  "Ġrimbor": 6952,
  "Ġrimborso": 10473,
  "Ġrimetter": 10645,
  "Ġrimuovere": 10438,
  "Ġrin": 1570,
  "Ġrinfres": 11699,
  "Ġringra": 5277,
  "Ġrinno": 7963,
  "Ġrinnova": 6388,
  "Ġrintra": 11698,
  "Ġrinuncia": 6387,
  "Ġrinunciare": 9847,
  "Ġrip": 1046,
  "Ġripa": 4675,
  "Ġriparti": 5388,
  "Ġripartire": 8429,
  "Ġripe": 6709,
  "Ġriper": 11351,
  "Ġripet": 7313,
  "Ġripeti": 11962,
  "Ġriporta": 3703,
  "Ġriportare": 11618,
  "Ġriportata": 11084,
  "Ġriportate": 11870,
  "Ġriportati": 11869,
  "Ġriportato": 7631,
  "Ġriposo": 7036,
  "Ġripre": 3686,
  "Ġripren": 5387,
  "Ġriprendere": 11134,
  "Ġripresa": 6627,
  "Ġriprese": 8027,
  "Ġripri": 7193,
  "Ġripristinare": 9864,
  "Ġripro": 3562,
  "Ġriproduzione": 9786,
  "Ġris": 598,
  "Ġrisal": 7593,
  "Ġrisale": 11352,
  "Ġrisali": 10003,
  "Ġrisarci": 11504,
  "Ġriscal": 7263,
  "Ġriscaldamento": 11973,
  "Ġrischi": 4343,
  "Ġrischia": 4899,
  "Ġrischio": 2432,
  "Ġrisco": 11503,
  "Ġriser": 7262,
  "Ġriserva": 3256,
  "Ġriservata": 9270,
  "Ġriservatezza": 9774,
  "Ġrisie": 7519,
  "Ġrisiede": 9351,
  "Ġriso": 2425,
  "Ġrisol": 3423,
  "Ġrisolto": 11072,
  "Ġrisoluzione": 7696,
  "Ġrisolvere": 6235,
  "Ġrisorse": 2834,
  "Ġrisp": 709,
  "Ġrispar": 3606,
  "Ġrisparmia": 6236,
  "Ġrisparmiare": 6880,
  "Ġrisparmio": 7724,
  "Ġrispe": 11537,
  "Ġrispetta": 10161,
  "Ġrispettare": 7279,
  "Ġrispetti": 5637,
  "Ġrispettivamente": 8858,
  "Ġrispetto": 1223,
  "Ġrispon": 2709,
  "Ġrisponde": 10356,
  "Ġrispondere": 4373,
  "Ġrisposta": 3016,
  "Ġrisposte": 5485,
  "Ġrisposto": 9093,
  "Ġrista": 7829,
  "Ġristabili": 11992,
  "Ġristo": 2906,
  "Ġristorante": 6041,
  "Ġristoranti": 5528,
  "Ġristruttura": 5628,
  "Ġristrutturazione": 7128,
  "Ġrisul": 1191,
  "Ġrisulta": 3465,
  "Ġrisultano": 8298,
  "Ġrisultati": 2545,
  "Ġrisultato": 2841,
  "Ġrit": 6099,
  "Ġritar": 6487,
  "Ġritardo": 8868,
  "Ġriten": 2763,
  "Ġritenuta": 11821,
  "Ġritenuto": 11036,
  "Ġriti": 4971,
  "Ġritiene": 10002,
  "Ġritiro": 10429,
  "Ġritmi": 11949,
  "Ġritmo": 9332,
  "Ġrito": 11350,
  "Ġritor": 7194,
  "Ġritorno": 3587,
  "Ġritra": 7828,
  "Ġritro": 2632,
  "Ġritrova": 9754,
  "Ġritrovare": 8374,
  "Ġriuni": 4972,
  "Ġriunione": 11922,
  "Ġrius": 8138,
  "Ġriusci": 2133,
  "Ġriuscire": 6213,
  "Ġriuscita": 6488,
  "Ġriusciti": 7684,
  "Ġriuscito": 5291,
  "Ġrive": 3005,
  "Ġrivela": 7713,
  "Ġriven": 6708,
  "Ġrivendi": 10470,
  "Ġrivi": 8137,
  "Ġrivista": 8966,
  "Ġrivol": 1738,
  "Ġrivolta": 6597,
  "Ġrivolti": 10960,
  "Ġrivolto": 10291,
  "Ġrivolu": 7665,
  "Ġrivoluzione": 5684,
  "Ġro": 793,
  "Ġrobot": 10181,
  "Ġrocce": 8264,
  "Ġroman": 4349,
  "Ġromanti": 8265,
  "Ġromanzo": 6055,
  "Ġrompi": 11552,
  "Ġrompighiaccio": 12041,
  "Ġrosa": 5642,
  "Ġrossa": 11553,
  "Ġrosso": 4905,
  "Ġrotazione": 10180,
  "Ġrotta": 7914,
  "Ġrottura": 9607,
  "Ġrov": 7289,
  "Ġroves": 10838,
  "Ġru": 2552,
  "Ġrub": 9240,
  "Ġrulli": 9150,
  "Ġrullo": 8299,
  "Ġrumore": 10349,
  "Ġruo": 2085,
  "Ġruolo": 2647,
  "Ġruote": 9721,
  "Ġrus": 4912,
  "Ġrusso": 11120,
  "Ġs": 265,
  "Ġsa": 581,
  "Ġsabato": 3306,
  "Ġsabbia": 6535,
  "Ġsacco": 8613,
  "Ġsacer": 8215,
  "Ġsacerdo": 8450,
  "Ġsacri": 6159,
  "Ġsai": 9574,
  "Ġsal": 972,
  "Ġsala": 3172,
  "Ġsalario": 9263,
  "Ġsaldi": 10870,
  "Ġsaldo": 9636,
  "Ġsale": 3199,
  "Ġsali": 3731,
  "Ġsalire": 8405,
  "Ġsalone": 9124,
  "Ġsaltare": 9637,
  "Ġsalto": 10207,
  "Ġsalute": 3126,
  "Ġsalva": 5385,
  "Ġsalvare": 9125,
  "Ġsalvata": 9126,
  "Ġsalvo": 7305,
  "Ġsan": 1644,
  "Ġsana": 8108,
  "Ġsangu": 9185,
  "Ġsangue": 2986,
  "Ġsangui": 9186,
  "Ġsani": 3784,
  "Ġsanitaria": 11872,
  "Ġsanno": 7484,
  "Ġsano": 10583,
  "Ġsanto": 11282,
  "Ġsanzione": 9184,
  "Ġsap": 1801,
  "Ġsape": 6341,
  "Ġsaper": 6534,
  "Ġsapere": 2346,
  "Ġsapori": 9070,
  "Ġsappiamo": 6536,
  "Ġsaputo": 7978,
  "Ġsar": 8490,
  "Ġsaranno": 1448,
  "Ġsare": 1229,
  "Ġsarebbe": 1651,
  "Ġsarebbero": 4187,
  "Ġsarei": 9151,
  "Ġsarete": 11646,
  "ĠsarÃł": 845,
  "Ġsatelli": 4801,
  "Ġsatellite": 8422,
  "Ġsauna": 8614,
  "Ġsb": 5889,
  "Ġsba": 3582,
  "Ġsbagliato": 7407,
  "Ġsc": 534,
  "Ġsca": 857,
  "Ġscadenza": 10850,
  "Ġscal": 10849,
  "Ġscala": 4715,
  "Ġscambi": 7021,
  "Ġscambia": 9621,
  "Ġscambio": 9862,
  "Ġscanda": 9564,
  "Ġscar": 3174,
  "Ġscarica": 8273,
  "Ġscaricare": 5647,
  "Ġscarico": 11571,
  "Ġscarpe": 6426,
  "Ġscattato": 11572,
  "Ġscatto": 11570,
  "Ġsce": 2093,
  "Ġscegli": 6823,
  "Ġsceglie": 9722,
  "Ġscegliere": 3063,
  "Ġscel": 1301,
  "Ġscelta": 1910,
  "Ġscelte": 4035,
  "Ġscelto": 5023,
  "Ġscen": 9563,
  "Ġscena": 2937,
  "Ġscenari": 11833,
  "Ġscenario": 10367,
  "Ġscende": 10773,
  "Ġscendere": 7883,
  "Ġscene": 7882,
  "Ġsche": 3148,
  "Ġscheda": 6233,
  "Ġschede": 9262,
  "Ġschema": 11057,
  "Ġscher": 3104,
  "Ġschermo": 3971,
  "Ġschi": 3337,
  "Ġschia": 6924,
  "Ġschiera": 11066,
  "Ġsci": 1858,
  "Ġscia": 7168,
  "Ġscienti": 3764,
  "Ġscientifica": 8407,
  "Ġscientifiche": 9790,
  "Ġscientifico": 11871,
  "Ġscienza": 7671,
  "Ġscienzia": 11739,
  "Ġscio": 5560,
  "Ġsciogliere": 10449,
  "Ġsco": 916,
  "Ġscola": 3260,
  "Ġscolastica": 11063,
  "Ġscolastici": 9271,
  "Ġscolastico": 7718,
  "Ġscom": 3940,
  "Ġscommesse": 8035,
  "Ġscon": 1526,
  "Ġsconfi": 4530,
  "Ġsconfitta": 9811,
  "Ġsconosci": 10274,
  "Ġscontato": 8314,
  "Ġsconti": 9176,
  "Ġsconto": 7657,
  "Ġscontro": 10939,
  "Ġscoper": 2711,
  "Ġscoperta": 4837,
  "Ġscoperte": 11819,
  "Ġscoperto": 6035,
  "Ġscopi": 7925,
  "Ġscopo": 3459,
  "Ġscopri": 7023,
  "Ġscoprire": 2838,
  "Ġscor": 1586,
  "Ġscorsa": 7344,
  "Ġscorsi": 8317,
  "Ġscorso": 2418,
  "Ġscreen": 9565,
  "Ġscri": 1059,
  "Ġscritta": 9137,
  "Ġscritte": 11620,
  "Ġscritto": 2458,
  "Ġscrittore": 7941,
  "Ġscrittura": 8288,
  "Ġscrive": 4720,
  "Ġscrivere": 5133,
  "Ġscu": 3103,
  "Ġscuola": 2808,
  "Ġscuole": 3217,
  "Ġscuro": 8803,
  "Ġscusa": 8804,
  "Ġse": 365,
  "Ġsebbene": 8992,
  "Ġsecca": 9485,
  "Ġsecoli": 9486,
  "Ġsecolo": 4580,
  "Ġsecon": 809,
  "Ġseconda": 1751,
  "Ġsecondi": 6362,
  "Ġsecondo": 1112,
  "Ġsede": 2768,
  "Ġsedi": 6313,
  "Ġseduta": 6498,
  "Ġsedute": 10682,
  "Ġseggi": 8152,
  "Ġseggiolino": 12002,
  "Ġsegna": 2045,
  "Ġsegnala": 11758,
  "Ġsegnalare": 10325,
  "Ġsegnale": 10324,
  "Ġsegnali": 9218,
  "Ġsegni": 9484,
  "Ġsegno": 4682,
  "Ġsegre": 2679,
  "Ġsegretario": 6226,
  "Ġsegreti": 11815,
  "Ġsegreto": 6617,
  "Ġsegu": 2826,
  "Ġsegue": 4873,
  "Ġseguendo": 8014,
  "Ġseguente": 8783,
  "Ġseguenti": 6037,
  "Ġsegui": 1281,
  "Ġseguire": 3135,
  "Ġseguito": 1961,
  "Ġsei": 1879,
  "Ġsel": 6080,
  "Ġsele": 1943,
  "Ġseleziona": 2950,
  "Ġselezionare": 8789,
  "Ġselezionati": 8790,
  "Ġselezionato": 9253,
  "Ġselezione": 3767,
  "Ġselva": 9841,
  "Ġsemb": 5594,
  "Ġsembra": 1693,
  "Ġsembrano": 6002,
  "Ġsembrava": 9694,
  "Ġsembrerebbe": 11141,
  "Ġsemi": 3919,
  "Ġsemina": 6717,
  "Ġsemp": 580,
  "Ġsempli": 1195,
  "Ġsemplice": 1436,
  "Ġsemplicemente": 3026,
  "Ġsemplici": 5135,
  "ĠsemplicitÃł": 11639,
  "Ġsempre": 657,
  "Ġsen": 855,
  "Ġsenatore": 9948,
  "Ġseno": 9620,
  "Ġsensazione": 5970,
  "Ġsensi": 2188,
  "Ġsensibili": 6021,
  "ĠsensibilitÃł": 10998,
  "Ġsenso": 1575,
  "Ġsensore": 10279,
  "Ġsente": 6467,
  "Ġsentenza": 6778,
  "Ġsenti": 1634,
  "Ġsentimenti": 11708,
  "Ġsentire": 5284,
  "Ġsentirsi": 9183,
  "Ġsentito": 6812,
  "Ġsento": 7922,
  "Ġsenz": 10848,
  "Ġsenza": 780,
  "Ġsepa": 3443,
  "Ġseparazione": 11073,
  "Ġsequ": 5349,
  "Ġser": 682,
  "Ġsera": 2172,
  "Ġserata": 4927,
  "Ġseri": 6466,
  "Ġseria": 7904,
  "Ġserie": 1665,
  "Ġserio": 11532,
  "Ġserve": 3604,
  "Ġserver": 9086,
  "Ġservi": 795,
  "Ġservire": 10839,
  "Ġservita": 10840,
  "Ġservizi": 1502,
  "Ġservizio": 1336,
  "Ġservono": 7008,
  "Ġsess": 4857,
  "Ġsessione": 9947,
  "Ġsesso": 8493,
  "Ġsessuale": 9817,
  "Ġsesto": 9946,
  "Ġset": 3679,
  "Ġsete": 10681,
  "Ġsette": 2228,
  "Ġsettembre": 2921,
  "Ġsetti": 1577,
  "Ġsettiman": 9685,
  "Ġsettimana": 2440,
  "Ġsettimanale": 12020,
  "Ġsettimane": 3469,
  "Ġsettore": 1796,
  "Ġsettori": 6626,
  "Ġsezione": 2857,
  "Ġsezioni": 10037,
  "Ġsf": 1735,
  "Ġsfa": 10584,
  "Ġsfal": 11720,
  "Ġsfi": 2210,
  "Ġsfida": 4045,
  "Ġsfide": 8356,
  "Ġsfo": 6279,
  "Ġsfondo": 10290,
  "Ġsfor": 3907,
  "Ġsforzi": 11877,
  "Ġsforzo": 7733,
  "Ġsfrutta": 4116,
  "Ġsfruttamento": 9800,
  "Ġsfruttare": 8412,
  "Ġsfu": 8722,
  "Ġsguardo": 5731,
  "Ġsho": 4299,
  "Ġshow": 9804,
  "Ġsi": 342,
  "Ġsia": 711,
  "Ġsiamo": 1547,
  "Ġsiano": 2269,
  "Ġsicili": 9475,
  "Ġsicu": 989,
  "Ġsicura": 9639,
  "Ġsicuramente": 2744,
  "Ġsicurezza": 1776,
  "Ġsicuri": 7033,
  "Ġsicuro": 3264,
  "Ġsiete": 4578,
  "Ġsignifica": 1554,
  "Ġsignificati": 10276,
  "Ġsignificativa": 9177,
  "Ġsignificativi": 10277,
  "Ġsignificativo": 7658,
  "Ġsignificato": 4728,
  "Ġsigno": 7529,
  "Ġsilen": 5347,
  "Ġsilenzio": 10443,
  "Ġsilicati": 10013,
  "Ġsimbo": 4783,
  "Ġsimboli": 9303,
  "Ġsimbolo": 5909,
  "Ġsimi": 2579,
  "Ġsimile": 5047,
  "Ġsimili": 4457,
  "Ġsimpa": 5908,
  "Ġsimu": 7530,
  "Ġsimulazione": 11982,
  "Ġsin": 925,
  "Ġsinc": 6784,
  "Ġsinda": 2240,
  "Ġsindacali": 11777,
  "Ġsindacati": 10332,
  "Ġsindacato": 11776,
  "Ġsindaci": 11775,
  "Ġsindaco": 3664,
  "Ġsiner": 9631,
  "Ġsingle": 9418,
  "Ġsingo": 2189,
  "Ġsingola": 7382,
  "Ġsingole": 9733,
  "Ġsingoli": 6022,
  "Ġsingolo": 5407,
  "Ġsinistra": 5329,
  "Ġsinistro": 10587,
  "Ġsino": 6278,
  "Ġsinte": 8669,
  "Ġsintesi": 8670,
  "Ġsinto": 4605,
  "Ġsintomi": 6441,
  "Ġsiste": 951,
  "Ġsistema": 1070,
  "Ġsistemare": 9138,
  "Ġsistemazione": 10222,
  "Ġsistemi": 3872,
  "Ġsiti": 2766,
  "Ġsito": 1200,
  "Ġsitter": 10663,
  "Ġsitua": 1520,
  "Ġsituata": 10272,
  "Ġsituato": 6588,
  "Ġsituazione": 2324,
  "Ġsituazioni": 5143,
  "Ġsli": 11279,
  "Ġslo": 3236,
  "Ġslogan": 9773,
  "Ġslot": 4746,
  "Ġsm": 8930,
  "Ġsmal": 8932,
  "Ġsmart": 2468,
  "Ġsmartphone": 2723,
  "Ġsmenti": 11280,
  "Ġso": 397,
  "Ġsocc": 8164,
  "Ġsoci": 1129,
  "Ġsocial": 5222,
  "Ġsociale": 1479,
  "Ġsociali": 2608,
  "Ġsocieta": 9653,
  "ĠsocietÃł": 1328,
  "Ġsocio": 6965,
  "Ġsoddis": 2738,
  "Ġsoddisfa": 3890,
  "Ġsoddisfare": 8376,
  "Ġsoddisfazione": 6629,
  "Ġsof": 10053,
  "Ġsoff": 4323,
  "Ġsoffer": 5467,
  "Ġsofferenza": 9316,
  "Ġsofistica": 12024,
  "Ġsoftware": 4687,
  "Ġsoggetti": 3158,
  "Ġsoggetto": 4324,
  "Ġsoggior": 4879,
  "Ġsoggiorno": 5312,
  "Ġsogna": 10706,
  "Ġsogni": 10055,
  "Ġsogno": 4990,
  "Ġsol": 898,
  "Ġsola": 2737,
  "Ġsolamente": 5844,
  "Ġsoldi": 3086,
  "Ġsole": 3046,
  "Ġsoli": 1354,
  "ĠsolidarietÃł": 9162,
  "Ġsolido": 9670,
  "Ġsolitamente": 7053,
  "Ġsolito": 4268,
  "Ġsolitudine": 11667,
  "Ġsolle": 5014,
  "Ġsolleci": 11122,
  "Ġsolo": 650,
  "Ġsoltanto": 3458,
  "Ġsoluzione": 2049,
  "Ġsoluzioni": 2916,
  "Ġsom": 3285,
  "Ġsomma": 6469,
  "Ġsomme": 8395,
[...]
